{"!": 0, "\"": 1, "#": 2, "$": 3, "%": 4, "&": 5, "'": 6, "(": 7, ")": 8, "*": 9, "+": 10, ",": 11, "-": 12, ".": 13, "/": 14, "0": 15, "1": 16, "2": 17, "3": 18, "4": 19, "5": 20, "6": 21, "7": 22, "8": 23, "9": 24, ":": 25, ";": 26, "<": 27, "=": 28, ">": 29, "?": 30, "@": 31, "A": 32, "B": 33, "C": 34, "D": 35, "E": 36, "F": 37, "G": 38, "H": 39, "I": 40, "J": 41, "K": 42, "L": 43, "M": 44, "N": 45, "O": 46, "P": 47, "Q": 48, "R": 49, "S": 50, "T": 51, "U": 52, "V": 53, "W": 54, "X": 55, "Y": 56, "Z": 57, "[": 58, "\\": 59, "]": 60, "^": 61, "_": 62, "`": 63, "a": 64, "b": 65, "c": 66, "d": 67, "e": 68, "f": 69, "g": 70, "h": 71, "i": 72, "j": 73, "k": 74, "l": 75, "m": 76, "n": 77, "o": 78, "p": 79, "q": 80, "r": 81, "s": 82, "t": 83, "u": 84, "v": 85, "w": 86, "x": 87, "y": 88, "z": 89, "{": 90, "|": 91, "}": 92, "~": 93, "#version:": 93, "0.2": 94, "#version:0.2": 95, "\u0430": 96, "\u0120": 97, "\u0430\u0120": 98, "\u0431": 99, "\u0431\u0120": 100, "\u0432": 101, "\u0432\u0120": 102, "\u0433": 103, "\u0433\u0120": 104, "\u0434": 105, "\u0434\u0120": 106, "\u0435": 107, "\u0435\u0120": 108, "\u0451": 109, "\u0451\u0120": 110, "\u0436": 111, "\u0436\u0120": 112, "\u0437": 113, "\u0437\u0120": 114, "\u0438": 115, "\u0438\u0120": 116, "\u0439": 117, "\u0439\u0120": 118, "\u043a": 119, "\u043a\u0120": 120, "\u043b": 121, "\u043b\u0120": 122, "\u043c": 123, "\u043c\u0120": 124, "\u043d": 125, "\u043d\u0120": 126, "\u043e": 127, "\u043e\u0120": 128, "\u043f": 129, "\u043f\u0120": 130, "\u0440": 131, "\u0440\u0120": 132, "\u0441": 133, "\u0441\u0120": 134, "\u0442": 135, "\u0442\u0120": 136, "\u0443": 137, "\u0443\u0120": 138, "\u0444": 139, "\u0444\u0120": 140, "\u0445": 141, "\u0445\u0120": 142, "\u0446": 143, "\u0446\u0120": 144, "\u0447": 145, "\u0447\u0120": 146, "\u0448": 147, "\u0448\u0120": 148, "\u0449": 149, "\u0449\u0120": 150, "\u044a": 151, "\u044a\u0120": 152, "\u044b": 153, "\u044b\u0120": 154, "\u044c": 155, "\u044c\u0120": 156, "\u044d": 157, "\u044d\u0120": 158, "\u044e": 159, "\u044e\u0120": 160, "\u044f": 161, "\u044f\u0120": 162, "\u0441\u0442": 163, "\u0435\u043d": 164, "\u0440\u043e": 165, "\u0440\u0430": 166, "\u043a\u043e": 167, "\u043d\u043e": 168, "\u0440\u0435": 169, "\u043f\u043e": 170, "\u043d\u0438": 171, "\u0442\u043e": 172, "\u043d\u0430": 173, "\u0442\u0435": 174, "\u0432\u043e": 175, "\u043b\u044c": 176, "\u0432\u0430": 177, "\u0440\u0438": 178, "\u043d\u044b": 179, "\u043b\u0438": 180, "\u043a\u0430": 181, "\u0435\u043d\u0438": 182, "\u0437\u0430": 183, "\u0433\u043e": 184, "\u0434\u0435": 185, "\u043d\u0430\u0120": 186, "\u043b\u0435": 187, "\u0442\u0430": 188, "\u043e\u0431": 189, "\u0433\u043e\u0120": 190, "\u043f\u0440\u043e": 191, "\u0432\u0435": 192, "\u043b\u043e": 193, "\u0434\u0430": 194, "\u043b\u0430": 195, "\u043d\u0435": 196, "\u0441\u043e": 197, "\u0432\u0438": 198, "\u0434\u043e": 199, "\u0442\u0438": 200, "\u0446\u0438": 201, "\u043c\u043e": 202, "\u0440\u0443": 203, "\u043c\u0435": 204, "\u043b\u0438\u0120": 205, "\u043a\u0438": 206, "\u0447\u0435": 207, "\u0434\u0438": 208, "\u0441\u043a\u043e": 209, "\u0441\u0442\u0430": 210, "\u043f\u0435": 211, "\u0442\u043e\u0120": 212, "\u0442\u044c\u0120": 213, "\u0441\u0438": 214, "\u043c\u0438": 215, "\u0441\u044f\u0120": 216, "\u043c\u0430": 217, "\u0432\u044b": 218, "\u0431\u043e": 219, "\u043f\u0440\u0435": 220, "\u043d\u0435\u0120": 221, "\u0441\u0435": 222, "\u0441\u0442\u0432": 223, "\u0447\u0430": 224, "\u043f\u0430": 225, "\u043f\u0440\u0438": 226, "\u0431\u0443": 227, "\u043e\u0442": 228, "\u043d\u043e\u0120": 229, "\u0447\u0438": 230, "\u0441\u0442\u043e": 231, "\u043f\u043e\u0120": 232, "\u043e\u0441": 233, "\u0447\u0442\u043e\u0120": 234, "\u0441\u0430": 235, "\u0435\u0442\u0120": 236, "\u0433\u0430": 237, "\u0440\u044b": 238, "\u043d\u043e\u0439\u0120": 239, "\u0445\u043e": 240, "\u0442\u0435\u0440": 241, "\u0441\u043a\u0438": 242, "\u043d\u044b\u0445\u0120": 243, "\u0431\u044b": 244, "\u0442\u0435\u043b\u044c": 245, "\u043d\u043e\u0433\u043e\u0120": 246, "\u043b\u0430\u0120": 247, "\u0449\u0438": 248, "\u043b\u0443": 249, "\u0442\u0441\u044f\u0120": 250, "\u0438\u0437": 251, "\u0441\u0443": 252, "\u043a\u0443": 253, "\u043c\u0435\u043d": 254, "\u043e\u043d": 255, "\u0434\u0443": 256, "\u0438\u043d": 257, "\u0432\u043b": 258, "\u0436\u0438": 259, "\u043f\u0438": 260, "\u0435\u043d\u0438\u044f\u0120": 261, "\u043f\u0440\u0430": 262, "\u043a\u0438\u0120": 263, "\u0435\u0440": 264, "\u0434\u0430\u0120": 265, "\u0441\u0442\u0438": 266, "\u043d\u0443": 267, "\u0448\u0438": 268, "\u043b\u043e\u0120": 269, "\u043c\u0438\u0120": 270, "\u0436\u0435\u0120": 271, ",\u0120": 272, "',\u0120": 273, "\u0440\u0430\u0437": 274, "\u0442\u0430\u0120": 275, "\u043e\u0440": 276, "\u043c,\u0120": 277, "\u0442\u044c": 278, "\u0432\u0435\u0440": 279, "\u0433\u0438": 280, "\u043d\u044b\u0439\u0120": 281, "\u0435\u043d\u0438\u0435\u0120": 282, "\u043a\u043e\u0442\u043e": 283, "\u0441\u044c\u0120": 284, "\u043d\u044b\u0435\u0120": 285, "\u043b\u044f\u0120": 286, "\u043a\u0430\u0120": 287, "\u0436\u0430": 288, "\u0442\u0443": 289, "\u0448\u0435": 290, "\u0441\u044f": 291, "\u043f\u0440\u0435\u0434": 292, "\u0431\u0443\u0440": 293, "\u0434\u0435\u043d": 294, "\u0441\u0442\u0438\u0120": 295, "\u043c\u0443\u0120": 296, "\u041f": 297, "\u041f\u0435": 298, "\u0442\u0435\u0440\u0431\u0443\u0440": 299, "\u0433\u0440\u0430": 300, "\u0449\u0435": 301, "\u0437\u0430\u0120": 302, "\u043a\u043e\u043d": 303, "\u043f\u043e\u0434": 304, "\u0441\u0442\u0440\u0430": 305, "\u0431\u0435": 306, "\u0437\u0438": 307, "\u0440\u0430\u0441": 308, "\u044d\u0442\u043e": 309, ".\u0120": 310, "'.\u0120": 311, "\u0441\u043a\u0430": 312, "\u0446\u0438\u0438\u0120": 313, "\u043a\u043e\u0120": 314, "\u0449\u0430": 315, "\u0442\u044b": 316, "\u0441\u043e\u043e\u0431": 317, "\u043f\u0443": 318, "\u0438\u0437\u0120": 319, "20": 320, "\u0440\u0430\u0120": 321, "\u043f\u0435\u0440\u0435": 322, "\u043d\u044f": 323, "\u0436\u0435": 324, "\u0446\u0435\u043d": 325, "\u043b\u044e": 326, "\u043a\u043e\u043c": 327, "\u041a": 328, "\u041a\u0430": 329, "\u0432\u0430\u043d\u0438": 330, "\u0420": 331, "\u0420\u043e\u0441": 332, "\u0441\u043a\u043e\u0433\u043e\u0120": 333, "\u043b\u044f": 334, "\u0441\u043a\u043e\u0439\u0120": 335, "\u0441\u0442\u0432\u0435\u043d": 336, "\u0431\u0438": 337, "\u0441\u043f\u043e": 338, "\u0444\u0438": 339, "\u0432,\u0120": 340, "\u041f\u0435\u0442\u0435\u0440\u0431\u0443\u0440": 341, "\u0432\u0430\u0120": 342, "\u0446\u0435": 343, "\u0431\u0430": 344, "\u0430\u043a": 345, "\u043b\u0435\u0120": 346, "\u0437\u043e": 347, "\u043c\u0443": 348, "\u0441\u0442\u0440\u043e": 349, "\u0442\u0440\u0430": 350, "\u0420\u043e\u0441\u0441\u0438": 351, "\u0432.\u0120": 352, "\u0440\u044f": 353, "\u0432\u043e\u0437": 354, "\u0441\u043b\u0443": 355, "\u043a\u043e\u0442\u043e\u0440\u044b": 356, "\u0441\u0442\u044c\u0120": 357, "\u043d\u044b\u0120": 358, "\u0441\u043b\u0435": 359, "\u0439,\u0120": 360, "\u043d\u044b\u043c\u0120": 361, "\u0441\u043f\u0435": 362, "\u044e\u0442\u0120": 363, "\u0434\u043e\u043b": 364, "\u0440\u0430\u0431\u043e": 365, "\u0433\u043b\u0430": 366, "\u043e\u0442\u0120": 367, "\u0442\u044b\u0120": 368, "\u0435\u0442\u0441\u044f\u0120": 369, "\u0442\u0435\u0120": 370, "\u0441\u0432\u043e": 371, "\u0434\u043b\u044f\u0120": 372, "\u0440\u043e\u0432\u0430": 373, "\u0433\u0443": 374, "\u0432\u0440\u0435": 375, "\u0437\u043d\u0430": 376, "\u043d\u043a": 377, "\u0439.\u0120": 378, "\u043d\u043e\u043c\u0120": 379, "\u0442\u0440\u043e": 380, "\u0434\u043e\u0120": 381, "\u0441\u0442\u0443": 382, "\u043c\u043e\u0436": 383, "\u043d\u043e\u0435\u0120": 384, "\u0433\u043e\u0434": 385, "\u043c\u044b": 386, "\u0435\u043c\u0120": 387, "\u041f\u0435\u0442\u0435\u0440\u0431\u0443\u0440\u0433": 388, "\u0435\u0433\u043e\u0120": 389, "\u0434\u0435\u0442\u0120": 390, "\u0435\u043d\u0438\u0438\u0120": 391, "\u0442,\u0120": 392, "\u041f\u043e": 393, "\u043a\u0430\u043a\u0120": 394, "\u043f\u043b\u0430": 395, "\u044f,\u0120": 396, "\u0430\u0440": 397, "\u0442\u043e\u0432\u0120": 398, "\u0441\u0441\u0438": 399, "\u0430\u043b\u044c": 400, "\u0434\u043d\u0438": 401, "\u0434\u0435\u0440": 402, "\u0433\u043e\u0440\u043e": 403, "\u0432\u0442\u043e": 404, "\u043f\u0435\u0440": 405, "\u043b\u044c\u0120": 406, "\u043b\u0435\u043d": 407, "\u043d\u0430\u044f\u0120": 408, "\u0434\u0435\u0120": 409, "\u0442\u0435\u043b\u0435": 410, "\u0433\u043e\u0432\u043e": 411, "\u0435,\u0120": 412, "\u041f\u043e\u0120": 413, "\u0440\u0435\u0434": 414, "\u0438,\u0120": 415, "\u0441\u043b\u043e": 416, "\u043a\u0440\u0430": 417, "\u043b\u0441\u044f\u0120": 418, "\u043b\u0435\u043a": 419, "\u0435\u043a": 420, "\u0447\u0435\u043d": 421, "\u0442\u0440": 422, "\u0442\u0440\u0435": 423, "\u0441\u0442\u0432\u0438": 424, "\u0441\u043a\u0438\u0439\u0120": 425, "\u0436\u0434": 426, "\u043d\u043e\u0432": 427, "\u0431\u043b\u0435": 428, "\u0431\u044b\u0120": 429, "\u0442\u044c\u0441\u044f\u0120": 430, "\u0432\u043b\u044f": 431, "\u043a\u0430\u0437\u0430": 432, "\u043a\u043e\u0432\u0120": 433, "\u0434\u0430\u043d": 434, "\u041a\u0430\u043a\u0120": 435, "\u0442\u0438\u0120": 436, "\u0441\u0442\u0432\u0430\u0120": 437, "\u0441\u043e\u0431": 438, "\u043e\u0434": 439, "201": 440, "\u0445\u043e\u0434\u0438": 441, "\u0437\u044b": 442, "\u0441\u0435\u0120": 443, "\u043b\u044c\u043a\u043e\u0120": 444, "\u041d": 445, "\u041d\u0430": 446, "\u0441\u043a\u0438\u0445\u0120": 447, "\u0448\u0430": 448, "\u0442\u0430\u043a": 449, "\u044e\u0449\u0438": 450, "\u0442\u0443\u0120": 451, "\u0432\u0448\u0438": 452, "\u0444\u043e\u0440": 453, "\u0441\u0442\u0432\u043e\u0120": 454, "\u043a\u0435\u0120": 455, "\u0441\u0441": 456, "\u043c.\u0120": 457, "\u043c\u0430\u0120": 458, "\u0437\u0430\u044f": 459, "\u0441\u0442\u0430\u0432\u0438": 460, "\u0432\u0441\u0435": 461, "\u043e\u043d\u0120": 462, "\u0438\u0441": 463, "\u0436\u0435\u043d": 464, "\u043c\u0435\u0440": 465, "\u0432\u0443": 466, "\u0447\u0430\u0441\u0442": 467, "\u043a\u0443\u0120": 468, "\u0441\u0442\u043e\u044f": 469, "\u043f\u0430\u043d\u0438": 470, "\u043b\u0438\u0441\u044c\u0120": 471, "\u043f\u043e\u043b": 472, "\u0424": 473, "\u0424\u043e\u043d": 474, "\u0435\u0439\u0120": 475, "\u0432\u044f": 476, "\u0431\u0443\u0434\u0435\u0442\u0120": 477, "\u043c\u0435\u0441\u0442": 478, "\u044d\u0442\u043e\u0120": 479, "\u0440\u0438\u0120": 480, "\u0445\u0430": 481, "\u0434\u0430\u043d\u0438": 482, "\u0438.\u0120": 483, "\u043d\u043e\u0441\u0442\u0438\u0120": 484, "\u043f\u043e\u043b\u0443": 485, "\u043f\u043e\u0441": 486, "\u043e\u0440\u0433\u0430": 487, "\u043c\u044b\u0120": 488, "\u0441\u043e\u043e\u0431\u0449\u0430": 489, "\u0424\u043e\u043d\u0442\u0430": 490, "\u0442\u0438\u0432": 491, "\u0433\u043e\u0434\u0430\u0120": 492, "\u0442\u044f": 493, "\u0437\u0435": 494, "\u043d\u0443\u044e\u0120": 495, "\u0421": 496, "\u0421\u0430": 497, "\u0440\u0430\u0439": 498, "\u043b,\u0120": 499, "\u0441\u044c": 500, "\u043f\u0440\u043e\u0446\u0435\u043d": 501, "\u0442\u0440\u0443": 502, "\u043f\u043e\u043b\u0438": 503, "\u043d\u0438\u043a": 504, "\u0431\u043e\u043b\u044c": 505, "\u043e\u043d\u0430": 506, "\u043b\u0435\u0442": 507, "\u0435\u0432": 508, "\u043f\u0430\u0440": 509, "\u044d\u0442\u043e\u043c\u0120": 510, "\u0432\u0430\u0442\u044c\u0120": 511, "\u044f.\u0120": 512, "\u043d\u0434": 513, "\u043a\u0440\u044b": 514, "\u0441\u043a\u043e\u043c\u0120": 515, "\u041a\u043e": 516, "\u0433\u043e,\u0120": 517, "\u0440\u0430\u043d": 518, "\u043a\u043e\u043c\u043f\u0430\u043d\u0438": 519, "\u0438\u0445\u0120": 520, "\u0442\u043e\u043c\u0120": 521, "\u0432\u0440\u0435\u043c": 522, "\u043b\u043e\u0432\u0435": 523, "\u043d\u0430\u0447\u0430": 524, "\u0441\u043a\u0430\u0437\u0430": 525, "\u043d\u0438\u043c\u0430": 526, "\u0441\u043e\u043e\u0431\u0449\u0438": 527, "\u0440\u0443\u0431\u043b\u0435": 528, "\u0431\u044b\u043b\u0120": 529, "\u0432\u043e\u0434": 530, "'\u0424\u043e\u043d\u0442\u0430": 531, "\u0432\u043e\u0434\u0438": 532, "\u0435.\u0120": 533, "\u0440\u043e\u0432": 534, "\u0432\u0430\u0440": 535, "\u0447\u0435\u043b\u043e\u0432\u0435": 536, "\u041c": 537, "\u041c\u0430": 538, "\u0441\u0442\u043e\u0447": 539, "\u0442\u0430\u043a\u0436\u0435\u0120": 540, "\u0432\u043e\u0439\u0120": 541, "\u0433\u043e\u043b\u043e": 542, "\u043e\u0431\u044a": 543, "\u0432\u0435\u0442": 544, "\u0446\u0438\u044f\u0120": 545, "\u0441\u0442\u0432\u043e": 546, "\u043d\u043e,\u0120": 547, "\u041d\u0430\u0120": 548, "\u0434\u0435\u0440\u0436\u0430": 549, "\u043c\u0438\u043d\u0438": 550, "\u0431\u043b\u0438": 551, "\u0434\u0430\u0440": 552, "\u043b\u0438\u0446": 553, "\u0437\u0443": 554, "\u0432\u043b\u0435\u043d": 555, "\u0431\u0440": 556, "\u043a\u0442\u043e": 557, "\u0443\u0436\u0435\u0120": 558, "\u043a\u043e\u0439\u0120": 559, "\u0440\u044b\u0120": 560, "\u0442\u0440\u0438": 561, "\u043f\u0440\u0430\u0432\u0438": 562, "\u0430\u0432\u0442\u043e": 563, "\u0445,\u0120": 564, "\u0432\u043e\u0120": 565, "\u0440\u043e\u0432\u0120": 566, "\u043a\u043e\u0442\u043e\u0440\u043e": 567, "\u0442\u0435\u043b\u044c\u0120": 568, "\u0440\u0443\u043f": 569, "\u0449\u0435\u0120": 570, "\u0432\u0435\u0434": 571, "\u0434\u0435\u0439": 572, "\u041d\u043e": 573, "\u0435\u0437": 574, "\u0434\u0440\u0443": 575, "\u043f\u0440\u043e\u0438\u0437": 576, "\u0431\u043e\u043b\u0435": 577, "\u043d\u044f\u0120": 578, "\u0440\u043e\u0441\u0441\u0438": 579, "\u0420\u043e\u0441\u0441\u0438\u0438\u0120": 580, "\u0431\u044b\u043b\u043e\u0120": 581, "\u0441\u043c\u043e": 582, "0\u0120": 583, "00\u0120": 584, "\u0441\u043a\u0438\u0435\u0120": 585, "\u043a\u043b\u044e": 586, "\u0433\u043e\u0434\u0430": 587, "\u0432\u0440\u0435\u043c\u044f\u0120": 588, "\u0435\u043d\u0438\u044e\u0120": 589, "\u043c\u0435\u0120": 590, "\u0434\u0443\u0442\u0120": 591, "\u0441\u0442\u0435": 592, "\u043e\u043d\u0430\u0120": 593, "\u0433\u0434\u0430\u0120": 594, "\u0421\u043e": 595, "\u0442\u044b\u0441\u044f": 596, "\u0421\u0435": 597, "\u043a\u0440\u0435": 598, "\u0432\u0441\u0435\u0120": 599, "\u043a\u043e\u043d\u043e": 600, "\u0447\u0442\u043e": 601, "\u0441\u043b\u0443\u0436": 602, "\u0430\u0434": 603, "\u043d\u0438\u0120": 604, "200": 605, "\u043b\u043b\u0438": 606, "\u0441\u0442\u0440\u0435": 607, "\u0442\u0441\u044f": 608, "\u0441\u043e\u0120": 609, "\u0432\u0430,\u0120": 610, "\u0446\u0438\u0430\u043b\u044c": 611, "\u043f\u043b\u043e": 612, "\u041c\u0438": 613, "\u0417": 614, "\u0417\u0430": 615, "\u0441\u0442\u0432\u0443": 616, "\u043a\u043e\u0442\u043e\u0440\u044b\u0435\u0120": 617, "\u0441\u0442\u0430\u043d\u043e": 618, "\u0441\u0442\u0440\u043e\u0438": 619, "\u0441\u0442\u044c": 620, "\u043b\u043e\u0441\u044c\u0120": 621, "\u0445\u043e\u0434": 622, "\u043d\u0435\u0435\u0120": 623, "\u043b\u0430\u0441\u044c\u0120": 624, "\u0442.\u0120": 625, "\u0441\u043e\u043e\u0431\u0449\u0430\u0435\u0442\u0120": 626, "\u043a\u043e\u043c\u0438": 627, "\u043d\u043e\u0441\u0442\u044c\u0120": 628, "\u044d\u043a": 629, "\u0441\u043f\u043e\u0440": 630, "\u0437\u0430\u044f\u0432\u0438": 631, "\u0448\u0435\u043d": 632, "\u043e\u0431\u043b\u0430": 633, "\u0431\u044b\u043b\u0438\u0120": 634, "\u0442\u043e\u043b\u044c\u043a\u043e\u0120": 635, "\u0443\u0440": 636, "\u0444\u0435": 637, "\u0441\u0430\u0120": 638, "\u0434\u043e\u043b\u0436": 639, "\u0432\u0435\u0441\u0442": 640, "\u0420\u0430": 641, "\u043f\u043e\u0441\u043b\u0435\u0120": 642, "\u0436\u0434\u0430": 643, "\u0437\u0438\u0434\u0435\u043d": 644, "\u043d\u0438\u0446": 645, "\u043f\u0430\u0441": 646, "\u0444\u043e\u0440\u043c\u0430": 647, "\u043f\u0440\u043e\u0435\u043a": 648, "\u043e\u0440\u0433\u0430\u043d\u0438": 649, "\u043e\u0442\u043c\u0435": 650, "\u044e\u0442\u0441\u044f\u0120": 651, "\u0441\u0432\u044f": 652, "\u0446\u0438\u044e\u0120": 653, "\u043d\u043e\u0432\u0120": 654, "\u0441\u043b\u0438\u0120": 655, "\u043d\u0430\u0440\u0443": 656, "\u0447\u0438\u0442\u0430": 657, "\u043a\u043e\u0440": 658, "\u0442-": 659, "\u0442\u0438\u0447\u0435": 660, "\u043f\u044b": 661, "\u0434\u0435\u043b\u0430": 662, "\u0410": 663, "\u0410\u043b\u0435\u043a": 664, "\u0432\u0430\u043d\u0438\u044f\u0120": 665, "\u0441\u0440\u0435\u0434": 666, "\u0438\u043b\u0438\u0120": 667, "\u0430\u043d": 668, "\u043b\u0438,\u0120": 669, "\u0440\u043e\u0441\u0441\u0438\u0439": 670, "\u0442\u0440\u0443\u0434\u043d\u0438": 671, ").\u0120": 672, "\u044e,\u0120": 673, "\u043b\u044b": 674, "\u043f\u0440\u0438\u0120": 675, "\u0441\u0442\u0443\u043f": 676, "\u0441\u043e\u0442\u0440\u0443\u0434\u043d\u0438": 677, "\u0412": 678, "\u0412\u043e": 679, "\u0440\u0435\u0448": 680, "\u0441\u0442\u043e\u0447\u043d\u0438\u043a": 681, "\u0442\u0435\u043b\u0438\u0120": 682, "\u0433\u0435\u043d": 683, "\u043f\u0435\u0440\u0435\u0434\u0430": 684, "\u0442\u0432\u0435\u0440": 685, "\u0431\u043e\u0440": 686, "\u0441\u0430\u043c\u043e": 687, "\u043d\u044b\u043c\u0438\u0120": 688, "\u0440\u0438\u0438\u0120": 689, "\u043d\u0438\u043a\u0430": 690, "\u0440\u043e\u0434": 691, "\u0422": 692, "\u0422\u0430": 693, "\u0440\u0430\u0431\u043e\u0442\u0430": 694, "\u0431\u043e\u043b\u0435\u0435\u0120": 695, "\u043c\u0438\u043b\u043b\u0438": 696, "\u0435\u043d\u0438\u0439\u0120": 697, "\u043c\u0430\u0440": 698, "\u0418": 699, "\u0418\u0441\u0442\u043e\u0447\u043d\u0438\u043a": 700, "\u043f\u043e\u043b\u043e": 701, ":\u0120": 702, "\u0418\u0441\u0442\u043e\u0447\u043d\u0438\u043a:\u0120": 703, "\u0446\u0438\u043e\u043d": 704, "\u0441\u0435\u043d": 705, "\u0441\u043b\u0435\u0434": 706, "\u0433\u0435": 707, "\u043e\u0431\u0440\u0430": 708, "\u043d\u0438\u043a\u0120": 709, "\u0412\u0430": 710, "\u0432\u044b\u0445\u0120": 711, "\u0438\u0437\u0432\u0435\u0441\u0442": 712, "\u043e\u043a\u043e": 713, "\u043e\u043a": 714, "\u0441\u043d\u0438": 715, "\u0432\u043b\u0430": 716, "\u0443\u0447\u0430\u0441\u0442": 717, "\u043c\u043e\u0436\u0435\u0442\u0120": 718, "\u0413": 719, "\u0413\u0430": 720, "\u0435\u0449\u0435\u0120": 721, "\u041c\u0435": 722, "\u041c\u043e\u0441": 723, "\u0433\u043e\u0434\u0443\u0120": 724, "\u0445\u0438": 725, "\u0441\u043a\u0430\u044f\u0120": 726, "\u0437\u044b\u0432\u0430": 727, "\u0442\u043e\u0440": 728, "\u0433\u043e\u043b\u043e\u0432": 729, "\u043a\u043b\u0430": 730, "\u0445.\u0120": 731, "\u0441\u0442\u0430\u0432": 732, "\u043d\u043e\u0441\u0442\u0438": 733, "\u0441\u043b\u043e\u0432\u0430": 734, "\u0432\u0437": 735, "\u043e\u0442\u0432\u0435\u0442": 736, "\u043f\u0440\u0435\u0437\u0438\u0434\u0435\u043d": 737, "\u0434\u0435\u0440\u0430": 738, "\u043c\u043b": 739, "\u043e\u0431\u0438": 740, "\u0438\u043d\u0444\u043e\u0440\u043c\u0430": 741, "\u043a\u043e\u0442\u043e\u0440\u044b\u0439\u0120": 742, "\u0440\u0435\u0120": 743, "\u043b\u044c\u043d\u043e\u0433\u043e\u0120": 744, "\u041f\u0443": 745, "\u043c\u043d\u0438": 746, "\u0442\u043e\u0433\u043e,\u0120": 747, "\u0438\u0441\u043f\u043e": 748, "\u0431\u0440\u044f\u0120": 749, "\u0432\u0430.\u0120": 750, "\u0424\u0120": 751, "\u0420\u0424\u0120": 752, "\u043e\u0431\u0449\u0435": 753, "\u0447\u0438\u0441": 754, "\u0432\u0448\u0435": 755, "\u043e\u0441\u0442\u0430": 756, "\u043d\u0438\u0435\u0120": 757, "\u043d\u043e\u043c\u0443\u0120": 758, "\u0433\u043e\u0432\u043e\u0440\u0438": 759, "\u043f\u0440\u0435\u0441\u0441": 760, "\u0434\u0432\u0438": 761, "\u0442\u044c,\u0120": 762, "\u044e\u0449\u0435": 763, "\u043b\u044c\u0442\u0430": 764, "\u0442\u0435\u043b\u0435\u0439\u0120": 765, "\u043a\u0430\u043d": 766, "'\u0424\u043e\u043d\u0442\u0430\u043d": 767, "\u0434\u0435\u043b": 768, "\u043d\u0438\u044f\u0120": 769, "\u043f\u043e\u0434\u0120": 770, "\u0432\u043e\u0433\u043e\u0120": 771, "\u043e\u0442\u043d\u043e": 772, "\u0435\u0435\u0120": 773, "\u0432\u044b\u0435\u0120": 774, "\u041c\u043e\u0441\u043a": 775, "\u0441\u043f\u0435\u043a": 776, "\u0411": 777, "\u0411\u043e": 778, "\u0435\u043d\u0438\u044f": 779, "\u0432\u044b\u0120": 780, "\u043e\u043d\u0438\u0120": 781, "\u043f\u043e\u043b\u0443\u0447\u0438": 782, "\u043e\u043a\u043e\u043b\u043e\u0120": 783, "\u043f\u0435\u0440\u0430": 784, "\u0431\u0443\u0434\u0443\u0442\u0120": 785, "\u043e\u0440\u0433\u0430\u043d\u0438\u0437\u0430": 786, "\u043e\u0431\u043e": 787, "\u043a\u0435": 788, "\u0442\u0430\u043a\u0120": 789, "\u0418\u043d": 790, "\u0448\u0435\u0120": 791, "\u0444\u0430\u043a": 792, "\u0412\u043b\u0430": 793, "\u0434\u043e\u0440\u043e": 794, "\u0431\u0435\u0440": 795, "\u043f\u0438\u0441\u0430": 796, "\u0433\u043e\u0441\u0443": 797, "\u0437\u0430\u0434\u0435\u0440\u0436\u0430": 798, "\u041d\u043e\u0432\u043e": 799, "\u0442\u043e\u0447": 800, "\u041c\u043e": 801, "\u0432\u043e\u043f\u0440\u043e": 802, "\u043d\u0435\u0433\u043e\u0120": 803, "\u0432\u044b\u0439\u0120": 804, "\u043f\u0440\u0438\u043d\u044f": 805, "\u043f\u0440\u0435\u0434\u0441\u0442\u0430\u0432\u0438": 806, "\u0442\u044b\u0441\u044f\u0447\u0120": 807, "\u0431\u0430\u043d": 808, "\u0440\u0435\u0433\u0438": 809, "),\u0120": 810, "\u043e\u0431\u0435": 811, "\u0433\u043e\u0441\u0443\u0434\u0430\u0440": 812, "\u0434\u044b": 813, "\u043f\u0440\u0435\u0441\u0441-": 814, "\u043f\u043e\u0440": 815, "\u0433\u0438\u0120": 816, "\u0441\u043b\u0435\u0434\u043e": 817, "\u0435\u043d\u0438\u0435\u043c\u0120": 818, "\u043f\u0440\u0430\u0432\u043b": 819, "\u043d\u0438\u0438\u0120": 820, "\u0433\u043e\u0442\u043e": 821, "\u0442\u043e\u043c,\u0120": 822, "\u043a\u043e\u0432": 823, "\u0445\u0440\u0430": 824, "\u0441\u0442\u043e\u0440\u043e": 825, "\u0432\u043e\u0437\u043c\u043e\u0436": 826, "\u0437\u0443\u043b\u044c\u0442\u0430": 827, "\u0441\u0442\u0440\u043e\u0438\u0442\u0435\u043b\u044c": 828, "\u043f\u0435\u0442\u0435\u0440\u0431\u0443\u0440": 829, "\u043d\u0430\u043a\u043e\u0120": 830, "\u0440\u0443\u0120": 831, "\u043a\u0438,\u0120": 832, "\u0440\u043e\u043c\u0120": 833, "\u043a\u0432\u0430\u0440": 834, "\u0437\u0434\u0430\u043d\u0438": 835, "19": 836, "\u041f\u0435\u0442\u0435\u0440\u0431\u0443\u0440\u0433\u0430\u0120": 837, "'\u0421": 838, "\u043e\u0431\u0120": 839, "\u0434\u0435\u0439\u0441\u0442\u0432\u0438": 840, "\u043b\u0438\u0447": 841, "\u0442\u0440\u0430\u043d": 842, "\u0421\u0430\u043d\u043a": 843, "\u043a,\u0120": 844, "\u043f\u043e\u043c\u043e": 845, "\u0447\u0442\u043e\u0431\u044b\u0120": 846, "\u0440\u0435\u0437\u0443\u043b\u044c\u0442\u0430": 847, "\u043f\u0440\u0430\u0432\u043e": 848, "\u0441\u0442\u0430\u043d": 849, "\u044f\u043d": 850, "\u043f\u0440\u043e\u0446\u0435\u043d\u0442\u043e\u0432\u0120": 851, "\u0421\u0430\u043d\u043a\u0442-": 852, "\u0438\u044e": 853, "\u0441\u043a\u0430\u0437\u0430\u043b\u0120": 854, "\u043c\u0438,\u0120": 855, "\u0446\u0438\u0438,\u0120": 856, "\u043f\u0440\u0438\u044f": 857, "\u043d\u0438\u0445\u0120": 858, "\u044d\u0442\u043e\u0433\u043e\u0120": 859, "\u043a\u043e\u043c\u0120": 860, "\u0433\u043e\u0440\u043e\u0434": 861, "\u0444\u043e": 862, "\u0443\u0447\u0430": 863, "\u043e\u0431\u0440\u0430\u0437": 864, "\u043d\u043e-": 865, "\u0449\u0435\u043d": 866, "\u0432\u0430\u0440\u0438": 867, "\u043b\u0430\u0433\u0430": 868, "\u0447\u0438\u0120": 869, "\u0433\u0440\u043e": 870, "\u0432\u0435\u0120": 871, "\u0443\u0433\u043e\u043b\u043e\u0432": 872, "\u0432\u0430\u043b\u0120": 873, "\u043d\u0430\u043b\u0438": 874, "\u043d\u0438\u043a\u0438\u0120": 875, "\u0442\u0430,\u0120": 876, "\u043a\u043e\u043c\u0438\u0442\u0435": 877, "\u0430\u0432\u0438": 878, "\u041f\u0440\u043e": 879, "\u0446\u0430": 880, "\u043e\u0434\u0438": 881, "\u043d\u0435\u043d": 882, "\u0435\u0434\u0438": 883, "\u0412\u043b\u0430\u0434\u0438": 884, "\u043a\u0443\u0440": 885, "\u0433\u0440\u0443\u043f": 886, "\u043f\u043e\u043c\u043d\u0438": 887, "\u043f\u044f": 888, "\u0440\u0438\u0442\u043e": 889, "\u0439\u0447\u0430": 890, "\u041d\u0435": 891, "\u043d\u0438\u043a\u043e\u0432\u0120": 892, "\u0430\u043b\u0438": 893, "\u0442\u0438\u044f\u0120": 894, "\u0441\u043f\u0438": 895, "\u044f\u0432\u043b\u044f": 896, "\u0441\u043b\u0443\u0436\u0431": 897, "\u0441\u0442\u043e\u0438": 898, "\u0441\u0435\u0433\u043e\u0434": 899, "\u0432\u0430\u043d\u0438\u0435\u0120": 900, "\u041f\u0440\u0438": 901, "\u0441\u043e\u0432\u0120": 902, "\u0431\u044b\u043b\u0430\u0120": 903, "\u0441\u0442\u0432\u0435\u0120": 904, "\u041f\u0435\u0442\u0435\u0440\u0431\u0443\u0440\u0433\u0435\u0120": 905, "\u0432\u0440\u0435\u043c\u0435\u043d": 906, "\u043d\u043e\u0441\u0442\u044c": 907, "\u043c\u0438.\u0120": 908, "\u043f\u0440\u043e\u0442\u0438": 909, "\u0440\u0443\u043a\u043e": 910, "\u043a.\u0120": 911, "\u043e\u0442\u043d\u043e\u0448": 912, "\u0441\u043e\u0433\u043b\u0430": 913, "\u041a\u0438": 914, "\u0442\u0441\u044f,\u0120": 915, "\u043d\u0430,\u0120": 916, "\u0442\u0435\u043b\u044f\u0120": 917, "\u043f\u0440\u043e\u0438\u0437\u043e": 918, "-\u043b\u0435\u0442": 919, "\u0442\u0435\u0440\u0440\u0438\u0442\u043e": 920, "\u0447\u0435\u043c\u0120": 921, "\u043a\u0443\u043c\u0435\u043d": 922, "\u0410\u043b\u0435\u043a\u0441\u0430": 923, "\u043d\u0443\u0120": 924, "\u0441\u044b": 925, "\u0433\u0430\u0120": 926, "\u0443\u043b\u0438\u0446": 927, "\u043e\u0444\u0438": 928, "\u0410\u043b\u0435\u043a\u0441\u0430\u043d\u0434": 929, "\u041e": 930, "\u041e\u0431\u0120": 931, "\u0441\u0447\u0438\u0442\u0430": 932, "\u0432\u0430\u043d": 933, "\u044f\u0432\u0438": 934, "\u0432\u0430\u043b\u0438\u0120": 935, "\u041e\u0434": 936, "\u0420\u0418": 937, "\u043f\u0443\u0431\u043b\u0438": 938, "\u0442\u0430.\u0120": 939, "\u0431\u0440\u0430": 940, "\u043b\u043e\u0433\u0438": 941, "\u0434\u043e\u043c\u0120": 942, "\u043f\u0443\u0442\u0430": 943, "\u043b\u0435\u0442\u0120": 944, "\u0415": 945, "\u0415\u0432": 946, "\u0442\u0435\u043d": 947, "\u043b\u044c\u043d\u044b\u0439\u0120": 948, "\u0436\u0434\u0435\u043d": 949, "\u043d\u0430\u0442\u043e": 950, "\u043d\u0435\u0439\u0120": 951, "\u0411\u0430": 952, "\u0441\u043a\u043e\u043b\u044c\u043a\u043e\u0120": 953, "\u043c\u043e\u0431\u0438": 954, "\u0441\u0442\u0430\u0432\u043b\u044f": 955, "\u043d\u0438\u0447\u0435": 956, "\u0439\u0447\u0430\u0441\u0120": 957, "\u0434\u043e\u0431": 958, "\u043b\u044c\u0437\u043e": 959, "\u0443\u0434\u0430": 960, "\u043e\u043d\u0435": 961, "\u0421\u0435\u0440": 962, "\u0441\u043e\u0432\u0435\u0440": 963, "\u0410\u0120": 964, "\u0420\u0418\u0410\u0120": 965, "\u0412\u043b\u0430\u0434\u0438\u043c\u0438": 966, "\u0434\u043e\u043a\u0443\u043c\u0435\u043d": 967, "\u0443\u0447": 968, "\u0442\u0435\u043b\u044f": 969, "\u0441\u0442\u0430\u0120": 970, "\u043d\u043a\u0435": 971, "\u043c\u044c": 972, "\u043c\u043d\u043e": 973, "\u0437\u0430\u043a\u043e\u043d": 974, "\u0441\u043b\u0443\u0447\u0430": 975, "\u043a\u0430,\u0120": 976, "\u043f\u0440\u043e\u0432\u0435": 977, "\u0441\u043a\u0443": 978, "\u043e\u0442\u043c\u0435\u0442\u0438": 979, "\u0440\u0435\u043a\u0442\u043e": 980, "\u0435\u043d\u0438\u044f,\u0120": 981, "\u041d\u043e\u0120": 982, "\u0441\u0442\u0440\u0443": 983, "\u0441\u044c,\u0120": 984, "\u043f\u0440\u0438\u0437\u043d\u0430": 985, "\u0434\u0435\u043b\u044c": 986, "\u043d\u0438\u0442\u0435\u043b\u044c": 987, "\u043f\u043b\u043e\u0449\u0430": 988, "'\u0417": 989, "\u043d\u0438\u0439\u0120": 990, "\u0432\u0438\u0434\u0435": 991, "\u043a\u0438\u0445\u0120": 992, "\u043e\u043f\u0435\u0440\u0430": 993, "\u0434\u0432\u043e": 994, "\u0441\u043b\u0430": 995, "\u0423": 996, "\u0423\u043a\u0440\u0430": 997, "\u043c\u0430\u043d": 998, "\u043a\u043e\u0433\u0434\u0430\u0120": 999, "\u0433\u0434\u0435\u0120": 1000, "\u0441\u0435\u0440": 1001, "\u0414": 1002, "\u0414\u0435": 1003, "\u043d\u0430\u0434": 1004, "\u0435\u043c\u044b": 1005, "\u0438\u043c\u0435": 1006, "\u0441\u0442\u0440\u043e\u0439": 1007, "\u0433\u043e\u0434\u0430.\u0120": 1008, "\u043f\u0440\u043e\u0446\u0435\u043d\u0442\u043e": 1009, "\u0434\u0440\u0443\u0433\u0438": 1010, "\u043a\u0438.\u0120": 1011, "\u0440\u0443\u0431\u043b\u0435\u0439.\u0120": 1012, "\u0445\u043e\u0434\u044f": 1013, "\u043e\u0431\u0440\u0430\u0437\u043e": 1014, "\u0441\u043a\u0438\u043c\u0120": 1015, "\u0434\u0432\u0443": 1016, "\u0433\u0443\u0442\u0120": 1017, "\u0441\u0442\u0443\u043f\u0438": 1018, "\u0443\u0431\u0438": 1019, "\u043c\u0438\u043d\u0438\u0441\u0442\u0440\u0430": 1020, "\u043a\u043e\u043d\u0446": 1021, "\u0442\u0435\u0445": 1022, "\u041d\u0438": 1023, "\u0441\u0440\u043e": 1024, "\u0442\u0443\u0430": 1025, "\u0433\u0440\u0430\u043c": 1026, "\u0441\u0442\u0120": 1027, "\u0441\u043a\u043e\u0432": 1028, "\u0424\u0435": 1029, "\u043e\u0447\u0435": 1030, "\u043f\u0440\u0430\u0432\u0438\u0442\u0435\u043b\u044c": 1031, "\u0442\u0430\u043c\u0120": 1032, "\u043f\u0440\u043e\u0432\u0435\u0440": 1033, "'\u0424\u043e\u043d\u0442\u0430\u043d\u043a\u0435": 1034, "\u0441\u0442\u0443\u043f\u043b": 1035, "-\u0437\u0430\u0120": 1036, "\u041f\u0430": 1037, "\u044c\u044e\u0120": 1038, "\u0442\u0430.": 1039, "\u043d\u0430\u0445\u043e\u0434\u0438": 1040, "\u0441\u0442\u0440\u0430\u043d": 1041, "\u0431\u044b\u0442\u044c\u0120": 1042, "\u043f\u043e\u043c\u043d\u0438\u043c,\u0120": 1043, "\u0440\u044f\u0434": 1044, "\u0435\u0441\u043b\u0438\u0120": 1045, "\u043e\u0431\u0432\u0438": 1046, "\u0432\u043e\u0435\u043d": 1047, "\u043a\u043e\u043c\u043f\u0430\u043d\u0438\u0438\u0120": 1048, "\u0434\u043e\u0432\u0120": 1049, "\u043f\u0430\u0434": 1050, "\u043a\u0432\u0430\u0440\u0442\u0438": 1051, "\u0435\u0441\u0442\u044c\u0120": 1052, "\u0443\u0442": 1053, "\u043f\u0435\u0440\u0435\u0434\u0430\u0435\u0442\u0120": 1054, "\u0442\u0435\u043b\u044c\u043d\u043e\u0120": 1055, "\u0448\u043e": 1056, "\u0444\u0438\u043d\u0430": 1057, "\u0442\u0435\u0440\u0438": 1058, "\u043f\u0440\u043e\u0448": 1059, "\u0435\u043d\u0438\u044f.\u0120": 1060, "\u043a\u043e\u043c\u043f": 1061, "\u043f\u0440\u043e\u0441\u043f\u0435\u043a": 1062, "\u0441\u043e\u0441\u0442\u043e\u044f": 1063, "\u0412\u0438": 1064, "\u043a\u043e\u043b": 1065, "\u0432\u0440\u0430": 1066, "\u043c\u0435\u0442\u0440\u043e": 1067, "'\u0410": 1068, "\u0448\u0435\u043b\u0120": 1069, "\u043b\u044c\u043d\u043e\u0439\u0120": 1070, "\u043f\u0440\u043e\u043a\u0443": 1071, "\u041a\u0443": 1072, "\u043f\u0440\u0430\u0432": 1073, "\u0438\u043c\u0435\u043d": 1074, "\u0436\u0447\u0438": 1075, "\u0441\u0432\u044f\u0437": 1076, "\u0440\u0430\u0442\u0443": 1077, "\u0431\u0435\u0437\u0120": 1078, "\u043a\u0430\u0445\u0120": 1079, "\u043e\u0442\u043a\u0440\u044b": 1080, "\u0434\u0430,\u0120": 1081, "\u0412\u0120": 1082, "|\u0412\u0120": 1083, "\u0434\u043e\u043c": 1084, "\u0412\u0435": 1085, "\u0441\u0442\u0440\u0430\u0434\u0430": 1086, "\u0431\u044e": 1087, "\u0437\u0430\u0449\u0438": 1088, "\u043d\u043e.\u0120": 1089, "\u043f\u043e\u0437": 1090, "10\u0120": 1091, "\u044e.\u0120": 1092, "\u0441\u0442\u0438.\u0120": 1093, "\u041d\u0430\u043f\u043e\u043c\u043d\u0438\u043c,\u0120": 1094, "\u0441\u0443\u0434": 1095, "\u0442\u0438\u043d": 1096, "\u0447\u0435\u043d\u0438\u0435\u0120": 1097, "\u0446\u0438\u0438.\u0120": 1098, "\u0420\u0435": 1099, "\u0434\u0438\u0440\u0435\u043a\u0442\u043e": 1100, "\u043c\u043f\u0438": 1101, "\u041b": 1102, "\u041b\u0435\u043d": 1103, "\u044d\u043a\u043e\u043d\u043e": 1104, "\u042d": 1105, "\u042d\u0442\u043e\u0120": 1106, "\u043a\u043e\u0432,\u0120": 1107, "\u0441\u0443\u0434\u0120": 1108, "\u0436\u0435\u043d\u0438\u0435\u0120": 1109, "\u0442\u0440\u0435\u043d": 1110, "\u043e\u0434\u0438\u043d\u0120": 1111, "\u043a\u0430.\u0120": 1112, "\u043e\u043a\u0430\u0437\u0430": 1113, "\u0436\u0443\u0440": 1114, "\u044f\u0441\u043d\u0438": 1115, "\u043c\u043e\u043d": 1116, "\u043c\u043e\u0436\u043d\u043e\u0120": 1117, "\u0441\u043a\u0438\u0120": 1118, "\u0430\u0434\u043c\u0438\u043d\u0438\u0441\u0442\u0440\u0430": 1119, "\u0440\u043e\u043c\u0435\u0120": 1120, "\u0437\u0430\u043c\u0435": 1121, "\u043d\u0435\u043e\u0431": 1122, "\u0428": 1123, "\u0421\u0428": 1124, "\u041c\u0412": 1125, "\u0442\u0440\u0430\u043d\u0441\u043f\u043e\u0440": 1126, "\u043f\u043e\u0434\u043e": 1127, "\u044b,\u0120": 1128, "\u043c\u044f": 1129, "\u0432\u0430\u044f\u0120": 1130, "\u041e\u043d\u0120": 1131, "\u043f\u0440\u0435\u0434\u043b\u043e": 1132, "\u0447\u0435\u0440": 1133, "-\u0442\u043e\u0120": 1134, "\u043d\u044b,\u0120": 1135, "\u043a\u043e\u0442\u043e\u0440\u044b\u0445\u0120": 1136, "\u043f\u0435\u0442\u0435\u0440\u0431\u0443\u0440\u0433": 1137, "\u0433\u043b\u0430\u0432": 1138, "\u043f\u043b\u043e\u0449\u0430\u0434": 1139, "\u0437\u0430\u043a\u043e\u043d\u043e": 1140, "\u043b\u0438\u0448": 1141, "10": 1142, "\u0447\u0443": 1143, "\u043c\u0435\u0441\u044f": 1144, "\u041a\u043e\u043d": 1145, "\u043a\u0430\u0440": 1146, "\u0440\u0430\u0432": 1147, "\u0434\u0432\u0430\u0120": 1148, "\u0411\u0435": 1149, "\u0435\u0442,\u0120": 1150, "\u0436\u0435\u043d\u0438\u044f\u0120": 1151, "20\u0120": 1152, "\u043b.\u0120": 1153, "\u043f\u0440\u043e\u0434\u0430": 1154, "\u0442\u043d\u044b\u0445\u0120": 1155, "30\u0120": 1156, "\u0441\u0442\u0440\u0443\u043a": 1157, "'\u0424\u043e\u043d\u0442\u0430\u043d\u043a\u0438": 1158, "\u0441\u043a": 1159, "\u0438\u0437-\u0437\u0430\u0120": 1160, "\u0437\u0430\u044f\u0432\u0438\u043b\u0120": 1161, "\u0433\u0443\u0431\u0435\u0440": 1162, "\u043e\u043d\u0435\u0120": 1163, "\u0441\u043b\u043e\u0432\u0430\u043c\u0120": 1164, "\u0441\u043e\u043e\u0431\u0449\u0438\u043b\u0120": 1165, "\u0434\u0435\u043f\u0443\u0442\u0430": 1166, "\u0444\u0430": 1167, "\u043d\u0435\u0442\u0120": 1168, "\u043b\u0430,\u0120": 1169, "\u043f\u043b\u0430\u043d\u0438": 1170, "\u043d\u0435\u0441": 1171, "\u043d\u0430\u0440\u043e\u0434": 1172, "\u041f\u0440\u0438\u0120": 1173, "\u0440\u0430\u0437\u0432\u0438": 1174, "\u043b\u044c\u043d\u044b\u0445\u0120": 1175, "\u0440\u0435\u0437\u0120": 1176, "\u0443\u0441\u0442\u0430\u043d\u043e": 1177, "\u043d\u0430.\u0120": 1178, "\u0441\u0435\u0431": 1179, "\u043d\u0435\u0441\u043a\u043e\u043b\u044c\u043a\u043e\u0120": 1180, "\u0441\u0435\u0433\u043e\u0434\u043d\u044f\u0120": 1181, "\u0441\u043e\u043e\u0442\u0432\u0435\u0442": 1182, "\u0432\u043b\u0435": 1183, "\u0440\u0430\u044f\u0120": 1184, "\u043e\u0445\u0440\u0430": 1185, "\u0441\u0438\u0442\u0443\u0430": 1186, "\u0434\u043e\u043b\u043b\u0430": 1187, "\u0447\u0435\u043d\u0438\u044f\u0120": 1188, "'\u0413\u0430": 1189, "\u044f\u0445\u0120": 1190, "\u0433\u043e\u0440": 1191, "\u0447\u0435\u043d\u044c\u0120": 1192, "\u0441\u0430\u0439": 1193, "\u0413\u043e": 1194, "\u044d\u043a\u043e\u043d\u043e\u043c\u0438": 1195, "\u0433\u0440\u0443": 1196, "\u043c\u043e\u0120": 1197, "\u043d\u044b.\u0120": 1198, "\u0441\u0441\u043e": 1199, "\u0448\u0438\u043d": 1200, "\u043f\u043e\u043c\u043e\u0449": 1201, "\u0441\u043b\u0435\u0434\u0441\u0442\u0432\u0438": 1202, "\u0434\u0430\u043d\u043d\u044b\u043c\u0120": 1203, "\u043f\u0440\u0435\u0441\u0441-\u0441\u043b\u0443\u0436\u0431": 1204, "\u0441\u043e\u043e\u0431\u0449\u0438\u043b\u0438\u0120": 1205, "\u0436\u0434\u0443\u0120": 1206, "\u0438\u043c\u0120": 1207, "\u043c\u043d": 1208, "\u0430\u0432": 1209, "\u044e\u0449\u0438\u0445\u0120": 1210, "\u0436\u0435\u043d\u0120": 1211, "\u043f\u043e\u043a\u0430\u0120": 1212, "\u043d\u0438\u043a\u0430\u0120": 1213, "\u043c\u0438\u043d\u0438\u0441\u0442": 1214, "\u043b\u043e\u043c\u0120": 1215, "\u0432\u0448\u0438\u0439\u0120": 1216, "\u041b\u0438": 1217, "\u043c\u0443\u0436\u0447\u0438": 1218, "\u0430\u0432\u0442\u043e\u043c\u043e\u0431\u0438": 1219, "\u0420\u043e": 1220, "\u043f\u0440\u0438\u044f\u0442\u0438": 1221, "\u043f\u043e\u0437\u0438": 1222, "\u0437\u0430\u043a\u043e": 1223, "\u043b\u0438.\u0120": 1224, "\u0444\u043e\u043d": 1225, "\u0432\u0430\u0435\u0442\u0120": 1226, "\u0442\u0435\u0440\u0435": 1227, "\u0441\u043a\u043e\u0435\u0120": 1228, "\u0447\u044c\u0120": 1229, "\u0443\u0447\u0430\u0441\u0442\u0438": 1230, "\u043d\u043e\u0441\u0442\u0438,\u0120": 1231, "\u041e\u0434\u043d\u0430\u043a\u043e\u0120": 1232, "\u0440\u043e\u0432\u0430\u043d": 1233, "\u0443\u043f\u0440\u0430\u0432\u043b": 1234, "\u043d\u0435\u043c\u0120": 1235, "\u043f\u043e\u0442\u0440\u0435": 1236, "\u0432\u043b\u0435\u043d\u0438\u0435\u0120": 1237, "\u043a\u0440\u0438": 1238, "\u0435\u0432\u0120": 1239, "\u044d\u0442\u0438": 1240, "\u0434\u043e\u0441\u0442\u0430": 1241, "\u043f\u043e\u0433\u0438": 1242, "\u043c\u0435\u043d\u0438": 1243, "\u043d\u0435\u043e\u0431\u0445\u043e\u0434\u0438": 1244, "\u043a\u043e\u0440\u0440\u0435": 1245, "\u0434\u0435\u043a\u0430": 1246, "\u041f\u0435\u0442\u0435\u0440\u0431\u0443\u0440\u0433\u0430": 1247, "\u044f\u0437\u0430": 1248, "\u0441\u0442\u0430\u043b\u043e\u0120": 1249, "\u0432\u0435\u0434\u043e\u043c": 1250, "'\u0417\u0435\u043d\u0438": 1251, "\u0434\u0435\u043b\u0430\u0120": 1252, "\u043f\u0440\u0438\u043d\u0438\u043c\u0430": 1253, "\u043e\u0444\u0438\u0446\u0438\u0430\u043b\u044c": 1254, "\u043d\u043e\u0432\u043e": 1255, "\u0441\u0441\u044b": 1256, "\u0441\u043b\u0435\u0434\u0443": 1257, "\u0432\u0441\u0442\u0440\u0435": 1258, "\u0441\u043a\u043e\u043c\u0443\u0120": 1259, "\u043b\u044c\u043d\u043e\u0120": 1260, "\u043f\u043e\u0441\u0442\u0440\u0430\u0434\u0430": 1261, "\u0441\u043f\u043e\u043d": 1262, "\u043c\u043e\u043c\u0435\u043d": 1263, "\u0441\u044b\u0120": 1264, "\u0422\u0430\u043a": 1265, "\u0440\u043e\u0432\u0430\u0442\u044c\u0120": 1266, "\u0434\u0435\u044f": 1267, "\u0433\u0440\u0430\u0436": 1268, "\u043e\u0440\u0443": 1269, "\u041f\u043e\u0441": 1270, "\u0441\u0447\u0435": 1271, "\u0440\u0435\u0448\u0435\u043d\u0438\u0435\u0120": 1272, "\u0442\u0440\u0430\u0120": 1273, "\u0434\u043e\u043c\u0430\u0120": 1274, "\u043f\u0440\u043e\u0433\u0440\u0430\u043c": 1275, "\u0444\u0438\u043d\u0430\u043d": 1276, "\u043e\u0441\u0443": 1277, "\u043e\u0442\u0432\u0435": 1278, "\u043a\u043e\u0433\u043e\u0120": 1279, "\u043d\u0430\u0440\u0443\u0448": 1280, "\u043e\u0431\u043b\u0430\u0441\u0442\u0438\u0120": 1281, "\u0442\u0443\u0440": 1282, "\u043c\u043e\u0433\u0443\u0442\u0120": 1283, "\u043c\u0438\u043b\u0438": 1284, "\u0422\u0435": 1285, "\u0441\u0438\u0441\u0442\u0435": 1286, "\u0435\u043c\u0443\u0120": 1287, "\u043f\u044b\u0442\u0430": 1288, "\u0441\u0432\u044f\u0437\u0438\u0120": 1289, "\u0434\u0435\u043b\u043e\u0120": 1290, "\u0441\u043e\u0432\u0435": 1291, "\u0434\u044b\u0120": 1292, "\u0441\u043a\u0443\u044e\u0120": 1293, "\u0442\u0435\u043c\u0120": 1294, "\u0440\u0443\u0431\u043b\u0435\u0439\u0120": 1295, "\u0440\u0435\u0439": 1296, "\u0414\u043e": 1297, "\u043c\u043e\u043b\u043e": 1298, "\u0434\u0430\u0436\u0435\u0120": 1299, "\u0448\u043b\u0438\u0120": 1300, "\u0422\u043e": 1301, "\u043c\u0435\u0441\u0442\u0435\u0120": 1302, "\u0434\u0436\u0435": 1303, "\u0445\u043e\u0434\u0435\u0120": 1304, "\u0433\u043e\u0441\u0443\u0434\u0430\u0440\u0441\u0442\u0432\u0435\u043d": 1305, "\u0446\u0438\u0439\u0120": 1306, "\u0440\u0435\u0437\u0443\u043b\u044c\u0442\u0430\u0442\u0435\u0120": 1307, "\u0447\u0435\u0440\u0435\u0437\u0120": 1308, "\u0443\u0432\u0435": 1309, "\u0442\u044b,\u0120": 1310, "'\u041c": 1311, "\u0448\u0438\u0445\u0120": 1312, "'\u041e": 1313, "\u0435\u0442\u0441\u044f,\u0120": 1314, "\u041a\u0440\u043e\u043c\u0435\u0120": 1315, "\u043d\u0435\u0440": 1316, "\u043e\u043d\u043e\u0432\u0120": 1317, "\u0414\u043c\u0438": 1318, "\u0420\u0424": 1319, "\u0441\u0434\u0435\u043b\u0430": 1320, "\u0424\u0435\u0434\u0435\u0440\u0430": 1321, "\u0444\u0435\u0440": 1322, "\u0434\u0440\u0430": 1323, "\u0436\u0438\u0437": 1324, "\u043a\u0438\u0435\u0120": 1325, "\u0435\u043c\u043e": 1326, "\u0441\u043f\u043e\u043d\u0434\u0435\u043d": 1327, "\u044d\u0442\u043e\u0442\u0120": 1328, "\u0432\u044b\u0431\u043e": 1329, "\u0421\u0443": 1330, "\u0432\u0435\u0440\u0441\u0438": 1331, "\u0438\u0441\u0442\u043e": 1332, "\u043a\u0443\u043b\u044c": 1333, "\u0431\u043b\u043e": 1334, "\u043a\u043e\u0432.\u0120": 1335, "\u0446\u043e": 1336, "\u0415\u0432\u0440\u043e": 1337, "\u0414\u043c\u0438\u0442\u0440\u0438": 1338, "\u0442\u0430\u0440": 1339, "\u0446\u0430\u0120": 1340, "\u0446\u0438\u043e\u043d\u0430": 1341, "\u043e\u0447\u0435\u043d\u044c\u0120": 1342, "\u043f\u043e\u0434\u0430": 1343, "\u0441\u043e\u043e\u0431\u0449": 1344, "\u0420\u0443": 1345, "\u0440\u0435\u0431": 1346, "50\u0120": 1347, "\u0443\u0441\u043b\u043e": 1348, "\u043a\u043e\u0442\u043e\u0440\u0430\u044f\u0120": 1349, "\u0442\u044f\u0431\u0440\u044f\u0120": 1350, "\u043f\u043e\u0436\u0430": 1351, "\u0443\u044e\u0120": 1352, "\u043d\u0430\u0441\u0442\u043e\u044f": 1353, "\u0440\u0430\u0439\u043e\u043d\u0435\u0120": 1354, "\u043f\u043e\u043b\u0430\u0433\u0430": 1355, "\u0448\u0442\u0430": 1356, "\u0431\u043b\u0430": 1357, "\u0433\u0443\u0431\u0435\u0440\u043d\u0430\u0442\u043e": 1358, "\u0440\u043e\u0439\u0120": 1359, "\u0433\u0440\u0430\u043d\u0438": 1360, "\u0441\u0442\u0430\u0442\u044c": 1361, "\u0437\u0430\u043a\u043b\u044e": 1362, "\u0421\u0438": 1363, "\u0432\u044b\u043c\u0120": 1364, "\u0441\u043f\u0435\u0440": 1365, "\u0432\u0441\u0435\u0445\u0120": 1366, "\u044b.\u0120": 1367, "\u0436\u0434\u0443": 1368, "\u043e\u0431\u044f\u0437\u0430": 1369, "5\u0120": 1370, "15\u0120": 1371, "\u0432\u043d\u0435": 1372, "\u0433\u0440\u0443\u043f\u043f": 1373, "\u043f\u0440\u043e\u043a\u0443\u0440\u0430\u0442\u0443": 1374, "\u0433\u043e\u0440\u043e\u0434\u0430\u0120": 1375, "\u041f\u0443\u0442\u0438": 1376, "\u0440\u0435\u0448\u0438": 1377, "\u0432\u043e\u0437\u0431\u0443": 1378, "\u043f\u0440\u043e\u0434\u043e\u043b": 1379, "\u044d\u0442\u043e\u043c\u0443\u0120": 1380, "\u043f\u0440\u043e\u0442\u0438\u0432\u0120": 1381, "\u0412\u044b": 1382, "\u043e\u0431\u044a\u0435\u043a": 1383, "\u044e\u0442,\u0120": 1384, "\u043c\u0438\u043d\u0443": 1385, "\u0441\u0442\u0432\u0120": 1386, "\u0440\u0430\u043a": 1387, "\u0433\u0435\u0120": 1388, "\u0410\u0440": 1389, "\u044e\u0449\u0438\u0439\u0120": 1390, "\u0441\u043e\u0437": 1391, "\u0442\u043d\u043e\u0439\u0120": 1392, "\u0433\u0440\u0430\u0434": 1393, "\u044e\u0449\u0438\u0435\u0120": 1394, "\u0440\u0430,\u0120": 1395, "\u043e\u0447\u0435\u0440\u0435\u0434": 1396, "\u0446\u044b\u0120": 1397, "\u0442\u0438\u0442\u044c\u0120": 1398, "\u041e\u041e": 1399, "\u0441\u0441\u044b\u043b": 1400, "\u0441\u0435\u0439\u0447\u0430\u0441\u0120": 1401, "\u0431\u0435\u0440\u0435": 1402, "\u043f\u043e\u0434\u043e\u0437": 1403, "\u043f\u0440\u0438\u0447\u0438": 1404, "\u0441\u0435\u0434\u0430": 1405, "\u041f\u0440\u0435": 1406, "\u043f\u0440\u043e\u0431\u043b\u0435": 1407, "\u0442\u044c.\u0120": 1408, "\u0435\u043c": 1409, "\u0431\u0438\u0437": 1410, "\u0431\u0438\u0440\u0430": 1411, "\u0432\u0448\u0438\u0445\u0120": 1412, "\u0432\u0435\u0434\u0435": 1413, "\u044f\u0432\u043b\u044f\u0435\u0442\u0441\u044f\u0120": 1414, "\u043f\u0440\u0438\u043c\u0435\u0440": 1415, "\u044d\u0442\u043e\u0439\u0120": 1416, "\u043f\u043e\u0447": 1417, "'\u0120": 1418, "'\u0424\u043e\u043d\u0442\u0430\u043d\u043a\u0435'\u0120": 1419, "\u0441\u0442\u0432\u0430,\u0120": 1420, "\u0442\u043e,\u0120": 1421, "\u043d\u043e\u044f": 1422, "\u0440\u0430\u0437\u043c\u0435": 1423, "\u043a\u0430\u043d\u0430": 1424, "\u044f\u0442\u0120": 1425, "\u0434\u0432\u0443\u0445\u0120": 1426, "\u043f\u0430\u0440\u0442\u0438": 1427, "\u0441\u0443\u043c": 1428, "\u0446\u0435\u0432\u0120": 1429, "\u0434\u0435\u043d\u044c": 1430, "\u0443\u0434\u043e": 1431, "\u0443\u0431\u0438\u0439": 1432, "\u0441\u0442\u0432\u0443\u0120": 1433, "\u0432\u044b\u0441\u043e": 1434, "\u043c\u0435\u0440\u0438": 1435, "\u0435\u0445\u0430": 1436, "er": 1437, "\u0438\u0441\u043f\u043e\u043b": 1438, "\u0441\u0442\u0432\u0430.\u0120": 1439, "\u0437\u043e\u043f\u0430\u0441": 1440, "\u0436\u0443\u0440\u043d\u0430\u043b\u0438": 1441, "\u0433\u043e\u0434\u0443": 1442, "\u0444\u0435\u0434\u0435\u0440\u0430": 1443, "\u0441\u0441\u044b\u043b\u043a\u043e\u0439\u0120": 1444, "\u043a\u043e\u0440\u0440\u0435\u0441\u043f\u043e\u043d\u0434\u0435\u043d": 1445, "\u0442\u0435,\u0120": 1446, "\u043d,\u0120": 1447, "\u043a\u043e,\u0120": 1448, "\u043f\u0440\u043e\u0446\u0435": 1449, "\u0440\u0430\u0437\u0120": 1450, "\u0441\u043e\u0431\u0441\u0442\u0432\u0435\u043d": 1451, "\u0441\u0430\u0436\u0438": 1452, "\u0438\u043d\u0442\u0435\u0440\u0435": 1453, "\u0434\u043e\u043b\u0436\u043d\u044b\u0120": 1454, "\u0432\u043e\u043c\u0120": 1455, "\u0414\u0430": 1456, "\u0442\u043e\u0432,\u0120": 1457, "\u043c\u0435\u0441\u0442\u043e\u0120": 1458, "\u043a\u0438\u043c\u0120": 1459, "\u0441\u0442\u044b\u0120": 1460, "\u0442\u0440\u0438\u0120": 1461, "\u0440\u0430\u0431\u043e\u0442": 1462, "\u041b\u0435": 1463, "\u0432\u043e\u0441": 1464, "\u043c\u0430\u0442": 1465, "\u0418\u043d\u0442\u0435\u0440": 1466, "\u0437\u0435\u0442\u0430.": 1467, "\u0440\u043e\u0120": 1468, "\u043f\u043e\u0441\u0435": 1469, "\u0420\u0430\u043d\u0435\u0435\u0120": 1470, "\u0440\u0443\u043a\u043e\u0432\u043e\u0434\u0438": 1471, "\u0436\u0435\u043d\u0449\u0438": 1472, "\u043d\u0443\u0436": 1473, "\u0434\u0430\u0442\u0435\u043b\u044c": 1474, "\u044f\u043c\u0120": 1475, "\u043e\u0431\u043d\u0430\u0440\u0443": 1476, "\u0410\u043d\u0434": 1477, "\u0432\u0438\u0434": 1478, "\u0438\u043d\u043e": 1479, "\u0439'\u0120": 1480, "\u041c\u0438\u0445\u0430": 1481, "\u0431\u0435\u0437\u043e\u043f\u0430\u0441": 1482, "\u0434\u0430.\u0120": 1483, "\u0441\u0443\u0442": 1484, "\u043f\u0440\u043e\u0438\u0441": 1485, "1,": 1486, "\u0447\u0435\u0441\u043a\u043e\u0439\u0120": 1487, "\u043c\u043e\u0440": 1488, "\u043a\u0440\u0443\u043f": 1489, "\u0447\u0438\u0441\u043b\u0435\u0120": 1490, "\u043c\u0435\u0436\u0434\u0443\u0120": 1491, "\u0441\u043e\u0441\u0442\u0430\u0432\u0438": 1492, "\u043d\u0438\u0446\u0438": 1493, "\u0437\u0430\u043d\u0438\u043c\u0430": 1494, "\u043f\u043e\u043a\u0430\u0437\u0430": 1495, "\u043f\u0440\u0435\u0434\u0443": 1496, "\u043d.\u0120": 1497, "\u0420\u043e\u0441\u0441\u0438\u0439": 1498, "\u043f\u0440\u043e\u0432\u0435\u0434": 1499, "\u0421\u043c\u043e": 1500, "\u0440\u043e\u0432,\u0120": 1501, "\u0434\u0435\u044f\u0442\u0435\u043b\u044c": 1502, "\u043e\u0441\u043d\u043e\u0432": 1503, "\u043e\u0442\u043d\u043e\u0448\u0435\u043d\u0438\u0438\u0120": 1504, "\u0442\u0435\u0440\u0440\u0438\u0442\u043e\u0440\u0438\u0438\u0120": 1505, "\u044d\u043b\u0435\u043a": 1506, "\u0430\u0432\u0433\u0443": 1507, "\u0435\u0440\u0430": 1508, "\u0441\u0442\u0438,\u0120": 1509, "\u043a\u0430\u0447\u0435": 1510, "\u0427": 1511, "\u0427\u0435": 1512, "\u0432\u043e\u0439": 1513, "\u0442'\u0120": 1514, "\u0412\u043b\u0430\u0434\u0438\u043c\u0438\u0440\u0120": 1515, "\u043a\u0430\u043c\u0438\u0120": 1516, "\u0440\u0430\u0431\u043e\u0442\u044b\u0120": 1517, "\u043d\u0435\u0439": 1518, "\u043f\u0435\u043d": 1519, "\u0442\u0430\u043b\u0438": 1520, "\u043a\u043b\u0443": 1521, "\u043b\u044e\u0434": 1522, "\u043a\u043e\u043c\u043f\u043b\u0435\u043a": 1523, "\u0440\u0443\u0431": 1524, "\u043f\u0440\u0435\u0441\u0442\u0443\u043f\u043b": 1525, "\u0436\u0434\u0443\u043d\u0430\u0440\u043e\u0434": 1526, "\u0433\u0435\u043d\u0442": 1527, "\u043a\u043e\u043d\u043a\u0443\u0440": 1528, "\u043c\u043b\u043d\u0120": 1529, "\u0437\u0430\u0441\u0435": 1530, "\u043f\u0440\u043e\u0432\u043e\u0434\u0438": 1531, "\u0431\u0440\u044f": 1532, "\u0433\u043b\u0430\u0432\u0430\u0120": 1533, "\u043b\u043e\u0441\u044c,\u0120": 1534, "\u0447\u0435\u043b\u043e\u0432\u0435\u043a\u0120": 1535, "\u0413\u043b\u0430": 1536, "\u0430\u043f\u0440\u0435": 1537, "\u0440\u044b,\u0120": 1538, "\u043f\u043e\u0433\u0438\u0431": 1539, "\u0440\u043e\u0432.\u0120": 1540, "\u0421\u0428\u0410\u0120": 1541, "\u0441.\u0120": 1542, "\u0438\u0442\u043e": 1543, "\u0437\u0430\u043f\u0440\u0435": 1544, "\u0442\u0441\u044f.\u0120": 1545, "\u041e\u0442": 1546, "\u0410\u043d": 1547, "\u043d\u0430\u0437\u043d\u0430": 1548, "\u043e\u0441\u043d\u043e": 1549, "\u0441\u0432\u043e\u044e\u0120": 1550, "\u043b\u0435\u043d\u0120": 1551, "\u043f\u0440\u0435\u0434\u0435": 1552, "\u0430\u0432\u0438\u0430": 1553, "\u0432\u0430\u044e\u0442\u0120": 1554, "\u0437\u0435\u043c": 1555, "\u0414\u0120": 1556, "\u041c\u0412\u0414\u0120": 1557, "\u0440\u0435\u043d": 1558, "\u0441\u043c\u043e\u0442\u0440": 1559, "\u0410\u043b\u0435\u043a\u0441\u0430\u043d\u0434\u0440\u0120": 1560, "\u043b\u044c\u043d\u044b\u0435\u0120": 1561, "\u0438\u0441\u043f\u043e\u043b\u044c\u0437\u043e": 1562, "\u0448\u043a\u043e": 1563, "\u041d\u0435\u0432": 1564, "\u0431\u044e\u0434\u0436\u0435": 1565, "\u0431\u0430\u0120": 1566, "\u0443\u0442\u0432\u0435\u0440": 1567, "\u044d\u0442\u0430": 1568, "\u041b\u0435\u043d\u0438": 1569, "\u0441\u043d\u044f": 1570, "\u0440\u0430\u043c": 1571, "\u0438\u043d\u0442\u0435\u0440": 1572, "\u043a\u043b\u0438": 1573, "\u0421\u041c": 1574, "\u0441\u043e\u0437\u0434\u0430": 1575, "\u043e\u0431\u0449\u0435\u0441\u0442\u0432\u0435\u043d": 1576, "\u043e\u0442\u043c\u0435\u0447\u0430": 1577, "\u0440\u0438\u044f\u0120": 1578, "\u0437\u0430\u043a\u0440\u044b": 1579, "\u0449\u0435\u043d\u0438\u044f\u0120": 1580, "\u0432\u043b\u0438": 1581, "\u043d\u0430\u043b\u043e": 1582, "\u044d\u043a\u0441\u043f\u0435\u0440": 1583, "\u0441\u0442\u0443\u043f\u0430": 1584, "\u0440\u0435\u0436\u0438": 1585, "\u0437\u0430\u0441\u0435\u0434\u0430\u043d\u0438": 1586, "\u043e\u0441\u0442\u0440\u043e": 1587, "\u0443\u043b\u0438\u0446\u0435\u0120": 1588, "\u0432\u0448\u0435\u0433\u043e\u0120": 1589, "\u0442\u0440\u0435\u0431\u043e": 1590, "\u043a\u043d\u0443": 1591, "\u043c\u0430\u0442\u0435\u0440\u0438": 1592, "\u043f\u0430\u0440\u0430": 1593, "\u043b\u0438\u0447\u0435": 1594, "\u041f\u043e\u0441\u043b\u0435\u0120": 1595, "\u0435\u043d\u0438\u0435,\u0120": 1596, "\u0448\u0435\u043d\u0438\u0435\u0120": 1597, "\u0438\u043c": 1598, "\u043f\u043e\u0441\u043b\u0435": 1599, "\u043c\u0435\u0434\u0438": 1600, "\u043a\u043e\u0442\u043e\u0440\u043e\u0439\u0120": 1601, "\u0426": 1602, "\u0426\u0435\u043d": 1603, "\u043f\u0440\u0435\u0434\u0441\u0435\u0434\u0430": 1604, "\u0431\u0440\u0438": 1605, "\u0442\u044c\u0441\u044f": 1606, "\u041e\u0120": 1607, "\u0410\u041e\u0120": 1608, "\u043d\u043e\u0441\u0442\u044c\u044e\u0120": 1609, "\u044f'\u0120": 1610, "\u043a\u0442\u043e\u0120": 1611, "\u0441\u043d\u043e\u0120": 1612, "\u0439\u0442\u0438\u0120": 1613, "15": 1614, "\u043c\u0430\u044f\u0120": 1615, "\u043d\u0430\u043c\u0120": 1616, "\u044d\u043a\u0441": 1617, "\u0435\u0432\u0440\u0430": 1618, "\u0443\u0440\u043e\u0432": 1619, "\u043d\u0430\u0437": 1620, "\u0444\u0435\u0432\u0440\u0430": 1621, "\u043a\u043e\u0442\u043e\u0440\u043e\u0433\u043e\u0120": 1622, "\u0410\u043d\u0434\u0440\u0435": 1623, "\u0431\u043b\u0430\u0433\u043e": 1624, "\u043b\u043a\u043e": 1625, "\u0433\u0440\u0430\u0436\u0434\u0430": 1626, "\u0445\u0440\u0430\u043d": 1627, "\u043f\u0430\u0441\u0441\u0430\u0436\u0438": 1628, "\u0446\u0438\u0430\u043b\u0438": 1629, "\u043a\u0440\u0435\u0434\u0438": 1630, "\u043a\u043e\u043d\u0442\u0440\u043e": 1631, "\u0432\u043b\u0435\u043d\u0438\u044f\u0120": 1632, "\u043f\u0440\u043e\u0441\u0438": 1633, "\u043f\u0443\u0441\u0442\u0438": 1634, "\u043b\u0443\u0120": 1635, "\u0433\u043e\u0434\u0430,\u0120": 1636, "\u043f\u043e\u0434\u0434\u0435\u0440": 1637, "\u0441\u0430\u043c\u044b": 1638, "\u043f\u0440\u043e\u0438\u0437\u043e\u0448": 1639, "\u0441\u0442\u043e\u0432\u0120": 1640, "\u0410\u043b\u0435\u043a\u0441\u0435": 1641, "\u043a\u0440\u0443": 1642, "en": 1643, "\u0432\u0441\u0435\u0433\u043e\u0120": 1644, "\u043a\u043e\u043c\u0438\u0442\u0435\u0442\u0430\u0120": 1645, "\u0440\u0430\u0439\u043e\u043d\u0430\u0120": 1646, "\u0447\u0430\u0120": 1647, "\u0432\u0430\u0435\u0442\u0441\u044f\u0120": 1648, "\u0441\u0442\u0432\u0430": 1649, "\u043c\u0438\u043d\u0430": 1650, "\u0444\u0443\u0442": 1651, "\u043a\u0441\u0438": 1652, "\u0442\u0430\u043d": 1653, "\u043f\u043e\u0437\u0432\u043e": 1654, "\u0448\u0435\u0439\u0120": 1655, "\u0445\u043e\u0442": 1656, "\u0415\u0441\u043b\u0438\u0120": 1657, "\u0441\u043b\u043e\u0432\u0430\u043c,\u0120": 1658, "\u043e\u0431\u044b": 1659, "\u0443\u0441\u043b\u043e\u0432\u0438": 1660, "\u0441\u0443\u0434\u0435": 1661, "\u0447\u0435\u0441\u043a\u0438\u0445\u0120": 1662, "\u043e\u0431\u0435\u0441\u043f\u0435": 1663, "\u043f\u043e\u0434\u0442\u0432\u0435\u0440": 1664, "\u044d\u0440\u043e": 1665, "\u0436\u043d\u043e\u0439\u0120": 1666, "\u043f\u043e\u0441\u043b\u0435\u0434\u043d\u0438": 1667, "\u0413\u043e\u0441": 1668, "\u0441\u043e\u0432": 1669, "\u0441\u0443\u0449\u0435": 1670, "\u043d\u0430\u0440": 1671, "\u043f\u0440\u043e\u0434\u0443": 1672, "\u043e\u043f": 1673, "\u041f\u0435\u0442\u0440\u043e": 1674, "\u0433\u0435\u0439\u0120": 1675, "\u0433\u043e.\u0120": 1676, "\u0441\u044c.\u0120": 1677, "\u0441\u0442\u0438\u0442\u0443": 1678, "\u043b\u0443\u0447": 1679, "\u043c\u0443,\u0120": 1680, "\u0440\u0430.\u0120": 1681, "\u0440\u0443\u0435\u0442\u0120": 1682, "\u0432\u044b\u043f\u043e\u043b": 1683, "\u044c,\u0120": 1684, "\u0447\u0435\u0441\u043a\u043e\u0433\u043e\u0120": 1685, "\u0421\u0435\u0440\u0433\u0435\u0439\u0120": 1686, "\u043d\u0430\u0431": 1687, "\u0441\u0442\u0430\u043b\u0120": 1688, "\u0434\u043e\u043b\u0436\u0435\u043d\u0120": 1689, "\u044d\u0442\u0438\u0120": 1690, "\u041a\u0440\u0430\u0441": 1691, "\u043d\u0435\u0444": 1692, "\u0440\u0430\u043d\u0435\u0435\u0120": 1693, "\u0434\u0435\u0442": 1694, "\u041f\u0435\u0440": 1695, "\u0445\u043e\u0440\u043e": 1696, "\u0432\u0435\u0440\u043d\u0443": 1697, "\u0434\u0435\u0442\u0435": 1698, "\u0423\u043a\u0440\u0430\u0438": 1699, "\u0441\u0442\u0440\u0438": 1700, "\u043b\u0438\u043a": 1701, "\u0432\u0430\u0442\u044c\u0441\u044f\u0120": 1702, "\u0441\u0442\u0432\u043e\u043c\u0120": 1703, "\u043c\u0435\u0440\u043e": 1704, "\u0413\u0423": 1705, "2\u0120": 1706, "12\u0120": 1707, "\u043a\u043e\u043c\u0438\u0441\u0441\u0438": 1708, "\u044f\u043d\u0432\u0430\u0440": 1709, "0-": 1710, "\u043d\u044b\u043c,\u0120": 1711, "\u043d\u0430\u0441\u0120": 1712, "\u041e\u0431": 1713, "\u0434\u0435\u043d\u044c\u0120": 1714, "\u043e\u0431\u0440\u0430\u0442\u0438": 1715, "\u0441,\u0120": 1716, "\u0448\u0435\u0433\u043e\u0120": 1717, "\u044f\u043c\u0438\u0120": 1718, "\u0436\u0434\u0435\u043d\u0438\u044f\u0120": 1719, "\u0441\u0442\u043e\u0120": 1720, "\u043b\u044b\u0120": 1721, "\u0442\u0440\u0120": 1722, "\u043f\u043e\u043a\u0443": 1723, "\u0440\u0430\u0439\u043e\u043d": 1724, "\u0430\u0433\u0435\u043d\u0442": 1725, "\u043b\u043e\u0432": 1726, "\u0423\u0120": 1727, "\u0413\u0423\u0120": 1728, "\u0443\u043d\u0438": 1729, "\u043b\u0438\u0447\u0438": 1730, "\u0441\u0432\u044f\u0437\u0430": 1731, "\u0438\u0433\u0440\u0430": 1732, "\u043d\u043e\u0440": 1733, "\u043f\u043e\u044f\u0432\u0438": 1734, "\u041c\u043e\u0441\u043a\u043e\u0432": 1735, "\u043e\u0431\u043e\u0440\u043e": 1736, "\u0432\u0435\u0440\u043e": 1737, "\u043c\u043e\u0441\u0442\u044c\u0120": 1738, "\u0440\u0443'\u0120": 1739, "\u0441\u043a\u043e\u043b\u044c": 1740, "\u041c\u0435\u0434": 1741, "\u0434\u043e\u0433\u043e\u0432\u043e": 1742, "\u043f\u043e\u043c\u0435": 1743, "\u0432\u043e\u0440": 1744, "\u0449\u0435\u0435\u0120": 1745, "\u043e\u0434\u043d\u0430\u043a\u043e\u0120": 1746, "\u0434\u0440\u0443\u0433\u043e": 1747, "\u0441\u0435\u0431\u044f\u0120": 1748, "\u0443\u0433\u043e\u043b\u043e\u0432\u043d\u043e\u0435\u0120": 1749, "\u043c\u0435\u0440\u0438\u043a\u0430\u043d": 1750, "\u043f\u0440\u0435\u0437\u0438\u0434\u0435\u043d\u0442\u0430\u0120": 1751, "\u043a\u0432\u0430": 1752, "\u0446\u0435\u0439": 1753, "\u041b\u0435\u043d\u0438\u043d": 1754, "\u043f\u0443\u043d\u043a": 1755, "\u0440\u0435\u0441\u0442\u043e": 1756, "\u043f\u0440\u0435\u043c\u044c": 1757, "\u0441\u0432\u043e\u0431\u043e": 1758, "\u0438\u0433": 1759, "\u0441\u043e\u0441\u0442\u0430\u0432\u043b\u044f": 1760, "\u041f\u0440\u0435\u0434": 1761, "\u043e\u0436\u0438": 1762, "\u0441\u043c\u0430": 1763, "\u043d\u0430\u0447\u0430\u043b\u044c": 1764, "'\u0424\u043e\u043d\u0442\u0430\u043d\u043a\u0430": 1765, "\u0432\u0443\u044e\u0120": 1766, "\u0442\u043e\u0433\u043e\u0120": 1767, "\u043f\u043e\u0440\u044f\u0434": 1768, "\u043b\u0430\u043c\u0435\u043d": 1769, "\u043e\u0442\u043a\u0430\u0437\u0430": 1770, "\u043a\u0430\u0437\u044b\u0432\u0430": 1771, "\u043c\u043e\u043c\u0435\u043d\u0442\u0120": 1772, "\u0431\u043e\u0120": 1773, "\u041e\u041e\u041e\u0120": 1774, "\u043f\u0435\u0440\u0438": 1775, "\u043c\u0438\u043b\u043b\u0438\u043e\u043d\u043e\u0432\u0120": 1776, "\u0445\u0432\u0430": 1777, "\u043d\u0435\u043d\u0438\u044f\u0120": 1778, "'\u0413\u0430\u0437\u0435\u0442\u0430.": 1779, "'\u0414": 1780, "\u0434\u043e\u043c\u043e": 1781, "\u0447\u043b\u0435\u043d": 1782, "\u043c\u044b\u0448": 1783, "\u0440\u043e\u0434\u0438": 1784, "\u044d\u043d\u0435\u0440": 1785, "\u0442\u0432\u0438": 1786, "\u0447\u0438\u043d\u043e\u0432": 1787, "\u0421\u041a": 1788, "\u0421\u0430\u043d\u043a\u0442-\u041f\u0435\u0442\u0435\u0440\u0431\u0443\u0440\u0433": 1789, "\u0442\u043e\u0439\u0120": 1790, "\u0441\u0438\u043b\u044c": 1791, "\u0442\u0430\u0439": 1792, "\u0447\u0430\u0441\u0442\u044c\u0120": 1793, "\u0441\u043e\u0431\u0440\u0430": 1794, "\u043e\u043f\u0440\u0435\u0434\u0435": 1795, "\u043b\u043e\u0432\u0120": 1796, "\u043f\u043e\u0434\u0433\u043e\u0442\u043e": 1797, "\u043c\u0438\u043b\u043b\u0438\u0430\u0440": 1798, "\u0442\u044b.\u0120": 1799, "\u043a\u0440\u043e": 1800, "\u0433\u0440\u0430\u0436\u0434\u0430\u043d": 1801, "\u043b\u044e\u0434\u0435": 1802, "\u0432\u043e\u043f\u0440\u043e\u0441\u0120": 1803, "\u0433\u0440\u0430\u0444\u0438": 1804, "\u041b\u0430": 1805, "\u043e\u0434\u043d\u043e\u0433\u043e\u0120": 1806, "\u0432\u0437\u044f": 1807, "\u0437\u043d\u0430\u0447\u0438": 1808, "\u0432\u0430\u043b\u0430\u0120": 1809, "\u043f\u0440\u043e\u0438\u0437\u0432\u043e\u0434": 1810, "\u0438\u043d\u0432\u0435": 1811, "\u0445\u043e\u0434\u0438\u0442\u0120": 1812, "\u0437\u0430\u0432\u0435\u0440": 1813, "\u044a\u044f": 1814, "\u043c\u043b\u0440": 1815, "12": 1816, "\u0412\u0441\u0435": 1817, "\u0434\u0435\u0441\u044f": 1818, "\u043d\u043e\u0441\u0442": 1819, "\u0423\u043a\u0440\u0430\u0438\u043d": 1820, "\u043a\u0430\u0437": 1821, "\u0441\u0442\u0435\u0440": 1822, "\u0443\u043a\u0440\u0430": 1823, "in": 1824, "\u0442\u043e\u0432.\u0120": 1825, "\u043f\u043e\u043f\u0430": 1826, "\u043f\u043e\u0442\u0435\u0440": 1827, "\u043f\u0435\u0440\u044c\u0120": 1828, "\u0441\u0430\u043c\u0120": 1829, "\u0449\u0435\u043d\u0438\u0435\u0120": 1830, "\u043f\u0440\u043e\u0435\u043a\u0442\u0120": 1831, "\u043b\u0435\u0434": 1832, "\u043c\u0438\u0440\u043e": 1833, "'\u0422": 1834, "\u0442\u0435\u043b\u044c\u043d\u043e\u0439\u0120": 1835, "\u0438\u0437\u0432\u0435\u0441\u0442\u043d\u043e\u0120": 1836, "\u041c\u0435\u0434\u0432\u0435\u0434\u0435": 1837, "\u043f\u043e\u0431\u0435": 1838, "\u0442\u0435\u0430": 1839, "\u0447\u0435\u043c\u043f\u0438": 1840, "\u0442\u0430\u0440\u0438": 1841, "\u0436\u0430\u0439": 1842, "\u043b\u043e\u0433\u043e\u0120": 1843, "\u0441\u043e\u0446\u0438\u0430\u043b\u044c": 1844, "\u0441\u043e\u0432\u0435\u0440\u0448\u0435\u043d": 1845, "\u0441\u0432\u043e\u0435\u0439\u0120": 1846, "\u0443\u043b\u0438": 1847, "\u0441\u043e\u0441\u0442\u0430": 1848, "an": 1849, "\u0441\u0442\u0430\u043d\u043e\u0432\u0438": 1850, "\u0432\u043d\u0443": 1851, "\u0435\u0432\u0440\u043e": 1852, "\u0448\u0435\u043d\u0438\u044f\u0120": 1853, "\u0422\u0410": 1854, "\u0433\u0443\u0120": 1855, "\u043f\u0435\u0440\u0435\u0434\u0120": 1856, "\u043e\u0442\u0432\u0435\u0442\u0441\u0442\u0432\u0435\u043d": 1857, "\u044d\u043b\u0435\u043a\u0442\u0440\u043e": 1858, "\u0431\u043e\u043b\u044c\u0448\u0435\u0120": 1859, "\u0421\u0421": 1860, "\u0441\u043a\u0430\u0120": 1861, "4\u0120": 1862, "2014\u0120": 1863, "\u043a\u043e\u043b\u0438\u0447\u0435": 1864, "\u043e\u0433\u0440\u0430\u043d\u0438": 1865, "\u0443,\u0120": 1866, "\u0442\u0438\u0447\u0435\u0441\u043a\u0438\u0120": 1867, "\u0447\u0435\u0442\u044b": 1868, "\u041a\u0120": 1869, "\u0423\u041a\u0120": 1870, "\u0418\u0437": 1871, "\u0442\u043e\u0440\u0433\u043e": 1872, "\u0440\u0430\u043c\u043a\u0430\u0445\u0120": 1873, "\u043a\u043e\u043c\u0430\u043d": 1874, "\u0417\u0430\u0120": 1875, "\u0441\u043f\u0435\u0446\u0438\u0430\u043b\u0438": 1876, "\u043f\u0440\u043e\u0434\u043e\u043b\u0436\u0430": 1877, "\u043f\u0438\u0448": 1878, "\u0442\u043d\u043e\u0120": 1879, "\u043b\u0441\u044f": 1880, "\u0440\u0435\u0433\u0438\u043e\u043d\u0430": 1881, "\u043c\u043e\u0441\u0442\u0438\u0120": 1882, "\u043c\u0435\u043d\u044f": 1883, "\u0440\u0430\u0441\u0441\u043a\u0430\u0437\u0430": 1884, "\u0414\u043b\u044f\u0120": 1885, "\u0432\u043b\u0435\u043d\u044b\u0120": 1886, "\u043d\u0430\u0447\u0430\u043b\u0430\u0120": 1887, "\u0431\u0440\u043e": 1888, "\u0442\u0443\u0440\u0438": 1889, "\u043f\u0430\u0440\u043b\u0430\u043c\u0435\u043d": 1890, "\u041c\u0438\u0445\u0430\u0438": 1891, "\u043f\u043e\u0442\u043e": 1892, "\u0442\u0435\u043c,\u0120": 1893, "\u0447\u0435\u0433\u043e\u0120": 1894, "\u043e\u0434\u043d\u043e": 1895, "\u043e\u0445\u0440\u0430\u043d\u0438\u0442\u0435\u043b\u044c": 1896, "\u043f\u0440\u044f": 1897, "\u041c\u0443": 1898, "\u0432\u0441": 1899, "\u043a\u0430\u043c\u0120": 1900, "\u043f\u043e\u0434\u043e\u0437\u0440\u0435": 1901, "\u043f\u0440\u043e\u0434\u0443\u043a": 1902, "\u0447\u043d\u043e\u0120": 1903, "\u0442\u043d\u043e\u0433\u043e\u0120": 1904, "\u0440\u0443\u043a\u043e\u0432\u043e\u0434": 1905, "\u043a\u0443,\u0120": 1906, "\u043a\u043e\u043c\u043f\u0430\u043d\u0438\u044f\u0120": 1907, "\u0446\u0438\u0435\u0439\u0120": 1908, "\u0434\u043e\u0431\u0430\u0432\u0438": 1909, "\u0442\u0435\u0440\u0440\u0438\u0442\u043e\u0440\u0438": 1910, "\u0411\u0443": 1911, "\u0422\u0430\u043a\u0436\u0435\u0120": 1912, "\u0447\u043d\u043e\u0439\u0120": 1913, "\u041a\u043e\u043c": 1914, "\u043f\u043e\u043b\u0443\u0447\u0430": 1915, "\u041c\u0438\u043d": 1916, "\u043b\u0430\u043d": 1917, "1\u0120": 1918, "11\u0120": 1919, "\u0442\u0438\u0440\u043e\u0432\u0430": 1920, "\u0442\u043d\u044b\u0435\u0120": 1921, "\u0440\u0435\u0437": 1922, "\u043f\u0438\u0442\u0430": 1923, "\u0441\u043f\u0435\u0446\u0438\u0430\u043b\u044c": 1924, "\u0441\u0443\u0431": 1925, "\u043f\u0440\u0435\u0434\u0432\u0430\u0440\u0438": 1926, "..": 1927, "\u0443\u0441\u0442\u0430": 1928, "\u043f\u043e\u0447\u0442\u0438\u0120": 1929, "'\u041f": 1930, "\u0440\u0435\u0431\u0435\u043d": 1931, "\u0440\u0435\u043c\u043e\u043d": 1932, "\u0443\u0447\u0435": 1933, "\u0441\u043c\u0435\u0440": 1934, "\u043a\u043e\u043b\u043e": 1935, "\u0434\u0438\u0434\u0430": 1936, "\u0438\u043c\u0443": 1937, "\u0442\u0430\u043c\u0438\u0120": 1938, "\u0434\u0440\u0443\u0433\u0438\u0445\u0120": 1939, "\u0441\u043c\u0430\u0442\u0440\u0438": 1940, "\u0446\u0435-": 1941, "\u0439\u0441\u044f\u0120": 1942, "\u043f\u043e\u0432\u044b": 1943, "\u0448\u0430\u044f\u0120": 1944, "25\u0120": 1945, "\u043c'\u0120": 1946, "-\u043b\u0435\u0442\u043d\u0438\u0439\u0120": 1947, "\u0443\u043a\u0430\u0437\u0430": 1948, "\u0441\u043b\u0443\u0436\u0431\u044b\u0120": 1949, "\u043d\u0430\u0445\u043e\u0434\u0438\u0442\u0441\u044f\u0120": 1950, "\u0441\u043a\u0120": 1951, "\u043f\u0440\u043e\u0432\u043e": 1952, "\u043a\u043e\u043c\u0430": 1953, "\u0431\u043b\u0438\u0436\u0430\u0439": 1954, "\u0440\u0435\u0441": 1955, "\u0446\u0438\u043e\u043d\u0435": 1956, "\u0434\u0430\u043b\u044c": 1957, "\u0432\u0430\u043d\u0438\u0438\u0120": 1958, "\u043a\u043e\u0435\u0120": 1959, "\u0448\u0438\u0435\u0120": 1960, "\u0438\u0441\u0442\u043e\u0440\u0438": 1961, "\u043c\u043d\u043e\u0433\u043e\u0120": 1962, "\u0438\u043c\u0435\u043d\u043d\u043e\u0120": 1963, "\u0434\u0435\u043b\u0120": 1964, "\u0447\u0435\u0120": 1965, "\u043d\u043e\u0441\u0442\u0438.\u0120": 1966, "\u0431\u043e\u0435": 1967, "\u0436\u0434\u0435\u043d\u043e\u0120": 1968, "\u043d\u0435,\u0120": 1969, "\u0433\u043e\u0434\u0120": 1970, "\u0432\u043d\u043e\u0120": 1971, "or": 1972, "\u0432\u0437\u0440\u044b": 1973, "\u043d\u0430\u0445\u043e\u0434\u044f": 1974, "\u043f\u0440\u0430\u0432\u043b\u044f": 1975, "\u043b\u043e,\u0120": 1976, "\u0434\u0443\u0120": 1977, "\u0431\u0440\u0435\u0120": 1978, "\u0430\u043c\u0435\u0440\u0438\u043a\u0430\u043d": 1979, "\u0441\u0432\u043e\u0438\u0445\u0120": 1980, "\u0432\u0435\u0447\u0435": 1981, "\u0434\u0435\u043d\u0435": 1982, "\u043f\u043e\u043b\u0438\u0442\u0438": 1983, "\u043b\u044f.\u0120": 1984, "\u041d\u043e\u0432\u043e\u0441\u0442\u0438\u0120": 1985, "\u0446\u0435\u043d\u0442\u0440": 1986, "\u0441\u043e\u0442\u0440\u0443\u0434\u043d\u0438\u043a\u0438\u0120": 1987, "\u0444\u0438\u043b\u044c": 1988, "\u043a\u043e\u0442\u043e\u0440\u043e\u0435\u0120": 1989, "\u0441\u043f\u0430": 1990, "\u0433\u043e\u0432\u043e\u0440\u0438\u0442\u0441\u044f\u0120": 1991, "\u043e\u0440\u0433\u0430\u043d\u0438\u0437\u0430\u0446\u0438\u0438\u0120": 1992, "\u043f\u043e\u043b\u043d\u043e": 1993, "\u0432\u043a\u043b\u044e": 1994, "\u043e\u043d.\u0120": 1995, "\u0437\u0430\u043a\u043e\u043d\u043e\u0434\u0430\u0442\u0435\u043b\u044c": 1996, "\u043f\u0440\u0430\u0437": 1997, "\u043e\u0434\u043d\u043e\u0439\u0120": 1998, "\u0434\u043e\u043c\u0430": 1999, "\u041c\u0427": 2000, "\u0436\u0435\u043b\u0430": 2001, "\u0449\u0438\u0445\u0120": 2002, "\u043d\u0435\u043d\u0438\u0435\u0120": 2003, "Ru": 2004, "\u0441\u0432\u043e\u0438\u0120": 2005, "\u043c\u0435\u0436\u0434\u0443\u043d\u0430\u0440\u043e\u0434": 2006, "\u0438\u0441\u043a\u043b\u044e": 2007, "\u043f\u043e\u0434\u043f\u0438\u0441\u0430": 2008, "\u041c\u0430\u0440": 2009, "\u043a\u043e\u043d\u0442\u0440\u0430": 2010, "\u043f\u0440\u0435\u0434\u043b\u0430\u0433\u0430": 2011, "\u044e\u0449\u0435\u0439\u0120": 2012, "\u043d\u0435\u0434\u0435": 2013, "\u043c\u0430\u0448\u0438": 2014, "\u0432\u043b\u0430\u0441\u0442\u0438\u0120": 2015, "\u0443\u0447\u0430\u0441\u0442\u0438\u0435\u0120": 2016, "\u043c\u044b\u0448\u043b\u0435\u043d": 2017, "13": 2018, "14": 2019, "\u0432\u043e\u0435\u0120": 2020, "\u0440\u0443\u0431\u043b\u0435\u0439,\u0120": 2021, "\u0449\u0438\u0439\u0120": 2022, "\u043d\u0430\u0446\u0438\u043e\u043d\u0430": 2023, "\u0447\u0435\u043b\u043e\u0432\u0435\u043a.\u0120": 2024, "\u043e\u0431\u044a\u044f": 2025, "\u0443\u0441\u043b\u0443": 2026, "\u043f\u0435\u0439": 2027, "\u0447\u0430\u0441\u0442\u0438\u0120": 2028, "\u0442\u043e\u0442\u0120": 2029, "\u0431\u043e\u043b\u044c\u043d\u0438\u0446": 2030, "\u043c\u0435\u043d\u044c": 2031, "\u043a\u0430\u043d\u0434\u0438\u0434\u0430": 2032, "\u0441\u043b\u0435\u0434\u043e\u0432\u0430": 2033, "\u043c\u0430\u0442\u0435\u0440\u0438\u0430": 2034, "\u0435\u043d\u0438\u0435": 2035, "\u043f\u0440\u0438\u0432\u043b\u0435": 2036, "\u043f\u0440\u0435\u0434\u043e": 2037, "\u0441\u043e\u043e\u0442\u0432\u0435\u0442\u0441\u0442\u0432\u0443": 2038, "\u0420\u043e\u0441\u0441\u0438\u0438": 2039, "\u043b\u0438\u0448\u044c\u0120": 2040, "'\u0412": 2041, "\u043f\u0440\u0430\u0432\u043e\u043e\u0445\u0440\u0430\u043d\u0438\u0442\u0435\u043b\u044c": 2042, "\u0448\u0435\u0441\u0442\u0432\u0438": 2043, "\u0434\u0435\u043a": 2044, "16": 2045, "\u043f\u0430\u043c\u044f": 2046, "\u0445\u0441\u044f\u0120": 2047, "\u0440\u0443\u0441": 2048, "\u043c\u043d\u043e\u0433\u043e": 2049, "\u0441\u0442\u0430\u043b\u0438\u0120": 2050, "\u0438\u0437\u043c\u0435\u043d": 2051, "\u0414\u043c\u0438\u0442\u0440\u0438\u0439\u0120": 2052, "\u0432\u0448\u0438\u0435\u0120": 2053, "\u0442\u0430'\u0120": 2054, "\u0441\u0443\u0434\u0438": 2055, "\u0448\u0435\u0434": 2056, "\u0444\u0438\u043d\u0430\u043d\u0441\u043e": 2057, "\u043a\u043e\u043c\u043c\u0435\u043d": 2058, "18": 2059, "\u0430\u043a\u0442\u0438\u0432": 2060, "\u043d\u0435\u0437\u0430\u043a\u043e\u043d": 2061, "\u041d\u043e\u0432\u043e\u0441\u0442\u0438.\u0120": 2062, "\u0448\u0435\u0435\u0120": 2063, "\u0440.\u0120": 2064, "\u043f\u0440\u043e\u0446\u0435\u043d\u0442\u043e\u0432.\u0120": 2065, "\u043f\u0440\u043e\u0441\u0442\u043e\u0120": 2066, "\u0441\u0431\u043e\u0440": 2067, "'\u0412\u0120": 2068, "\u0441\u0441\u0430": 2069, "\u043a\u043e\u043d\u0435": 2070, "\u0437\u0430\u0432\u0438": 2071, "\u0440\u0435\u0430\u043b\u0438": 2072, "\u0434\u0435\u0439\u0441\u0442\u0432\u0443": 2073, "\u0448\u043a\u0438": 2074, "\u0430\u044d\u0440\u043e": 2075, "\u0433\u043b\u0430\u0432\u044b\u0120": 2076, "\u0441\u043b\u0443\u0447\u0430\u0435\u0120": 2077, "\u0438\u043c\u0443\u0449\u0435": 2078, "8\u0120": 2079, "18\u0120": 2080, "\u0441\u043e\u0431\u0438": 2081, "\u0432\u043e\u043b\u044c": 2082, "\u043c\u043e\u0439\u0120": 2083, "2011\u0120": 2084, "\u0441\u043b\u0443\u0436\u0438": 2085, "\u0442\u0438\u0435\u0120": 2086, "\u0413\u0435\u043d": 2087, "\u0432\u0435\u0437": 2088, "\u043f\u0440\u0430\u043a": 2089, "\u043c\u043e\u0441\u043a\u043e\u0432": 2090, "\u0433\u043b\u0438\u0120": 2091, "\u043e\u0431\u0432\u0438\u043d\u044f": 2092, "\u043b\u0438\u0431\u043e\u0120": 2093, "\u0443\u0447\u0440\u0435": 2094, "\u0435\u043d\u0438\u0435.\u0120": 2095, "\u0442\u0435\u0447\u0435\u043d\u0438\u0435\u0120": 2096, "\u043f\u043e\u0435\u0437": 2097, "\u0445\u043e\u0432": 2098, "\u0434\u0435\u043a\u0430\u0431\u0440\u044f\u0120": 2099, "\u0440\u0430\u0441\u043f\u043e\u043b\u043e": 2100, "\u043b\u044f,\u0120": 2101, "\u043d\u0430\u0437\u044b\u0432\u0430": 2102, "\u043e\u0431\u0440\u0435": 2103, "14\u0120": 2104, "\u043c\u043d\u043e\u0433\u0438": 2105, "\u0434\u0438\u0440\u0435\u043a\u0442\u043e\u0440\u0120": 2106, "\u0447\u0435\u0442\u0432\u0435\u0440": 2107, "\u043d\u0438\u043c\u0120": 2108, "\u0449\u0430\u044f\u0120": 2109, "\u0433\u043e\u0440\u043e\u0434\u0435\u0120": 2110, "\u043d\u0430\u0441\u0442\u043e\u044f\u0449\u0435\u0435\u0120": 2111, "\u043b\u0435\u043d\u0438\u044f\u0120": 2112, "2010\u0120": 2113, "\u043f\u043e\u0434\u0447\u0435\u0440": 2114, "\u041d\u0438\u043a\u043e": 2115, "\u043e\u043a\u0440\u0443": 2116, "9\u0120": 2117, "2009\u0120": 2118, "\u043c\u0430\u0433\u0430": 2119, "\u0437\u0430\u044f\u0432\u0438\u043b,\u0120": 2120, "\u043f\u0440\u0438\u043c\u0435\u0440,\u0120": 2121, "\u043e\u043f\u0435\u0440\u0430\u0442\u0438\u0432": 2122, "\u0411\u043e\u043b\u044c": 2123, "\u0439\u0434\u0435\u0442\u0120": 2124, "\u043a\u043e.\u0120": 2125, "\u0433\u0435\u043d\u0435\u0440\u0430": 2126, "\u0441\u0443\u0434\u0435\u0431": 2127, "\u0443\u0447\u0438": 2128, "\u0442\u0430\u0445\u0120": 2129, "\u0431\u0438\u0440": 2130, "\u0436\u0438\u0120": 2131, "\u0441\u043a\u0438\u043c\u0438\u0120": 2132, "\u0437\u0430\u0446\u0438\u0438\u0120": 2133, ".r": 2134, "\u0438\u043d\u043e\u0441\u0442\u0440\u0430\u043d": 2135, "2012\u0120": 2136, "\u0433.\u0120": 2137, "\u043f\u0440\u0435\u0441\u0441-\u0441\u043b\u0443\u0436\u0431\u0435\u0120": 2138, "\u043f\u043e\u043b\u0438\u0446\u0435\u0439": 2139, "\u043e\u0442\u043e": 2140, "\u044e\u0440\u0438": 2141, "\u0421\u0435\u0439\u0447\u0430\u0441\u0120": 2142, "\u0447\u0435\u043b\u043e\u0432\u0435\u043a,\u0120": 2143, "\u0421\u0435\u0432\u0435\u0440": 2144, "on": 2145, "'|": 2146, "\u0441\u043f\u043e\u0441\u043e\u0431": 2147, "\u044c\u0435": 2148, "\u0441\u0442\u043e\u043b\u0438\u0446": 2149, "\u0420\u043e\u0441\u0441\u0438\u0438.\u0120": 2150, "\u0440\u043e\u0441\u0441\u0438\u0439\u0441\u043a\u0438\u0445\u0120": 2151, "\u0431\u0443\u0434\u0443": 2152, "\u0440\u0430\u0445\u0120": 2153, "\u0441\u0441\u0435": 2154, "\u0443\u0441\u043f\u0435": 2155, "\u044f\u043d\u0432\u0430\u0440\u044f\u0120": 2156, "\u0432\u0441\u0435\u043c\u0120": 2157, "\u0433\u043e\u043b\u043e\u0441\u043e": 2158, "\u043e\u0431\u0435\u0449\u0430": 2159, "\u0441\u0442\u0432\u0435\u043d\u043d\u043e\u0439\u0120": 2160, "\u043d\u0430\u0437\u0430": 2161, "\u043c\u043b\u0440\u0434\u0120": 2162, "\u044e\u0449\u0435\u0433\u043e\u0120": 2163, "\u0441\u043e\u044e": 2164, "'\u042d": 2165, "\u0436\u0435,\u0120": 2166, "\u0431\u043e\u043b\u044c\u0448\u043e": 2167, "\u0413\u043e\u0441\u0434\u0443": 2168, "\u043a\u0435,\u0120": 2169, "\u043a\u0443.\u0120": 2170, "\u043f\u0440\u0435\u0437\u0438\u0434\u0435\u043d\u0442\u0120": 2171, "\u0432\u0435\u0441\u0442\u0438\u0120": 2172, "\u0440\u0430\u0439\u043e\u043d\u0430": 2173, "\u043f\u0440\u0435\u0434\u043f\u0440\u0438\u044f\u0442\u0438": 2174, "\u0448\u0442\u0440\u0430": 2175, "\u043d\u043e\u0432\u0430\u0120": 2176, "\u0431\u0438\u0437\u043d\u0435\u0441": 2177, "6\u0120": 2178, "16\u0120": 2179, "\u043a\u0438\u0439\u0120": 2180, "\u0437\u0430\u0432\u043e": 2181, "\u0440\u044b.\u0120": 2182, "\u0447\u043d\u044b\u0445\u0120": 2183, "\u0443\u0442\u043e\u0447": 2184, "\u0447\u0430\u0441\u043e\u0432\u0120": 2185, "\u0432\u043b\u0435\u043d\u043e\u0120": 2186, "\u0436\u043d\u044b\u0445\u0120": 2187, "\u0438\u0441\u0442\u043e\u0447": 2188, "\u043c\u0435\u0440\u0120": 2189, "\u041b\u0443": 2190, "\u0442\u0430\u043b\u044c": 2191, "\u0440\u0435\u0432": 2192, "'\u0418\u043d\u0442\u0435\u0440": 2193, "\u0442\u043e\u0432": 2194, "\u0441\u0442\u0430\u043d\u0446\u0438\u0438\u0120": 2195, "\u0440\u044f\u0434\u0120": 2196, ",5\u0120": 2197, "\u0441\u0430\u0439\u0442\u0435\u0120": 2198, "\u0413\u0418": 2199, "\u043d\u0435\u0438\u0437\u0432\u0435\u0441\u0442": 2200, "\u0443\u0433\u043e\u043b\u043e\u0432\u043d\u043e\u0433\u043e\u0120": 2201, "\u0432\u0438\u0446\u0435-": 2202, "\u043f\u043e\u043b\u044c\u0437\u043e": 2203, "\u0437\u044f": 2204, "\u041d\u0435\u0120": 2205, "\u043b\u043e.\u0120": 2206, "\u0441\u0442\u0432\u0435\u043d\u043d\u043e\u0433\u043e\u0120": 2207, "\u0442\u043a\u0438\u0120": 2208, "\u0446\u0438\u0438": 2209, "\u041c\u044b\u0120": 2210, "\u043a\u0430\u043d\u0443": 2211, "\u0438\u0437\u0431\u0438\u0440\u0430": 2212, "\u0440\u0438\u0439\u0120": 2213, "\u043f\u0438\u0448\u0435\u0442\u0120": 2214, "\u043b\u0435\u0437": 2215, "\u0441\u0442\u0430\u0440": 2216, "\u0442\u0435\u043b\u044c\u043d\u044b\u0445\u0120": 2217, "\u0442\u0435\u043b\u0435\u043c\u0120": 2218, "\u043d\u0443\u0436\u043d\u043e\u0120": 2219, "\u043a\u0443\u043b\u044c\u0442\u0443": 2220, "\u043f\u043e\u0434\u0434\u0435\u0440\u0436": 2221, "\u0431\u043e\u0440\u043e": 2222, "\u0421\u041f": 2223, "\u0436\u0430\u0120": 2224, "2008\u0120": 2225, "\u043f\u043e\u043b\u0438\u0442\u0438\u0447\u0435": 2226, "\u0434\u0430\u0442\u044c\u0120": 2227, "\u043d\u043d\u044b\u0445\u0120": 2228, "\u0442\u044b\u0441\u044f\u0447\u0438\u0120": 2229, "\u043b\u0435\u0436\u0430": 2230, "\u0443.\u0120": 2231, "\u0445\u043e\u0434\u0120": 2232, "\u0433\u0430\u0437\u0435": 2233, "7\u0120": 2234, "17\u0120": 2235, "\u0416": 2236, "\u0416\u0438": 2237, "\u043f\u043e\u0441\u0442\u0443\u043f\u0438": 2238, "\u0440\u0430\u0437\u0443\u0120": 2239, "\u043a\u0430\u0436": 2240, "\u043d\u043e\u0432,\u0120": 2241, "\u0443\u043f\u0440\u0430\u0432\u043b\u0435\u043d\u0438\u044f\u0120": 2242, "\u0444\u0443\u0442\u0431\u043e": 2243, "100\u0120": 2244, "\u044c\u044e": 2245, "\u0436\u0435\u0440": 2246, "\u0442\u0443,\u0120": 2247, "\u0442\u043d\u044b\u0439\u0120": 2248, "\u043f\u0440\u0435\u0434\u043b\u043e\u0436\u0438": 2249, "2015\u0120": 2250, "3\u0120": 2251, "13\u0120": 2252, "\u043d\u0435.\u0120": 2253, "\u043d\u043e\u0432.\u0120": 2254, "\u0447\u0430\u0441\u0442\u043d\u043e\u0441\u0442\u0438,\u0120": 2255, "\u0442\u0435.\u0120": 2256, "\u043c\u0435\u0440\u043e\u043f\u0440\u0438\u044f\u0442\u0438": 2257, "\u0438\u043d\u0444\u043e\u0440\u043c\u0430\u0446\u0438\u0438\u0120": 2258, "\u0431\u043e\u0439\u0120": 2259, "\u0442\u0435\u0439": 2260, "\u0441\u0442\u043e\u0438\u0442\u0120": 2261, "\u041b\u0435\u043d\u0438\u043d\u0433\u0440\u0430\u0434": 2262, "\u0441\u0432\u0435": 2263, "\u0430\u044d\u0440\u043e\u043f\u043e\u0440": 2264, "\u0444\u0435\u0440\u0435\u043d": 2265, "\u044c\u044f\u0120": 2266, "\u0440\u0430\u0434\u0438": 2267, "\u0441\u0442\u0440\u0443\u043a\u0442\u0443": 2268, "\u043f\u044f\u0442": 2269, "\u043d\u0430\u0434\u0120": 2270, "\u043d\u0430\u0441\u0435": 2271, "17": 2272, "\u0437\u0430\u043c\u0435\u0441\u0442\u0438": 2273, "199": 2274, "\u0435\u043c\u044b\u0445\u0120": 2275, "\u0441\u0435\u043c\u044c": 2276, "\u0434\u0435\u043b\u0438": 2277, "\u0438\u044e\u043b\u044f\u0120": 2278, "\u0437\u0430\u043d\u044f": 2279, "\u041f\u0438": 2280, "\u041f\u0435\u0442\u0435\u0440\u0431\u0443\u0440\u0433\u0120": 2281, "\u0441\u0435\u043d\u0442\u044f\u0431\u0440\u044f\u0120": 2282, "\u043b\u0438\u043d\u0438": 2283, "\u043a\u0430\u044f\u0120": 2284, "\u0447\u0438\u0442\u044c\u0120": 2285, "\u0440\u0430\u0441\u0441\u043a\u0430\u0437\u0430\u043b\u0120": 2286, "\u043e\u0441\u043e\u0431": 2287, "\u0446\u0435\u043d\u0438": 2288, "\u043d\u0430\u0440\u043a\u043e": 2289, "\u0432\u044b\u0437": 2290, "\u0434\u0443\u043c\u0430": 2291, "\u043f\u043b\u0430\u043d\u0438\u0440\u0443": 2292, "\u041f\u043e\u0434": 2293, "\u0434\u0435\u0439\u0441\u0442\u0432\u0438\u044f\u0120": 2294, "\u043f\u043e\u043b\u044c": 2295, "\u0433\u0430\u043d": 2296, "\u043d\u0430\u0445\u0120": 2297, "\u0432\u0435.\u0120": 2298, "\u0436\u043e": 2299, "\u0423\u043a\u0440\u0430\u0438\u043d\u044b\u0120": 2300, "\u043c\u0430\u0440\u0442\u0430\u0120": 2301, "\u043e\u0441\u0443\u0449\u0435": 2302, "\u043c\u043d\u0435\u043d\u0438\u044e\u0120": 2303, "\u043f\u043e\u043b\u0443\u0447\u0438\u043b\u0120": 2304, "'\u0418\u043d\u0442\u0435\u0440\u0444\u0430\u043a": 2305, "\u0440\u0430\u0441\u0441\u043b\u0435\u0434\u043e": 2306, "\u043d\u044f\u044f\u0120": 2307, "\u0442\u0435\u0445\u043d\u0438\u0447\u0435": 2308, "\u0441\u0442\u044b": 2309, "\u043a\u043e\u043d\u0441\u0442\u0440\u0443\u043a": 2310, "\u0417\u0430\u043a": 2311, "\u0431\u0435\u0437\u043e\u043f\u0430\u0441\u043d\u043e\u0441\u0442\u0438\u0120": 2312, "0,": 2313, "\u0434\u043e\u043f\u043e\u043b": 2314, "\u0441\u0438\u043b\u0438": 2315, "\u043a\u043e\u0442\u043e\u0440\u043e\u043c\u0120": 2316, "\u0448\u0438\u0439\u0120": 2317, "\u043f\u0438\u0441\u044c": 2318, "\u043f\u0440\u0435\u0441\u0441-\u0441\u043b\u0443\u0436\u0431\u0430\u0120": 2319, "\u0430\u0432\u0442\u043e\u0431\u0443": 2320, "\u044d\u0442\u0438\u0445\u0120": 2321, "\u0441\u043e\u0431\u0438\u0440\u0430": 2322, "\u0443\u0441\u0442\u0430\u043d\u043e\u0432\u043b\u0435\u043d": 2323, "\u043b\u044c\u043d\u043e\u043c\u0120": 2324, "'\u0424\u043e\u043d\u0442\u0430\u043d\u043a\u0438'\u0120": 2325, "\u041f\u0443\u0442\u0438\u043d\u0120": 2326, "\u0439',\u0120": 2327, "\u0441\u0430\u043d": 2328, "\u0442\u0438\u043b\u0120": 2329, "\u043b\u0435\u0433\u0430": 2330, "\u043b\u0438\u043c\u043f\u0438": 2331, "\u0442\u0440\u0430\u0432": 2332, "\u0434\u043e\u0439\u0120": 2333, "\u043b\u043e\u0431": 2334, "\u0449\u0435\u0433\u043e\u0120": 2335, "\u0442\u0438,\u0120": 2336, "\u0421\u0442\u0430": 2337, "\u0420\u043e\u0441\u0441\u0438\u0438,\u0120": 2338, "\u043c\u0435\u0442\u0440": 2339, "\u0414\u0422": 2340, "\u041d\u0438\u043a\u043e\u043b\u0430": 2341, "\u043b\u0430.\u0120": 2342, "2013\u0120": 2343, "\u0444\u0430\u043a\u0442\u0443\u0120": 2344, "\u0432\u0435\u043d": 2345, "\u0441\u0435\u0440\u044c": 2346, "\u0434.\u0120": 2347, "\u0432\u0430\u043d\u0120": 2348, "\u0420\u043e\u0441\u0441\u0438\u044f\u0120": 2349, "\u0442\u044f\u0436\u0435": 2350, "\u0432\u0430\u043d\u0438\u0435\u043c\u0120": 2351, "\u0434\u043b\u0438": 2352, "\u043f\u043e\u043b\u043d\u043e\u043c\u043e": 2353, "\u0432\u043d\u0438\u043c\u0430": 2354, "\u043d\u0430\u0448": 2355, "\u0441'\u0120": 2356, "ta": 2357, "\u0441\u0442.\u0120": 2358, "\u0443\u0433\u0440\u043e": 2359, "'\u0413\u0430\u0437\u0435\u0442\u0430.Ru": 2360, "\u0441\u0430\u043c\u043e\u043b\u0435": 2361, "\u0432\u043e\u043a\u0430": 2362, "\u0430\u0440\u0435\u043d": 2363, "\u0441\u043b\u043e\u0436": 2364, "\u0441\u0442\u043e\u0440\u043e\u043d\u044b\u0120": 2365, "\u0441\u0432\u043e\u0435\u0433\u043e\u0120": 2366, "\u0421\u043b\u0435\u0434": 2367, "\u0434\u043e\u0441\u0442\u0438": 2368, "\u043f\u0435\u0440\u0438\u043e": 2369, "40\u0120": 2370, "\u0413\u0435\u0440": 2371, "\u043f\u0440\u043e\u0442\u0438\u0432\u043e": 2372, "\u0437\u0434\u0430\u043d\u0438\u044f\u0120": 2373, "\u043f\u0440\u0435\u0434\u0441\u0442\u0430\u0432\u0438\u0442\u0435\u043b\u044c\u0120": 2374, "\u0435\u043d\u0438\u0439,\u0120": 2375, "\u0434\u043d\u0435": 2376, "\u043f\u0440\u0435\u043c\u044c\u0435\u0440": 2377, "\u0421\u0435\u0440\u0433\u0435": 2378, "\u0433\u0440\u0435": 2379, "\u0432\u0438\u0434\u0438": 2380, "\u043b\u0435\u0433": 2381, "\u043c\u0430\u0440\u0448": 2382, "\u0425": 2383, "\u0425\u0430": 2384, "\u0441\u0430,\u0120": 2385, "\u0442\u043e\u043d": 2386, "\u0441\u043e\u0442\u0440\u0443\u0434\u043d\u0438\u043a\u043e\u0432\u0120": 2387, "\u043a\u043e\u043d\u0446\u0435\u0120": 2388, "\u0443\u043a\u0440\u0430\u0438\u043d": 2389, "\u0435\u0441\u044f\u0120": 2390, "\u0441\u0443\u0434\u0430\u0120": 2391, "\u0433\u043e\u0434\u0443.\u0120": 2392, "\u0436\u0438\u043b\u044c": 2393, "\u0438\u044e\u043d\u044f\u0120": 2394, "\u0437\u044b\u0120": 2395, "\u043e\u0442\u0434\u0435\u043b": 2396, "\u043f\u0435\u0440\u0432\u044b\u0439\u0120": 2397, "\u0413\u0443": 2398, "\u0444\u0443": 2399, "\u043f\u043e\u043b\u0438\u0446\u0438\u0438\u0120": 2400, "\u0412\u043e\u0437": 2401, "\u043a\u0430\u0447\u0435\u0441\u0442\u0432\u0435\u0120": 2402, "\u0447\u0443\u0120": 2403, "\u0444\u0435\u043a": 2404, "\u0441\u0442\u0440\u0430\u043d\u044b\u0120": 2405, "\u0437\u0430\u0432\u0438\u0441\u0438": 2406, "\u0431\u0435\u0437": 2407, "\u0430\u0432\u0433\u0443\u0441\u0442\u0430\u0120": 2408, "\u043c\u0435\u0434\u0438\u0446\u0438": 2409, "\u0438\u043d\u0438\u0446\u0438": 2410, "\u0431\u0435\u0120": 2411, "\u043f\u0435\u0440\u0432\u044b\u0435\u0120": 2412, "\u043e\u043a\u0442\u044f\u0431\u0440\u044f\u0120": 2413, "\u0432\u043e\u0440\u0438": 2414, "\u0441\u0440\u0435\u0434\u0438\u0120": 2415, "\u043f\u043e\u0442\u0440\u0435\u0431": 2416, "\u043d\u043e\u0441\u0438": 2417, "\u0436\u0438\u0442\u0435\u043b\u044c": 2418, "\u0434\u043e\u0440\u043e\u0436": 2419, "\u0442\u0438\u0438\u0120": 2420, "\u041e\u043d\u0438\u0120": 2421, "\u0430,\u0120": 2422, "\u043e\u0441\u0432\u043e": 2423, "\u0440\u043e\u0431": 2424, "\u043b\u043b\u0435": 2425, "\u0441\u043e\u043a\u0440\u0430": 2426, "\u0443\u0434\u0430\u043b\u043e\u0441\u044c\u0120": 2427, "\u0440\u043e\u0440\u0438": 2428, "\u0433\u0440\u0443\u043f\u043f\u044b\u0120": 2429, "\u0434\u043d\u044f\u0120": 2430, "\u043f\u0440\u043e\u0435\u043a\u0442\u0430\u0120": 2431, "\u0440\u0430\u0437\u0438": 2432, "\u043a\u0435.\u0120": 2433, "\u043f\u043e\u0434\u043e\u0437\u0440\u0435\u0432\u0430": 2434, "\u0430\u0434\u043c\u0438\u043d\u0438\u0441\u0442\u0440\u0430\u0442\u0438\u0432": 2435, "\u0410\u043d\u0434\u0440\u0435\u0439\u0120": 2436, "\u043f\u043e\u043d\u044f": 2437, "\u043e\u0442\u0435": 2438, "\u0440\u0443\u044e\u0120": 2439, "\u0441\u043a\u0435\u0120": 2440, "\u043b\u043e\u0439\u0120": 2441, "\u043f\u0440\u043e\u0438\u0437\u043e\u0448\u043b\u043e\u0120": 2442, "\u043d\u043e\u044f\u0431\u0440\u044f\u0120": 2443, "\u0432\u043e\u0437\u0431\u0443\u0436\u0434\u0435\u043d\u043e\u0120": 2444, "\u0447\u0435\u043d\u0438\u0438\u0120": 2445, "\u0433,\u0120": 2446, "\u043b\u044c\u043d\u044b\u043c\u0120": 2447, "\u0432\u0430\u043b\u0438": 2448, "\u043f\u043e\u0440\u044f": 2449, "\u043a\u043e\u0439": 2450, "\u0447\u043d\u044b\u0435\u0120": 2451, "\u043d\u0430\u043f\u0440\u0430": 2452, "\u0413\u0435": 2453, "\u0443\u043f\u0430": 2454, "\u0441\u0435\u043a\u0440\u0435": 2455, "\u0442\u0430\u043a\u043e\u0439\u0120": 2456, "\u043a\u043b\u043e": 2457, "\u0441\u043d\u0435": 2458, "\u0446\u0435\u043d\u0442\u0440\u0430": 2459, "\u0421\u0120": 2460, "\u041c\u0427\u0421\u0120": 2461, "\u0435\u0432\u0430\u0120": 2462, "\u043e,\u0120": 2463, "\u043c\u0443\u0437\u044b": 2464, "\u043f\u0443\u0431\u043b\u0438\u043a\u043e": 2465, "\u0441\u0435\u0433\u043e\u0434\u043d\u044f": 2466, "\u043a\u043e\u0432\u0430\u0120": 2467, "ar": 2468, "-\u0433\u043e\u0120": 2469, "\u0430\u043f\u0440\u0435\u043b\u044f\u0120": 2470, "24\u0120": 2471, "\u043c\u0430\u0448\u0438\u043d": 2472, "\u0437\u0430\u044f\u0432\u043b": 2473, "\u043c\u0430\u0433\u0430\u0437\u0438": 2474, "\u0442\u0435\u043a": 2475, "\u0410\u043b\u0435\u043a\u0441\u0435\u0439\u0120": 2476, "\u043f\u043b\u0438": 2477, "\u043b\u043e\u0436": 2478, "\u043f\u0440\u0435\u0434\u043f\u0440\u0438\u043d\u0438\u043c\u0430": 2479, "\u0443\u0432\u0435\u043b\u0438\u0447\u0438": 2480, "\u043f\u0440\u0435\u043a\u0440\u0430": 2481, "\u0447\u043d\u043e\u0433\u043e\u0120": 2482, "\u0432\u044b\u043f\u043b\u0430": 2483, "\u0430\u043d\u0442\u0438": 2484, "\u0434\u0438\u0438\u0120": 2485, "\u0434\u0430\u043b\u0435": 2486, "\u0441\u0442\u043e\u043b": 2487, "\u044d\u0442\u0443\u0120": 2488, "\u0440\u0435\u0448\u0435\u043d\u0438\u044f\u0120": 2489, "\u041a\u0440\u0430\u0441\u043d\u043e": 2490, "\u043f\u0440\u0430\u0432\u0438\u0442\u0435\u043b\u044c\u0441\u0442\u0432\u0430\u0120": 2491, "\u043f\u043e\u0434\u0442\u0432\u0435\u0440\u0434\u0438": 2492, "\u0441\u043e\u0434\u0435\u0440\u0436\u0430": 2493, "\u043f\u043e\u0434\u043e\u0431": 2494, "\u0412\u0441\u0435\u0120": 2495, "\u043b\u0435\u0442.\u0120": 2496, "\u0440\u0435\u0433\u0443": 2497, "\u043a\u0430\u043d\u0443\u043d\u0435\u0120": 2498, "22\u0120": 2499, "'\u041d\u0430": 2500, "\u0442\u0438\u043b\u0438\u0120": 2501, "\u0443\u0441\u0442\u0440\u043e\u0439": 2502, "\u0442\u0435\u0440\u0440\u043e\u0440\u0438": 2503, "\u0418\u0433\u043e\u0440": 2504, "\u0440\u0430\u0432\u0438": 2505, "\u043a\u043e\u043d\u0446\u0435\u0440": 2506, "\u0413\u043b\u0430\u0432": 2507, "\u0440\u0435\u0430": 2508, "\u043f\u0440\u043e\u0446\u0435\u043d\u0442\u043e\u0432,\u0120": 2509, "\u041b\u0435\u043d\u0442\u0430.": 2510, "\u043d\u0435\u0434\u043e": 2511, "\u043f\u0440\u0438\u043d\u0430\u0434": 2512, "\u043e\u0437": 2513, "\u0438\u0437\u0434\u0430\u043d\u0438": 2514, "\u043a\u0440\u0438\u0437\u0438": 2515, "\u0430\u0434\u0432\u043e\u043a\u0430": 2516, "\u0424\u0440\u0430\u043d": 2517, "\u0434\u043e\u043b\u0436\u043d\u0430\u0120": 2518, "\u0441\u0435\u0440\u044c\u0435\u0437": 2519, "\u043e\u043a\u043e\u043d": 2520, "\u043f\u0435\u0442\u0435\u0440\u0431\u0443\u0440\u0436": 2521, "es": 2522, "\u0442\u0435\u043b\u044f\u043c\u0120": 2523, "\u043f\u0430\u0120": 2524, "\u043c\u0438\u043d\u0438\u0441\u0442\u0440\u0120": 2525, "\u044e\u0449\u0438\u043c\u0120": 2526, "\u0432\u043e\u0437\u0434\u0443": 2527, "\u043f\u043e\u0434\u0447\u0435\u0440\u043a\u043d\u0443": 2528, "\u0421\u0435\u0433\u043e\u0434": 2529, "\u043f\u0440\u0430\u0437\u0434\u043d\u0438": 2530, "\u0436\u0434\u0435\u043d\u0438\u0435\u0120": 2531, "\u0412\u0435\u0440": 2532, "\u043c\u0430\u0440\u0448\u0440\u0443": 2533, "\u043f\u043b\u043e\u0449\u0430\u0434\u0438\u0120": 2534, "\u043b\u0438\u0434\u0435": 2535, "\u0440\u043e\u0432\u0430\u043b\u0438\u0120": 2536, "\u043e\u0441\u0443\u0449\u0435\u0441\u0442\u0432": 2537, "\u043f\u0440\u0435\u0441\u0442\u0443\u043f": 2538, "\u043b\u044f\u0440": 2539, "\u041c\u043e\u0441\u043a\u0432\u0435\u0120": 2540, "\u043f\u0440\u043e\u0444\u0435": 2541, "\u0438\u0434\u0435": 2542, "\u041e\u0410\u041e\u0120": 2543, "\u043e\u043d\u0438": 2544, "\u043f\u043e\u0445\u0438": 2545, "\u0444\u0438\u0440": 2546, "\u043f\u043e\u044f\u0441\u043d\u0438": 2547, "\u0447\u043d\u044b\u0439\u0120": 2548, "\u041a\u0440\u044b": 2549, "\u043d\u0438\u0442\u044c\u0120": 2550, "\u043d\u0430\u043a\u0430\u0437\u0430": 2551, "\u0424\u0421": 2552, "\u043b\u044c\u0449\u0438": 2553, "\u043f\u044f\u0442\u044c\u0120": 2554, "\u0430\u043a\u0442\u0438": 2555, "\u0432\u044b\u0434\u0430": 2556, "\u0432\u043e\u0437\u043c\u043e\u0436\u043d\u043e\u0441\u0442\u044c\u0120": 2557, "19\u0120": 2558, "\u0441\u0430.\u0120": 2559, "\u043c\u0438\u043b\u043b\u0438\u043e\u043d\u0430\u0120": 2560, "\u043a\u043e\u043d\u0442\u0440\u0430\u043a": 2561, "\u0434\u0430\u043d\u043d\u044b\u043c,\u0120": 2562, "\u0441\u0430\u043d\u043a": 2563, "\u0437\u0434\u0430\u043d\u0438\u0435\u0120": 2564, "\u0436\u0434\u044b": 2565, "\u043a\u043e\u043c\u043c\u0443": 2566, "'\u0415": 2567, "\u0440\u044b\u043d": 2568, "21\u0120": 2569, "\u043e\u043f\u0430\u0441": 2570, "\u043f\u0440\u0435\u0432\u044b": 2571, "\u0421\u043e\u0433\u043b\u0430": 2572, "'\u041c\u044b\u0120": 2573, "\u043e\u0431\u0441\u0443": 2574, "\u0440\u0435,\u0120": 2575, "\u0440\u043e\u0441\u0441\u0438\u044f": 2576, "\u043e\u0432\u0120": 2577, "\u0442\u0440\u0435\u0445\u0120": 2578, "\u0438\u0433\u0440\u043e": 2579, "\u0437\u0430\u0449\u0438\u0442": 2580, "\u0445\u043e\u0437\u044f": 2581, "\u043d\u0430\u0447\u0438": 2582, "\u043e\u0440\u0443\u0436\u0438": 2583, "\u0434\u043e\u043f\u043e\u043b\u043d\u0438\u0442\u0435\u043b\u044c": 2584, "\u0448\u0435\u043d\u0438\u0438\u0120": 2585, "\u043c\u0435\u0434\u0438\u0446\u0438\u043d": 2586, "\u0432\u0440\u0435\u043c\u0435\u043d\u0438\u0120": 2587, "\u043a\u0438\u043b\u043e": 2588, "\u0437\u043e\u0440": 2589, "\u0434\u0435\u043c\u0438": 2590, "\u0435\u0434\u0438\u043d": 2591, "\u0433\u043e\u0441": 2592, "\u043c\u0438\u0440": 2593, "\u0441\u0432\u0438\u0434\u0435": 2594, "\u0442\u0435\u043b\u044c\u043d\u043e\u0433\u043e\u0120": 2595, "\u043b\u044c\u043d\u0430\u044f\u0120": 2596, "\u043e\u0442\u043c\u0435\u0442\u0438\u043b\u0120": 2597, "\u043d\u0430\u0447\u0430\u043b\u0435\u0120": 2598, "\u0435\u043d\u0438\u044e,\u0120": 2599, "\u0448\u0438\u043c\u0120": 2600, "\u043f\u0440\u0435\u0436": 2601, "\u043d\u0430\u043f\u0438\u0441\u0430": 2602, "\u0441\u0435\u043d\u0442\u044f": 2603, "\u0440\u0430\u0431\u043e\u0442\u0430\u0442\u044c\u0120": 2604, "\u0433\u043e\u0440\u0435": 2605, "\u0440\u0435\u0441\u043f\u0443\u0431\u043b\u0438": 2606, "\u043f\u043e\u0441\u043b\u0435\u0434": 2607, "\u0434\u043e\u0441\u0442\u0430\u0442\u043e\u0447": 2608, "\u043a\u043e\u0440\u0440\u0435\u0441\u043f\u043e\u043d\u0434\u0435\u043d\u0442\u0443\u0120": 2609, "\u0442',\u0120": 2610, "\u0412\u0438\u043a\u0442\u043e": 2611, "\u044d\u0442\u0438\u043c\u0120": 2612, "\u0442\u0440\u043e\u043c\u0120": 2613, "\u0441\u0440\u0430\u0437\u0443\u0120": 2614, "30": 2615, "\u043f\u0440\u043e\u0438\u0437\u043e\u0448\u0435\u043b\u0120": 2616, "\u043a\u043e\u043c\u0430\u043d\u0434": 2617, "'\u0424\u043e\u043d\u0442\u0430\u043d\u043a\u0438',\u0120": 2618, "\u0431\u0435\u0441": 2619, "\u043a\u0432\u0430\u0440\u0442\u0430": 2620, "\u043d\u0435\u043c\u0443\u0120": 2621, "\u0444\u043e\u0442\u043e": 2622, "\u0434\u0435\u043b\u0443\u0120": 2623, "\u0442\u0435\u043b\u044c\u043d\u044b\u0435\u0120": 2624, "\u0440\u0430\u0441\u043f\u0440\u043e": 2625, "\u043d\u043e\u0432\u043e\u0433\u043e\u0120": 2626, "\u043f\u0440\u0438\u043e\u0431\u0440\u0435": 2627, "\u0446\u0435\u043d\u0442\u0440\u0435\u0120": 2628, "\u0442\u0435\u043b\u0435\u0439,\u0120": 2629, "\u0430\u0434\u0440\u0435": 2630, "\u0447.\u0120": 2631, "\u043d\u043a\u0435\u0120": 2632, "\u0432\u0435,\u0120": 2633, "\u043b\u044e\u0120": 2634, "\u0440\u043e\u043d": 2635, "\u043c\u0430\u0441\u0441\u043e": 2636, "\u0447\u0435\u043c,\u0120": 2637, "\u043d\u0430\u043c\u0438\u0120": 2638, "\u0435\u0442\u0441\u044f.\u0120": 2639, "\u0441\u043c\u0435\u043d": 2640, "\u0440\u0430\u0437\u0432\u0438\u0442\u0438\u044f\u0120": 2641, "\u0433\u043d\u043e": 2642, "\u0449\u0435\u043d\u0438\u0438\u0120": 2643, "\u0433\u043e\u0432\u043e\u0440\u044f": 2644, "'\u0411": 2645, "\u041c\u0430\u0442\u0432\u0438": 2646, "\u0441\u0442\u0432\u0435\u043d\u043d\u044b\u0439\u0120": 2647, "\u041c\u0430\u0442\u0432\u0438\u0435\u043d": 2648, "\u0434\u0438\u0430": 2649, "\u043d\u044c\u0120": 2650, "\u043f\u0440\u0435\u0434\u043f\u043e\u043b\u0430\u0433\u0430": 2651, "\u0442\u043e\u0440\u0430\u0120": 2652, "\u0443\u0442\u0432\u0435\u0440\u0436\u0434\u0430": 2653, "\u043e\u0440\u0433\u0430\u043d\u0438\u0437\u043e": 2654, "\u0430\u0432\u0430\u0440\u0438": 2655, "\u0414\u0438": 2656, "\u0442\u0435\u043f\u0435\u0440\u044c\u0120": 2657, "\u043f\u0430\u0440\u0442\u0438\u0438\u0120": 2658, "\u0440\u0430\u0441\u043f\u043e\u043b\u043e\u0436\u0435\u043d": 2659, "\u0435\u043d\u0438\u044f\u0445\u0120": 2660, "\u0432\u043b\u0430\u0434\u0435\u043b\u044c": 2661, "\u0432\u0435\u0440\u0435\u043d": 2662, "\u0444\u043b\u0438\u043a": 2663, "\u0447\u0438\u043b\u0120": 2664, "'\u0418": 2665, "\u043e\u0446\u0435\u043d": 2666, "\u0441\u0432\u043e\u0439\u0120": 2667, "\u0432\u0442\u043e\u0440\u043e\u0439\u0120": 2668, "\u0433\u043b\u044f": 2669, "\u0432\u0430\u043d\u0438\u044e\u0120": 2670, "\u043d\u0430\u0434\u043e\u0120": 2671, "\u0447\u0435\u043c\u043f\u0438\u043e\u043d\u0430": 2672, "\u0440\u0430\u0431\u043e\u0442\u0443\u0120": 2673, "\u0447\u0435\u0441\u043a\u0438\u0439\u0120": 2674, "\u043d\u0430\u043c\u0435\u0440": 2675, ".,\u0120": 2676, "\u0432\u0430\u0436": 2677, "\u043f\u043e\u0440\u0430": 2678, "\u043f\u0435\u043d\u0441\u0438": 2679, "\u0434\u0435\u043d\u044c\u0433\u0438\u0120": 2680, "\u041c\u0430\u043a": 2681, "\u043c\u0435\u043d\u0435\u0435\u0120": 2682, "\u0432\u0435\u0440\u043e-": 2683, "\u0433\u0440\u0430\u0436\u0434\u0430\u043d\u0120": 2684, "\u0441\u0435\u043b\u044c": 2685, "\u0434\u0435\u0441\u044c\u0120": 2686, "\u043e\u043f\u043f\u043e\u0437\u0438": 2687, "\u0434\u0432\u0435\u0120": 2688, "\u043c\u044b,\u0120": 2689, "\u043a\u043e\u0442\u043e\u0440\u044b\u043c\u0120": 2690, "\u0442\u0435\u043b\u044c\u043d\u044b\u043c\u0120": 2691, "\u043b\u0435\u043d\u0438\u0435\u0120": 2692, ".00\u0120": 2693, "\u0435\u043d\u044c\u0120": 2694, "\u0446\u0438\u0434\u0435\u043d": 2695, "\u043c\u0435\u043d\u044f\u0120": 2696, "\u043f\u0440\u0435\u0434\u0441\u0442\u0430": 2697, "\u043c\u0435\u0442\u0440\u043e\u0432\u0120": 2698, "\u0444\u0435\u0432\u0440\u0430\u043b\u044f\u0120": 2699, "\u0441\u043e\u0431\u043e": 2700, "\u0441\u043c\u043e\u0442\u0440\u044f\u0120": 2701, "\u041f\u0435\u0442\u0435\u0440\u0431\u0443\u0440\u0433\u0430.\u0120": 2702, "\u044f',\u0120": 2703, "\u041c\u0438\u0445\u0430\u0438\u043b\u0120": 2704, "\u0440\u0438\u043d": 2705, "\u0421\u043e\u0432\u0435": 2706, "-\u0439\u0120": 2707, "\u0434,\u0120": 2708, "\u0432\u0442\u043e\u0440": 2709, "\u043c\u0435\u0440\u0435\u0120": 2710, "\u043d\u043e\u043b\u043e\u0433\u0438": 2711, "\u043f\u0440\u043e\u0438\u0441\u0448\u0435\u0441\u0442\u0432\u0438": 2712, "\u044a\u0435\u0437": 2713, "\u043a\u0430'\u0120": 2714, "\u0432\u043e\u0437\u0433\u043b\u0430": 2715, "\u0438\u0434\u0435\u0442\u0120": 2716, "\u0441\u0447\u0435\u0442\u0120": 2717, "\u0435\u0440\u0120": 2718, "\u043e\u0431\u044a\u044f\u0432\u0438": 2719, "\u043f\u0440\u043e\u0432\u0435\u0434\u0435\u043d\u0438\u044f\u0120": 2720, "\u043d\u043e\u0432\u044b\u0439\u0120": 2721, "\u043f\u0440\u0438\u0433\u043e\u0432\u043e": 2722, "\u0443\u0441\u0442\u0430\u043d\u043e\u0432\u0438": 2723, "\u043e\u043f\u0443\u0431\u043b\u0438\u043a\u043e": 2724, "\u043a\u043e\u043b\u0438\u0447\u0435\u0441\u0442\u0432\u043e\u0120": 2725, "\u043e\u0446\u0435\u043d\u0438": 2726, "\u0441\u043e\u0441\u0442\u0430\u0432\u043b\u044f\u0435\u0442\u0120": 2727, "\u0440\u043e\u0441\u0441\u0438\u0439\u0441\u043a\u043e\u0433\u043e\u0120": 2728, "\u043d\u043e\u0439,\u0120": 2729, "'\u0413": 2730, "\u043e\u0431\u043d\u0430\u0440\u0443\u0436\u0438": 2731, "\u0430\u0434\u043c\u0438\u043d\u0438\u0441\u0442\u0440\u0430\u0446\u0438\u0438\u0120": 2732, "\u0420\u0424.\u0120": 2733, "\u043f\u0440\u0438\u0448": 2734, "\u043c',\u0120": 2735, "\u0441\u0442\u043e\u044f\u0442\u0435\u043b\u044c": 2736, "\u0436\u0435\u0440\u0442": 2737, "\u0430\u0440\u0445\u0438": 2738, "'\u0424": 2739, "\u0438\u043d\u0438\u0446\u0438\u0430": 2740, "\u041b\u044e": 2741, "\u043b\u0435\u0439\u0120": 2742, "\u043d\u043d\u044b\u0435\u0120": 2743, "\u0440\u0443\u0434\u043e": 2744, "\u0432\u043c\u0435\u0441\u0442\u0435\u0120": 2745, "\u043f\u0440\u043e\u043f\u0430": 2746, "\u0436\u0435\u043d\u0438\u0438\u0120": 2747, "\u043e\u0442\u043f\u0440\u0430\u0432\u0438": 2748, "\u0430\u043f": 2749, "\u043e\u0441\u0432\u043e\u0431\u043e": 2750, "\u0433\u0443\u0431\u0435\u0440\u043d\u0430\u0442\u043e\u0440\u0120": 2751, "\u043f\u043e\u0441\u0442\u0430": 2752, "\u0442\u043e\u0436\u0435\u0120": 2753, "\u0447\u0435\u043b\u043e\u0432\u0435\u043a\u0430\u0120": 2754, "\u043d\u043e\u0440\u043c\u0430": 2755, "\u0437\u0430\u0434\u0430": 2756, "\u0442\u0440\u0435\u0442\u044c": 2757, "\u043a\u043e\u043c\u0438\u0442\u0435\u0442\u0120": 2758, "\u043e\u0442\u043c\u0435\u0442\u0438\u043b,\u0120": 2759, "\u0431\u043e\u0440\u044c": 2760, "\u0441\u043e\u0431\u044b": 2761, "\u0447\u0435\u0439\u0120": 2762, "\u043e\u0445\u0440\u0430\u043d": 2763, "\u0437\u043e\u043d": 2764, "\u0448\u0435,\u0120": 2765, "\u043f\u0440\u043e\u0442\u0435": 2766, "\u0442\u0435\u0440\u0430": 2767, "\u0432\u0435\u0440\u0441\u0438\u0442\u0435": 2768, "\u043e\u0436\u0438\u0434\u0430": 2769, "\u043e\u0431\u043b\u0430\u0441\u0442\u0438,\u0120": 2770, "\u041f\u043e\u043b\u0438": 2771, "\u043e\u0442\u0441\u0443\u0442": 2772, "\u0432\u043e\u0437\u0432\u0440\u0430": 2773, "\u043f\u043e\u043b\u0443\u0447\u0438\u043b\u0438\u0120": 2774, "\u0447\u0435\u0441\u043a\u0438\u0435\u0120": 2775, "\u0441\u0442\u0440\u043e\u0438\u0442\u0435\u043b\u044c\u0441\u0442\u0432\u043e\u0120": 2776, "\u043a\u0430\u0441\u0430": 2777, "\u043e\u043f\u043b\u0430": 2778, "\u043d\u0438\u044e\u0120": 2779, "\u0432\u0435\u043b\u0120": 2780, "\u0410\u043b\u0435\u043a\u0441\u0430\u043d\u0434\u0440\u0430\u0120": 2781, "\u043d\u043e\u0447": 2782, "\u0433\u043e\u0440\u043e\u0434\u0441\u043a\u043e\u0439\u0120": 2783, "\u043d\u0430\u0434\u0435": 2784, "\u0437\u0443\u0120": 2785, "\u0440\u043e\u0441": 2786, "\u043f\u043e\u0434\u0433\u043e\u0442\u043e\u0432": 2787, "\u043d\u0435\u0442.\u0120": 2788, "\u0411\u0430\u043b": 2789, "\u0441\u0442\u0440\u043e\u0438\u0442\u0435\u043b\u044c\u0441\u0442\u0432\u0430\u0120": 2790, "\u0411\u044b": 2791, "\u0444\u0438\u0446\u0438": 2792, "\u0421\u0435\u0433\u043e\u0434\u043d\u044f\u0120": 2793, "2,": 2794, "\u0442\u0430\u043a\u0438\u0445\u0120": 2795, "23\u0120": 2796, "\u044c.\u0120": 2797, "\u0421\u0430\u043d\u043a\u0442-\u041f\u0435\u0442\u0435\u0440\u0431\u0443\u0440\u0433\u0430\u0120": 2798, "\u041c\u0438\u043d\u0438": 2799, "\u0412\u0430\u043b\u0435\u043d": 2800, "\u0421\u041c\u0418": 2801, "\u0432\u0435\u0440\u0438": 2802, "\u0441\u0443\u0120": 2803, "2007\u0120": 2804, "27\u0120": 2805, "\u043e\u043a\u0442\u044f": 2806, "\u0421\u041a\u0120": 2807, "\u0431\u0440\u044f.\u0120": 2808, "\u041e\u0442\u043c\u0435": 2809, "\u043f\u0435\u0442\u0435\u0440\u0431\u0443\u0440\u0433\u0441\u043a\u043e\u0433\u043e\u0120": 2810, "\u0437\u043b\u043e": 2811, "\u0441\u0440\u0435\u0434\u0441\u0442\u0432\u0120": 2812, "'\u0424\u043e\u043d\u0442\u0430\u043d\u043a\u0430.": 2813, "\u043c\u043e\u0448\u0435\u043d": 2814, "\u043a\u043e\u043d\u0444\u043b\u0438\u043a": 2815, "\u0438\u043d\u0444": 2816, "\u0445\u0430\u0440\u0430\u043a": 2817, "\u0441\u0442\u0430\u043b\u0430\u0120": 2818, "\u043d\u043e\u0432\u044b\u0445\u0120": 2819, "\u0441\u0444\u0435\u0440": 2820, "\u0432\u0435\u0434\u0435\u043d\u0438\u044f\u0120": 2821, "\u043f\u0443\u0441\u043a\u0430": 2822, "\u0434\u0430\u043d\u043d\u044b\u0435\u0120": 2823, "\u0413\u0435\u0440\u043c\u0430": 2824, "\u043f\u0435\u0447\u0430": 2825, "\u0432\u043d\u0443\u0442\u0440\u0435\u043d": 2826, "\u043f\u0440\u0430\u0432\u043e\u0120": 2827, "\u0432\u044b\u044f": 2828, "-\u043b\u0435\u0442\u043d\u0435\u0433\u043e\u0120": 2829, "\u0441\u0442\u043e\u044f\u043d": 2830, "\u0441\u0442\u0432\u0438\u0438\u0120": 2831, "\u0434\u0432\u0438\u0436\u0435\u043d\u0438\u044f\u0120": 2832, "\u043a\u043d\u0438": 2833, "\u0442\u043e\u0433\u0434\u0430\u0120": 2834, "\u043a\u043b\u0438\u0435\u043d": 2835, "\u0433\u043e\u0441\u043f\u0438": 2836, "\u043c\u0430,\u0120": 2837, "\u0434\u0440\u0443\u0433\u0438\u0435\u0120": 2838, "\u0412\u0435\u043b\u0438": 2839, "\u0430\u0442": 2840, "\u0432\u0435\u0434\u0435\u043d": 2841, "\u0440\u0435.\u0120": 2842, "\u0445\u043e\u0434\u044f\u0442\u0120": 2843, "\u041f\u0440\u0435\u0437\u0438\u0434\u0435\u043d": 2844, "\u0441\u0442\u0432\u043e,\u0120": 2845, "\u0435\u043d\u0438\u0438.\u0120": 2846, "\u0434\u044c\u0120": 2847, "\u043d\u0430\u0432\u043b\u0438": 2848, "\u0421\u0428\u0410": 2849, "\u044c\u0435\u0120": 2850, "\u043f\u0430\u043c\u044f\u0442": 2851, "\u043c\u0443\u0437\u0435": 2852, "\u0431\u0438\u0437\u043d\u0435": 2853, "\u0441\u043c\u0435": 2854, "\u043f\u0440\u043e\u0446\u0435\u043d\u0442\u043e\u0432": 2855, "\u0425\u043e": 2856, "\u0434\u0432\u0438\u0436\u0438": 2857, "\u043d\u0438\u043a\u043e\u0432,\u0120": 2858, "\u043d\u0430\u0431\u0435\u0440\u0435": 2859, "\u043d\u0430\u0439": 2860, "\u0447\u0435\u043d\u044b\u0120": 2861, "\u0422\u0438": 2862, "\u0449\u0438\u0435\u0120": 2863, "\u0440\u0435\u0448\u0430": 2864, "\u0431\u0430\u0440": 2865, "\u0414\u0443": 2866, "\u043d\u0430\u043f\u0430\u0434": 2867, "\u0432\u0430\u043d\u0438\u0439\u0120": 2868, "\u0434\u0438\u043d": 2869, "\u0421\u043e\u0433\u043b\u0430\u0441\u043d\u043e\u0120": 2870, "\u0441\u043a\u043e\u043d": 2871, "\u0442\u0440\u0435\u0431\u0443": 2872, "\u0434\u0435\u0440\u0436\u0438": 2873, "\u0417\u0430\u043f\u0430\u0434": 2874, "\u0412\u0430\u043b\u0435\u043d\u0442\u0438": 2875, "\u0441\u0438\u043b\u043e": 2876, "\u043f\u0440\u043e\u0436\u0438": 2877, "\u043f\u0440\u0435\u0434\u0441\u0442\u0430\u0432\u0438\u0442\u0435\u043b\u0438\u0120": 2878, "\u0437\u0430\u0441\u0442\u0440\u043e\u0439": 2879, "\u0445\u043e\u0434\u0430\u0120": 2880, "\u0441\u0432\u043e\u0435\u043c\u0120": 2881, "\u041e\u043b\u0435": 2882, "\u043f\u0440\u0430\u0432\u043e\u043e\u0445\u0440\u0430\u043d\u0438\u0442\u0435\u043b\u044c\u043d\u044b\u0445\u0120": 2883, "\u0432\u043e\u0442\u0120": 2884, "28\u0120": 2885, "\u041b\u0435\u043d\u0438\u043d\u0433\u0440\u0430\u0434\u0441\u043a\u043e\u0439\u0120": 2886, "\u0431\u0443\u0434\u0435": 2887, "it": 2888, "\u0447\u043d\u043e,\u0120": 2889, "\u0438\u0437\u0438": 2890, "\u0441\u043e\u043c\u0120": 2891, "\u043a\u0430\u043f\u0438\u0442\u0430": 2892, "'\u0423": 2893, "\u0434\u0438\u0440\u0435\u043a\u0442\u043e\u0440\u0430\u0120": 2894, "\u0432\u0430\u043b\u0438\u0441\u044c\u0120": 2895, "\u043f\u0440\u0435\u0434\u0441\u0442\u0430\u0432\u043b\u044f": 2896, "\u043b\u044b\u0445\u0120": 2897, "\u0448\u0443\u044e\u0120": 2898, "\u0437\u0430\u0441\u0435\u0434\u0430\u043d\u0438\u0438\u0120": 2899, "\u043f\u0435\u0440\u0435\u0433\u043e\u0432\u043e": 2900, "\u0430\u0442\u0430": 2901, "\u0433\u0440\u0430\u043d\u0438\u0446": 2902, "\u0442\u0435\u043b\u044c\u043d\u044b\u0439\u0120": 2903, "00": 2904, "\u0441\u043c\u043e\u0442\u0440\u0435\u043d": 2905, "\u0432\u044b\u0441\u0442\u0443\u043f\u0430": 2906, "\u043c\u0438\u0440\u0430": 2907, "\u043f\u0435\u0440\u0438\u043e\u0434\u0120": 2908, "26\u0120": 2909, "\u0447\u0435\u043d\u043a\u043e\u0120": 2910, "\u0432\u044b\u044f\u0441\u043d\u0438": 2911, "\u0433\u0430\u043c\u0120": 2912, "\u0430\u043a\u0446\u0438\u0438\u0120": 2913, "\u0441\u0442\u0435\u0120": 2914, "\u0448\u0435\u043c\u0120": 2915, "\u043b\u044e\u0434\u0435\u0439\u0120": 2916, "\u0427\u0438": 2917, "\u0441\u0442\u0430\u0432\u0438\u0442\u044c\u0120": 2918, "\u0422\u0443\u0440": 2919, "\u0441\u0443\u0449\u0435\u0441\u0442\u0432\u0443": 2920, "\u0420\u043e\u0441\u0441\u0438\u0439\u0441\u043a\u043e\u0439\u0120": 2921, "\u041c\u043e\u0441\u043a\u0432\u044b\u0120": 2922, "\u044f\u043a\u043e": 2923, "\u043b\u044c\u043d\u043e\u0435\u0120": 2924, "\u0434\u0443,\u0120": 2925, "'\u041a": 2926, "\u0444\u043e\u0440\u043c\u0438": 2927, "\u0435\u043d\u0438\u0439.\u0120": 2928, "\u0432\u0443\u0120": 2929, "'\u0424\u043e\u043d\u0442\u0430\u043d\u043a\u0435',\u0120": 2930, "\u0421\u0440\u0435\u0434": 2931, "\u043f\u0441\u0438": 2932, "\u0436\u0443\u0440\u043d\u0430\u043b\u0438\u0441\u0442\u0430": 2933, "\u041f\u043e\u043b": 2934, "'\u0413\u0430\u0437\u0435\u0442\u0430.Ru'\u0120": 2935, "\u0422\u0430\u043a,\u0120": 2936, "\u0447\u0442\u043e,\u0120": 2937, "\u0442\u043e\u0440\u0120": 2938, "\u0420\u0443\u0441": 2939, "\u0434\u0430\u043d\u043d\u044b\u0439\u0120": 2940, "\u0440\u0435\u0433\u0438\u0441\u0442\u0440\u0438": 2941, "\u043f\u0440\u043e\u0446\u0435\u0441": 2942, "\u0443\u0434\u0438": 2943, "\u043e\u043a\u043e\u043d\u0447\u0430": 2944, "\u0434\u0435\u0442\u0435\u0439\u0120": 2945, "\u0441\u0442\u0430\u0442\u044c\u0435\u0120": 2946, "\u0435\u043c,\u0120": 2947, "\u0431\u0440\u044f,\u0120": 2948, "\u0439'.\u0120": 2949, "\u0431\u0430\u043b": 2950, "\u0434\u0435\u043d\u0120": 2951, "\u043a\u043e\u0442\u043e\u0440\u0443\u044e\u0120": 2952, "\u0441\u0442\u0432\u0438\u0435\u0120": 2953, "\u0442\u0435\u043b\u044f\u043c\u0438\u0120": 2954, "\u043f\u0440\u043e\u0444\u0435\u0441\u0441\u0438": 2955, "\u0443\u0447\u0430\u0441\u0442\u043d\u0438\u043a\u043e\u0432\u0120": 2956, "\u0432\u043e\u0440\u043e": 2957, "\u041f\u0440\u0438\u043c\u043e\u0440": 2958, "\u0424\u0438\u043d": 2959, "\u0424\u043e\u043d\u0442\u0430\u043d": 2960, "\u043f\u043e\u0440\u044f\u0434\u043a\u0430\u0120": 2961, "\u0435\u043d\u044b\u0120": 2962, "\u0412\u0414\u0120": 2963, "\u0433\u0440\u0430\u0436\u0434\u0430\u043d\u0438": 2964, "\u0432\u0438\u043d\u043e\u0432": 2965, "...\u0120": 2966, "\u0432\u0435\u0434\u0443": 2967, "\u0440,\u0120": 2968, "\u043c\u0435\u0442\u0440\u043e\u0120": 2969, "\u043f\u043e\u043b\u0443\u0447\u0438\u0442\u044c\u0120": 2970, "\u043e\u0431\u043e\u0440\u0443\u0434\u043e": 2971, "\u043d\u044e": 2972, "\u0430\u0440\u0435\u0441\u0442\u043e": 2973, "\u0431\u0430\u043d\u043a\u0430\u0120": 2974, "\u043d\u0438\u0447\u0435\u0433\u043e\u0120": 2975, "\u043f\u043e\u043d\u0438\u043c\u0430": 2976, "le": 2977, "\u041c\u0430\u0440\u0438": 2978, "\u0437\u0430\u0434\u0435\u0440\u0436\u0430\u043d\u0120": 2979, "\u0438\u043d\u0430": 2980, "\u0440\u0430\u0437\u043b\u0438\u0447": 2981, "\u0434\u0438\u0442\u044c\u0120": 2982, "\u043e\u0442\u0434\u0435\u043b\u0430\u0120": 2983, "\u0438\u043d\u0432\u0435\u0441\u0442\u0438": 2984, "\u0441\u0440\u0430\u0432": 2985, "\u0427\u0442\u043e\u0120": 2986, "\u0432\u0430\u043c\u0120": 2987, "\u0441\u0442\u043e\u0438\u043c\u043e\u0441\u0442\u044c\u0120": 2988, "\u0447\u0435\u043d\u0120": 2989, "\u0449\u0443\u044e\u0120": 2990, "\u0421\u0442\u043e": 2991, "\u043f\u043e\u043b\u043d\u043e\u0441\u0442\u044c\u044e\u0120": 2992, "\u043f\u0440\u043e\u0447\u0435\u043c,\u0120": 2993, "\u0442\u0438\u0440\u0443": 2994, "\u0422\u0443": 2995, "\u043f\u043e\u0441\u0442\u0430\u043d\u043e": 2996, "\u0437\u0435\u0120": 2997, "\u043d\u0430\u0447": 2998, "\u0441\u0442\u0443\u0434\u0435\u043d": 2999, "\u043c\u0435\u0441\u0442\u0430\u0120": 3000, "\u0438\u043d\u0444\u043e\u0440\u043c\u0430\u0446\u0438\u044e\u0120": 3001, "\u0441\u043c\u043e\u0442\u0440\u0435": 3002, "\u0432\u043e\u0447": 3003, "\u0411\u0414": 3004, "'\u0417\u0435\u043d\u0438\u0442'\u0120": 3005, "\u043a\u043e\u043c\u043c\u0435\u0440": 3006, "\u043f\u0440\u043e\u0441\u043f\u0435\u043a\u0442\u0435\u0120": 3007, "\u0433\u043e\u0432\u0120": 3008, "\u0441\u043f\u0435\u0446": 3009, "\u0442\u0440\u0430\u0441": 3010, "\u0432\u0443\u0448": 3011, "\u0438\u043d\u0442\u0435\u0440\u043d\u0435": 3012, "\u0446\u0438\u044e,\u0120": 3013, "\u0427\u0430": 3014, "\u0412\u0430\u0441\u0438\u043b\u044c": 3015, "ter": 3016, "\u0441\u043a\u0440\u044b": 3017, "\u043f\u0440\u0438\u044f\u0442\u0438\u044f\u0120": 3018, "\u043d\u0438\u0446\u0438\u043f\u0430": 3019, "\u041f\u0435\u0442\u0435\u0440\u0431\u0443\u0440\u0433\u0443\u0120": 3020, "\u043c\u0443\u0436\u0447\u0438\u043d\u0430\u0120": 3021, "\u0445\u043e\u0442\u044f\u0120": 3022, "\u0442\u0435\u0445\u043d\u043e\u043b\u043e\u0433\u0438": 3023, "\u0442\u043e\u0432\u0430": 3024, "\u043b\u044e\u0434\u0438\u0120": 3025, "\u043d\u0430\u043f\u0440\u0430\u0432\u043b": 3026, "\u0415\u0432\u0433": 3027, "\u0442\u0443.\u0120": 3028, "\u043f\u043e\u043b\u043e\u0432\u0438": 3029, "\u0440\u043e\u0437\u044b": 3030, "\u0435\u043c\u043e\u0433\u043e\u0120": 3031, "\u043b\u044e\u0434\u0430": 3032, "\u0441\u043e\u043e\u0431\u0449\u0438\u043b\u0430\u0120": 3033, "\u0440\u0435\u043a\u043b\u0430": 3034, "\u043a\u0430\u0442\u0430": 3035, "\u0446\u0438\u044f": 3036, "\u0432\u043e\u0434\u0443\u0120": 3037, "\u0442\u0435\u0440\u0120": 3038, "\u0442\u0435\u043c": 3039, "\u0439|": 3040, "\u0447\u0438\u0441\u043b\u0435\u043d": 3041, "\u043b\u044e\u0431\u043e": 3042, "\u0440\u0430\u043c\u0438\u0120": 3043, "\u041f\u0120": 3044, "\u0414\u0422\u041f\u0120": 3045, "\u0418\u0120": 3046, "\u0421\u041c\u0418\u0120": 3047, "'\u041f\u043e": 3048, "\u043c\u0430.\u0120": 3049, "\u043d\u0438\u043b\u0120": 3050, "\u043f\u043e\u0442\u0435\u0440\u043f\u0435": 3051, "\u0449\u0435\u0439\u0120": 3052, "\u0437\u0430\u043a\u043e\u043d\u0120": 3053, "\u0412\u043b\u0430\u0434\u0438\u043c\u0438\u0440\u0430\u0120": 3054, "\u043f\u043e\u043d\u0435": 3055, "\u043f\u0440\u0435\u0442\u0435\u043d": 3056, "\u0441\u0446\u0435\u043d": 3057, "\u0440\u043e\u0432\u0430\u043d\u0438\u044f\u0120": 3058, "\u043a\u0430\u0434\u0435\u043c\u0438": 3059, "\u0440\u0435\u043b\u0438": 3060, "\u0441\u0435\u0431\u0435\u0120": 3061, "\u041e\u043d\u0430\u0120": 3062, "\u0431\u0438\u043b\u0435": 3063, "\u042f\u0120": 3064, "'\u042f\u0120": 3065, "\u0441\u0435\u043a": 3066, "\u0432\u043e\u0437\u0440\u0430": 3067, "\u0437\u0438\u0438\u0120": 3068, "\u0443\u0434\u043e\u0432": 3069, "\u0448\u0430\u0120": 3070, "\u0442\u0430\u043a\u0438\u0435\u0120": 3071, "\u0435\u043c\u044b\u0439\u0120": 3072, "\u0441\u0440\u043e\u043a\u0120": 3073, "\u0441\u0447\u0438\u0442\u0430\u0435\u0442\u0120": 3074, "\u0434\u0435\u043c\u043e\u043d": 3075, "\u041c\u043e\u0441\u043a\u0432\u044b": 3076, "25": 3077, "\u043f\u043e\u0441\u043b\u0435\u0434\u043d\u0438\u0435\u0120": 3078, "\u0441\u0432\u043e\u0435\u0120": 3079, "\u0442\u044b\u0445\u0120": 3080, "\u0436\u0438\u0442\u044c\u0120": 3081, "\u043d\u0443,\u0120": 3082, "\u043d\u043e\u0432\u044b\u0435\u0120": 3083, "\u043c\u0438\u0442\u0438\u043d": 3084, "\u0432\u0435\u0440\u0441\u0438\u0438\u0120": 3085, "\u043c\u043d\u0435\u0120": 3086, "ro": 3087, "\u0441\u043e\u0433\u043b\u0430\u0441\u043e": 3088, "\u0435\u043d\u0435": 3089, "\u0433\u043d\u0430": 3090, "\u0434\u043e\u0440\u043e\u0432": 3091, "\u043f\u043e\u043b\u0435": 3092, "\u043c\u0435\u0440\u044b\u0120": 3093, "\u0434\u0430\u0432\u043d\u043e\u0120": 3094, "11": 3095, "\u0442\u044b\u0441.\u0120": 3096, "\u0441\u043e\u0432\u0435\u0442\u0430\u0120": 3097, "\u0434\u0435\u044f\u0442\u0435\u043b\u044c\u043d\u043e\u0441\u0442\u0438\u0120": 3098, "\u043d\u0435\u0434\u0432\u0438\u0436\u0438": 3099, "\u043e\u0431\u043b\u0430\u0441\u0442\u0438.\u0120": 3100, "\u043d\u044b\u0445,\u0120": 3101, "\u0437\u0430\u0440": 3102, "\u0438\u043c\u0435\u0435\u0442\u0120": 3103, "\u0441\u0442\u0430\u0434\u0438": 3104, "200\u0120": 3105, "\u0438\u043c\u0435\u043d\u0438\u0120": 3106, "\u0432\u0430\u043d\u0438\u044f,\u0120": 3107, "\u0442\u0440\u0430\u0434\u0438": 3108, "\u043f\u043e\u0434\u043f\u0438": 3109, "\u043f\u043e\u0447\u0435": 3110, "'\u0412\u043e": 3111, "\u043f\u043e\u0441\u0442\u0430\u0432": 3112, "\u043a\u0430\u0436\u0434\u044b": 3113, "\u0444\u0438\u043d\u0430\u043d\u0441\u0438": 3114, "\u043b\u0430\u0439": 3115, "\u0441\u0430\u043c\u0438\u0120": 3116, "\u0437\u0438\u0440\u043e\u0432\u0430": 3117, "\u041f\u0440\u0435\u0437\u0438\u0434\u0435\u043d\u0442\u0120": 3118, "\u0432\u0430\u043a\u0443": 3119, "\u0441\u043b\u0435\u0434\u0441\u0442\u0432\u0435\u043d": 3120, "\u0426\u0435\u043d\u0442\u0440\u0430": 3121, "\u043a\u0443\u044e\u0120": 3122, "\u043a\u043e\u043b\u043b\u0435": 3123, "\u044d\u0442\u0430\u0120": 3124, "\u043f\u0430\u0440\u0442\u0430": 3125, "\u0437\u0430\u043c": 3126, "\u0431\u043e\u043b\u044c\u0448\u0438\u043d": 3127, "\u0447\u0438\u0442\u044b": 3128, "\u0411\u043e\u0440\u0438": 3129, "\u043f\u043e\u044d\u0442\u043e\u043c\u0443\u0120": 3130, "\u043c\u0443\u043d\u0438\u0446\u0438\u043f\u0430": 3131, "\u0440\u043e\u0441\u0442": 3132, "\u0433\u043e\u0434\u0443,\u0120": 3133, "\u043f\u0440\u0438\u043d": 3134, "\u043d\u0441\u043a\u043e\u0433\u043e\u0120": 3135, "\u043a\u043e\u0440\u0440\u0435\u0441\u043f\u043e\u043d\u0434\u0435\u043d\u0442\u0120": 3136, "\u0438\u0437\u044a\u044f": 3137, "\u0432\u0448\u0435\u0439\u0120": 3138, "\u043f\u0440\u043e\u0438\u0437\u0432\u043e\u0434\u0438": 3139, "\u0441\u043a\u043e\u043b\u044c\u043a\u0443\u0120": 3140, "\u0440\u0430\u0441\u0441\u043c\u043e\u0442\u0440": 3141, "\u0442\u044b\u0439\u0120": 3142, "\u0437\u043f\u0440\u043e": 3143, "2016\u0120": 3144, "\u043d\u0438\u0437": 3145, "\u0440\u0430\u0441\u0447\u0435": 3146, "\u043c\u0435\u043d\u0435": 3147, "\u0432\u043e\u043e\u0440\u0443": 3148, "\u0440\u0430\u043c\u0120": 3149, "24": 3150, "\u0433\u043e\u0440\u043e\u0434\u0120": 3151, "\u0442\u043e\u0440\u044b\u0120": 3152, "\u0442\u0435\u043f\u043b\u043e": 3153, "\u0440\u0435\u0430\u043b\u044c": 3154, "\u043a\u043e\u0440\u0430": 3155, "\u043d\u0430\u043a\u0430\u043d\u0443\u043d\u0435\u0120": 3156, "\u0434\u043d\u0438\u043c\u0120": 3157, "\u0442\u044c\u0441\u044f,\u0120": 3158, "\u0437\u0430\u0434\u0435\u0440\u0436\u0430\u043b\u0438\u0120": 3159, "\u0446\u0438\u044e.\u0120": 3160, "\u0443\u0431\u0435": 3161, "\u043e\u0440\u0438": 3162, "\u0441\u043e\u0432\u043c\u0435\u0441\u0442": 3163, "\u043f\u044b\u0442": 3164, "\u0438\u043d\u0446\u0438\u0434\u0435\u043d": 3165, "\u041f\u0435\u0442\u0435\u0440\u0431\u0443\u0440\u0433\u0430,\u0120": 3166, "\u043f\u0440\u0430\u0432\u0430\u0120": 3167, "\u043d\u0430\u0437\u0430\u0434\u0120": 3168, "\u0432\u044b\u0441\u0442\u0443\u043f\u0438": 3169, "\u0442\u0435\u043b\u0435\u0439.\u0120": 3170, "\u0431\u0430\u043d\u043a": 3171, "\u0418\u0437\u0120": 3172, "\u0444\u0438\u043a\u0430": 3173, "\u0436\u0438\u0437\u043d\u0438\u0120": 3174, "\u0421\u0435\u0432\u0435\u0440\u043e-": 3175, "\u044f\u0437\u044b": 3176, "\u043f\u0440\u043e\u043a\u0443\u0440\u043e": 3177, "\u0447\u0430\u044f\u0120": 3178, "\u0434\u0432\u043e\u0435\u0120": 3179, "\u043f\u0440\u0435\u0434\u0441\u0435\u0434\u0430\u0442\u0435\u043b\u044c\u0120": 3180, "\u043f\u043e-": 3181, "\u0441\u043a\u0430\u0437\u044b\u0432\u0430": 3182, "\u041b\u043e": 3183, "\u0446\u0435\u043d\u0442\u0440\u0430\u0120": 3184, "\u043f\u0430\u0434\u0430": 3185, "\u0434\u0435\u0442\u0441\u044f\u0120": 3186, "\u0443\u0437": 3187, "\u044f\u043a\u043e\u0431\u044b\u0120": 3188, "\u043b\u0435\u0442,\u0120": 3189, "\u043f\u043e\u0440\u0120": 3190, "e\u0120": 3191, "he\u0120": 3192, "\u043c\u043e\u043d\u043e": 3193, "\u0441\u0442\u0432\u0435\u043d\u043d\u043e\u0120": 3194, "\u043f\u043e\u043c\u043e\u0449\u0438\u0120": 3195, "\u0445\u0430\u0120": 3196, "\u0440\u0435\u0434\u0438": 3197, "\u0444\u0438\u0433\u0443": 3198, "\u0440\u0430\u0441\u0441\u043c\u0430\u0442\u0440\u0438": 3199, "\u0441\u0442\u0430\u043d\u0435\u0442\u0120": 3200, "\u043d\u0438\u043a\u0442\u043e\u0120": 3201, "\u0433\u043e\u0441\u043f\u0438\u0442\u0430\u043b\u0438": 3202, "\u0441\u043e\u0432.\u0120": 3203, "\u043f\u0440\u043e\u0435\u0437": 3204, "\u0441\u0442\u0430\u0442\u044c\u0120": 3205, "\u0441\u0434\u0435\u043b\u0430\u0442\u044c\u0120": 3206, "\u0441\u0442\u0435\u0439\u0120": 3207, "\u0442\u043e\u043a\u0120": 3208, "\u0447\u0435\u043d\u043e\u0120": 3209, "\u043e\u0440\u0433\u0430\u043d\u043e\u0432\u0120": 3210, "\u0443\u043d\u0438\u0432\u0435\u0440\u0441\u0438\u0442\u0435": 3211, "\u043d\u0430\u043f\u0440\u0438\u043c\u0435\u0440,\u0120": 3212, "\u043d\u0435\u0448": 3213, "'\u0424\u043e\u043d\u0442\u0430\u043d\u043a\u0430.\u0440\u0443'\u0120": 3214, "\u0434\u0438\u0120": 3215, "\u0433\u0438,\u0120": 3216, "\u0447\u0435\u0442\u044b\u0440\u0435\u0120": 3217, "\u0432\u0430\u043b\u044e": 3218, "3,": 3219, "\u043f\u043e\u043a\u0443\u043f\u0430": 3220, "\u0435\u0442.\u0120": 3221, "\u0441\u0435\u0442\u0438\u0120": 3222, "\u0441\u0442\u0440\u0430\u0445\u043e": 3223, "\u0441\u043e\u0432\u0435\u0442": 3224, "\u043f\u043e\u044f": 3225, "\u0430.\u0120": 3226, "\u0415\u0433\u043e\u0120": 3227, "\u0443\u043b\u0438\u0446\u0435": 3228, "29\u0120": 3229, "\u044d\u0444": 3230, "\u0440\u0435\u0433\u0438\u0441\u0442\u0440\u0430": 3231, "\u0432\u0438\u043d": 3232, "\u0448\u043e\u0441": 3233, "\u0434\u043e\u043b\u0436\u043d\u043e\u0120": 3234, "\u043d\u0430\u043c\u0435": 3235, "\u0432\u043b\u0438\u044f": 3236, "\u043f\u0440\u043e\u0432\u0435\u0441\u0442\u0438\u0120": 3237, "\u043f\u0440\u043e\u0439\u0434\u0435\u0442\u0120": 3238, "'\u0417\u0435\u043d\u0438\u0442\u0430'\u0120": 3239, "\u0412\u043e\u0120": 3240, "\u043c'.\u0120": 3241, "\u0441\u043e\u0432\u0440\u0435\u043c\u0435\u043d": 3242, "\u0432\u0430\u043d\u044b\u0120": 3243, "\u0446\u0438\u043e\u043d\u043d\u043e\u0439\u0120": 3244, "\u0436\u0438\u0442\u0435\u043b\u0435\u0439\u0120": 3245, "\u0445\u0435": 3246, "\u043f\u0440\u043e\u0448\u043b\u043e\u0433\u043e\u0120": 3247, "\u0432\u0430\u044e\u0442\u0441\u044f\u0120": 3248, "\u0433\u0443\u0431\u0435\u0440\u043d\u0430\u0442\u043e\u0440\u0430\u0120": 3249, "\u0441\u043e\u043a\u0120": 3250, "\u043d\u0435\u0441\u043a\u043e\u043b\u044c": 3251, "\u044c\u044f": 3252, "\u0424\u0435\u0434\u0435\u0440\u0430\u0446\u0438\u0438\u0120": 3253, "\u0441\u0438\u0120": 3254, "\u043e\u0431\u043d\u0430\u0440\u0443\u0436\u0435\u043d": 3255, "\u0440\u0430\u0437\u0432\u0438\u0442\u0438": 3256, "\u0435\u0436\u0435": 3257, "\u0434\u0432\u0438\u0436\u0435\u043d\u0438\u0435\u0120": 3258, "\u0433\u0430\u0437\u043e": 3259, "\u0432\u0430\u043b\u0441\u044f\u0120": 3260, "\u0441\u043e\u0432,\u0120": 3261, "\u0441\u0442\u043e\u0432": 3262, "\u0436\u0434\u0435\u043d\u0438\u0438\u0120": 3263, "\u0441\u0442\u0438\u0432\u0430": 3264, "\u0422\u0430\u043a\u0120": 3265, "\u043a\u043b\u0430\u0434": 3266, "\u043a\u0438\u043d\u043e": 3267, "\u043d\u043e\u0447\u044c\u0120": 3268, "\u043d\u0435\u043e\u0431\u0445\u043e\u0434\u0438\u043c\u043e\u0120": 3269, "\u0433\u0440\u0443\u0437\u043e": 3270, "\u0416\u0423": 3271, "\u0445\u043e\u0434\u0430": 3272, "\u0434\u0432\u043e\u0440": 3273, "\u0441\u043b\u0443\u0436\u0430": 3274, "\u0418\u0432\u0430": 3275, "\u0440\u0435\u0434\u0430": 3276, "\u043d\u0435\u043d\u0438\u044e\u0120": 3277, "\u043d\u043e\u0432\u043e\u0439\u0120": 3278, "\u043b\u0438\u043d": 3279, "\u0441\u043e\u0433\u043b\u0430\u0441\u0438": 3280, "\u0444\u0438\u043a\u0441\u0438": 3281, "\u0445\u043e\u0434\u0438\u0442\u044c\u0120": 3282, "\u0441\u043b\u0443\u0448\u0430": 3283, "\u0432\u0438\u0447\u0120": 3284, "\u043d\u0430\u0447\u0438\u043d\u0430": 3285, "\u0449\u0435\u0440": 3286, "\u0436\u0435\u043b\u0435\u0437": 3287, "\u0437\u0430\u043f\u0438": 3288, "\u0441\u043f\u043e\u0440\u0442": 3289, "\u0446\u0435\u0440": 3290, "\u0442\u0438\u043c,\u0120": 3291, "\u043f\u0430\u0440\u0442": 3292, "\u0430\u0440\u0435": 3293, "\u043d\u0430\u0448\u043b\u0438\u0120": 3294, "\u0433\u043e\u0441\u044f\u0120": 3295, "\u044d\u0432\u0430\u043a\u0443": 3296, "\u0432\u043e\u0434\u043e": 3297, "\u0440\u0430\u0431\u043e\u0442\u0120": 3298, "\u0432\u0438\u0437\u0438": 3299, "\u043f\u0440\u043e\u0433\u043d\u043e": 3300, "\u043a\u0443\u043f": 3301, "\u0440\u043e\u0441\u0441\u0438\u0439\u0441\u043a\u043e\u0439\u0120": 3302, "\u0440\u0435\u043d\u0120": 3303, "\u043c\u0441\u044f\u0120": 3304, "\u043e\u0434\u043d\u0430\u0120": 3305, "\u0437\u0435\u043d": 3306, "'\u041d\u043e\u0432\u043e": 3307, "\u0441\u0435\u043a\u0440\u0435\u0442\u0430\u0440": 3308, "\u0437\u0438\u043d": 3309, "\u0434\u043d\u0435\u0439\u0120": 3310, "\u043d\u0430\u0445\u043e\u0434\u044f\u0442\u0441\u044f\u0120": 3311, "\u0441\u0438\u0441\u0442\u0435\u043c\u044b\u0120": 3312, "\u0437\u0430\u0440\u0435\u0433\u0438\u0441\u0442\u0440\u0438": 3313, "at": 3314, "\u0421.\u0120": 3315, "\u043a\u0443\u043f\u0438": 3316, "\u0446\u0438\u044f,\u0120": 3317, "\u0432\u0442\u043e\u0440\u043e": 3318, "\u0433\u043e\u0432\u043e\u0440\u0438\u0442\u0120": 3319, "\u0442\u0438\u0439\u0120": 3320, "\u0410\u0416\u0423": 3321, "\u0431\u0443\u0120": 3322, "\u0438\u0437\u043e": 3323, "\u0442\u0435\u043b\u0435\u043a\u0430\u043d\u0430": 3324, "\u0441\u0434\u0430": 3325, "\u0413\u043b\u0430\u0432\u0430\u0120": 3326, "\u0442\u0435\u043b\u044c\u0441\u0442\u0432\u043e\u0120": 3327, "\u043d\u0430\u0434\u0437\u043e\u0440": 3328, "\u042d\u043a": 3329, "\u0441\u0443\u0434\u044c": 3330, "\u043d\u044b\u043c.\u0120": 3331, "\u043d\u0443\u0442\u044c\u0120": 3332, "\u0441\u0442\u043e\u0440\u043e\u043d": 3333, "\u043e\u0441\u0443\u0449\u0435\u0441\u0442\u0432\u043b\u044f": 3334, "\u0449\u0443": 3335, "\u0434\u043e\u043c\u0435\u0120": 3336, "\u0418\u0433\u043e\u0440\u044c\u0120": 3337, "\u0446\u0438\u043e\u043d\u043d\u043e\u0433\u043e\u0120": 3338, "\u041c\u0430\u043a\u0441\u0438": 3339, "\u0431\u043b\u0438\u0436\u0430\u0439\u0448\u0435\u0435\u0120": 3340, "\u0443\u0432\u0435\u0440\u0435\u043d": 3341, "\u0441'.\u0120": 3342, "\u0427\u0435\u0440": 3343, "500\u0120": 3344, "\u043d\u0438\u043a\u043e\u043c\u0120": 3345, "\u0433\u043e\u0440\u044f": 3346, "\u0441\u0443\u043c\u043c\u0443\u0120": 3347, "\u0437\u0434\u043e\u0440\u043e\u0432": 3348, "\u0441\u043e\u0433\u043b\u0430\u0441\u043d\u043e\u0120": 3349, "\u043f\u043e\u0442\u043e\u043c\u0120": 3350, "\u043b\u044c\u043d\u043e": 3351, "60\u0120": 3352, "\u043c\u044b.\u0120": 3353, "\u043f\u0440\u043e\u0444\u0435\u0441\u0441\u0438\u043e\u043d\u0430": 3354, "\u043c\u0438\u0433\u0440\u0430": 3355, "\u043f\u043e\u043a\u0438": 3356, "\u043f\u0440\u0430\u043a\u0442\u0438\u0447\u0435\u0441\u043a\u0438\u0120": 3357, "\u0441\u0442\u0432\u043e.\u0120": 3358, "\u043c\u043e\u0432\u0120": 3359, "\u0437\u0435\u0440": 3360, "\u043e\u043f\u0440\u0435\u0434\u0435\u043b\u0435\u043d": 3361, "\u0435\u043d\u0438\u044f\u043c\u0438\u0120": 3362, "\u0440\u0430\u0436": 3363, "\u0442\u0435\u043b\u0435\u0444\u043e\u043d": 3364, "\u0437\u0434\u0435\u0441\u044c\u0120": 3365, "\u043f\u043e\u0441\u043b\u0435\u0434\u0441\u0442\u0432\u0438": 3366, "\u0433\u0440\u043e\u043c": 3367, "\u043e\u0441\u0442\u0430\u043d\u043e\u0432\u0438": 3368, "al": 3369, "\u043a\u0430\u043a\u0438": 3370, "\u0441\u0440\u0435\u0434\u0441\u0442\u0432\u0430\u0120": 3371, "\u0437\u0430\u0442\u0435\u043c\u0120": 3372, "\u043c|": 3373, "\u043d\u043e\u043a\u0120": 3374, "\u043f\u0440\u043e\u0432\u0435\u0434\u0435\u043d": 3375, "\u044f\u0442": 3376, "\u043f\u0440\u043e\u0441\u044c": 3377, "\u0440\u0443,\u0120": 3378, "\u043f\u0440\u043e\u0432\u0435\u0440\u043a\u0438\u0120": 3379, "\u0428\u0430": 3380, "\u0441\u043e\u0432\u0435\u0440\u0448\u0438": 3381, "\u0441\u0438\u043b\u0120": 3382, "\u0435'\u0120": 3383, "\u043f\u044f\u0442\u043d\u0438\u0446": 3384, "\u043c\u0430\u0442\u0438\u0447\u0435": 3385, "\u043e\u0431\u044a\u044f\u0441\u043d\u0438": 3386, "\u043e\u0431\u0440\u0430\u0437\u043e\u043c,\u0120": 3387, "\u0434\u0432\u0438\u0436": 3388, "\u0437\u0430\u044f\u0432\u043b\u044f": 3389, "\u043a\u0443\u043b\u044c\u0442\u0443\u0440": 3390, "\u0441\u0435\u0433\u043e\u0434\u043d\u044f\u0448": 3391, "\u0440\u0443\u0434\u043d\u0438": 3392, "\u0434\u0435\u043b\u043e": 3393, "\u0443\u043b.\u0120": 3394, "\u043f\u043e\u0437\u0432\u043e\u043b\u044f": 3395, "\u043e\u0431\u0441\u0442\u043e\u044f\u0442\u0435\u043b\u044c": 3396, "\u0438\u043d\u0444\u043e\u0440\u043c\u0430\u0446\u0438\u0438,\u0120": 3397, "\u0441\u0442\u0430,\u0120": 3398, "\u043f\u043e\u0441\u0442\u043e\u044f\u043d": 3399, "\u043f\u0440\u0438\u043d\u044f\u0442\u043e\u0120": 3400, "\u043f\u043e\u043f\u0440\u043e\u0441\u0438": 3401, "\u0436\u0430\u043b\u043e\u0431": 3402, "\u0415\u0449\u0435\u0120": 3403, "\u043f\u043e\u0442\u043e\u043c\u0443\u0120": 3404, "\u0437\u0430\u0432\u0435\u0440\u0448\u0438": 3405, "\u044d\u043a\u0441\u043f\u0435\u0440\u0442\u0438": 3406, "co": 3407, "\u0433\u043e\u0434\u043e": 3408, "\u0437\u0430\u044f\u0432\u043b\u0435\u043d\u0438\u0435\u0120": 3409, "\u043f\u0440\u0438\u0431\u044b": 3410, "\u0447\u0443\u0432": 3411, "\u0440\u0435\u043a\u043e\u043d\u0441\u0442\u0440\u0443\u043a": 3412, "\u0421\u043e\u0442": 3413, "\u0441\u0442\u0432\u043e\u0432\u0430\u0442\u044c\u0120": 3414, "\u044f\u0441\u044c\u0120": 3415, "\u043a\u0440\u0430\u0441": 3416, "\u0446\u0438\u043e\u043d\u043d\u044b\u0445\u0120": 3417, "\u043a\u0443\u0434\u0430\u0120": 3418, "\u0412\u043f\u0440\u043e\u0447\u0435\u043c,\u0120": 3419, "\u0432\u0441\u0435\u0433\u0434\u0430\u0120": 3420, "\u0432\u044b\u043c\u0438\u0120": 3421, "\u0430\u043a\u0442\u0438\u0432\u0438": 3422, "\u043d\u0435\u0442\u0441\u044f\u0120": 3423, "\u0446\u0438\u0435": 3424, "\u0445\u0443": 3425, "\u0438\u0442\u043e\u0433\u0430\u043c\u0120": 3426, "\u0441\u0442\u043e\u0432,\u0120": 3427, "\u043b\u043e\u043d": 3428, "\u0432\u0430\u043d\u0438\u044f.\u0120": 3429, "oo": 3430, "31\u0120": 3431, "\u044e\u0440\u0438\u0434\u0438": 3432, "\u0434\u0440\u043e": 3433, "\u0442\u044c\u0441\u044f.\u0120": 3434, "\u0441\u0435\u0440\u0432\u0438": 3435, "\u043d\u0430\u043f\u0440\u0430\u0432\u0438": 3436, "\u0438\u0437\u043c\u0435\u043d\u0438": 3437, "\u041c\u0418": 3438, "\u043b\u043a\u043e\u0433\u043e": 3439, "\u043a\u0443\u0441": 3440, "\u0441\u0443\u0431\u0431\u043e": 3441, "\u0445\u0443\u0434\u043e": 3442, "\u0440\u043e\u0432\u0430\u043b\u0120": 3443, "\u0432\u0441\u043a\u043e": 3444, "\u0442\u044e": 3445, "\u043e\u0447\u0435\u0432\u0438\u0434": 3446, "\u0440\u0443\u0431\u0435": 3447, "\u043a\u043e\u043d\u0444\u0435\u0440\u0435\u043d": 3448, "\u043f\u043e\u0434\u0434\u0435\u0440\u0436\u0430": 3449, "'\u0420": 3450, "\u0434\u0435\u043b\u0435\u0120": 3451, "\u0413\u0418\u0411\u0414": 3452, "\u0433\u043e\u0440\u043e\u0434\u0430.\u0120": 3453, "\u0443\u0447\u0430\u0441\u0442\u0432\u043e": 3454, "\u043d\u043e\u0439.\u0120": 3455, "\u043d\u043d\u044b\u0439\u0120": 3456, "\u041c\u0435\u0434\u0432\u0435\u0434\u0435\u0432\u0120": 3457, "'\u0413\u0430\u0437\u043f\u0440\u043e": 3458, "\u0417\u0430\u043a\u0421": 3459, "\u0431\u0430\u043d\u043a\u0120": 3460, "\u0442'.\u0120": 3461, "\u043e\u0433": 3462, "\u043f\u043e\u0432\u0440\u0435": 3463, "\u044f'.\u0120": 3464, "\u0443\u043b": 3465, "\u043f\u0440\u0435\u0434\u0443\u0441\u043c\u043e\u0442\u0440\u0435\u043d": 3466, "\u0441\u043a\u043e\u043d\u0447\u0430": 3467, "\u0441\u0441\u0430\u0120": 3468, "\u043b\u0438\u0449": 3469, "\u043f\u043e\u0436\u0430\u0440": 3470, "\u0410\u0434": 3471, "\u0436\u0438\u0442\u0120": 3472, "\u043a\u043e\u043b\u043b\u0435\u043a": 3473, "\u0441\u043e\u043e\u0442\u0432\u0435\u0442\u0441\u0442\u0432\u0438\u0438\u0120": 3474, "\u0440\u0435\u043c": 3475, "\u043f\u043e\u043d\u0435\u0434\u0435\u043b\u044c": 3476, "\u0432\u0435\u0447\u0435\u0440\u043e\u043c\u0120": 3477, "\u043a\u0442\u0438": 3478, "\u0445\u043e\u0120": 3479, "\u0432\u043e\u0434\u044b\u0120": 3480, "23": 3481, "\u0445\u043e\u0437\u044f\u0439": 3482, "\u0447\u0435\u0442\u0120": 3483, "\u043d\u0438\u043a\u0430\u043c\u0120": 3484, "\u043f\u0440\u0438\u043c\u0435": 3485, "\u0438\u0441\u0441\u043b\u0435\u0434\u043e": 3486, "\u044d\u043a\u0441-": 3487, "\u0442:\u0120": 3488, "u\u0120": 3489, ".ru\u0120": 3490, "\u043e\u0434\u043d\u043e\u043c\u0120": 3491, "\u0434\u043e\u043a\u0430\u0437\u0430": 3492, "(\u0432\u0120": 3493, "\u043f\u0440\u0438\u043c\u0435\u0440\u043d\u043e\u0120": 3494, "\u043c\u0438\u0440\u0430\u0120": 3495, "\u0443\u043f\u0440\u0430\u0432\u043b\u044f": 3496, "\u0441\u0435\u043c": 3497, "\u0446\u0435\u0432,\u0120": 3498, "\u043f\u043e\u0437\u0432\u043e\u043b\u0438": 3499, "\u0434\u0440\u0443\u0433\u043e\u0439\u0120": 3500, "\u0441\u043a\u0438\u0439,\u0120": 3501, "\u0444\u0438\u0437\u0438": 3502, "\u043a\u043e\u0440\u043f\u0443": 3503, "\u0434\u0432\u0438\u0433\u0430": 3504, "\u043b\u0438\u043c\u043f\u0438\u0439": 3505, "\u043c\u0438\u043c\u043e\u0120": 3506, "\u041b\u0435\u043d\u0442\u0430.\u0440\u0443\u0120": 3507, "\u043e\u0440\u0433\u0430\u043d\u044b\u0120": 3508, "\u043d\u0430\u043b\u043e\u0433\u0438": 3509, "'\u041c\u0435": 3510, "\u0420\u0424,\u0120": 3511, "\u0441\u043e\u0445\u0440\u0430": 3512, "\u043c\u043e\u043b\u043e\u0434\u044b": 3513, "\u043c\u0438\u043d\u0438\u0441\u0442\u0440\u0430\u0120": 3514, "\u043c\u0443.\u0120": 3515, "\u0432\u044b\u0434\u0435": 3516, "\u0441\u043e\u043e\u0431\u0449\u0438\u043b,\u0120": 3517, "\u043e.\u0120": 3518, "\u0422\u0430\u043a\u0438\u043c\u0120": 3519, "\u0432\u0438\u0434\u0435\u0120": 3520, "\u0441\u0442\u044c\u044e\u0120": 3521, "\u043f\u043b\u0430\u043d\u0438\u0440\u0443\u0435\u0442\u0441\u044f\u0120": 3522, "\u043d\u0438\u043a,\u0120": 3523, "\u0441\u0442\u0430\u0432\u0438\u043b\u0438\u0120": 3524, "\u0442\u043e\u043c\u0443\u0120": 3525, "\u043b\u0441\u044f.\u0120": 3526, "\u043a\u043e\u043c\u0438\u0441\u0441\u0438\u0438\u0120": 3527, "\u0442\u043e\u0440\u043e\u0432\u0120": 3528, "\u0430\u043d\u0430\u043b\u0438": 3529, "\u0441\u0442\u0430\u0442\u044c\u0438\u0120": 3530, "\u0430\u043b\u043a\u043e\u0433\u043e": 3531, "\u0441\u043b\u0435\u0434\u0441\u0442\u0432\u0438\u044f,\u0120": 3532, "\u0434\u0435,\u0120": 3533, "\u0441\u0435\u0434\u043d\u0438": 3534, "\u0443\u0442\u0440\u043e\u043c\u0120": 3535, "\u0431\u0438\u043d": 3536, "\u0441\u043c\u043e\u0433\u0443\u0442\u0120": 3537, "\u0432\u043d\u043e\u0432": 3538, "\u0434\u0436": 3539, "\u0447\u0435\u043d\u043d\u044b\u0445\u0120": 3540, "\u043f\u0430\u043b\u0430": 3541, "\u0432\u044b\u0435\u0437": 3542, "\u0433\u0443,\u0120": 3543, "\u043d\u043e\u0435,\u0120": 3544, "\u043f\u043e\u043b\u044c\u0437\u043e\u0432\u0430": 3545, "\u043f\u0440\u0435\u0434\u0441\u0435\u0434\u0430\u0442\u0435\u043b\u044f\u0120": 3546, "\u0441\u0442\u0440\u043e\u0438\u0442\u044c\u0120": 3547, "\u041a\u043e\u043c\u0438": 3548, "\u0432\u0447\u0435": 3549, "\u0440\u0430\u043a\u0435": 3550, "'\u0421\u043e": 3551, "\u043a\u043e\u0440\u043e": 3552, "\u0421,\u0120": 3553, "\u043d\u0430\u0440\u043e": 3554, "\u0424\u0438": 3555, "\u0435\u0432,\u0120": 3556, "\u043e\u0440\u0433\u0438": 3557, "\u043b\u0435\u0442\u0435": 3558, "\u0411\u0435\u043b\u043e": 3559, "\u044d\u0444\u0444\u0435\u043a": 3560, "\u0445'\u0120": 3561, "\u041e\u0440": 3562, "\u0434\u0438\u043d\u0120": 3563, "\u0448\u0443": 3564, "\u0441\u0443\u0440": 3565, "\u0441\u043d\u0438\u0437\u0438": 3566, "\u0444\u0435\u0441\u0442\u0438\u0432\u0430": 3567, "\u043d\u0438\u0446\u0430\u0120": 3568, "\u0431\u043e\u043b\u044c\u0448\u043e\u0439\u0120": 3569, "\u043a\u043e\u0432\u0430,\u0120": 3570, "\u0435\u0432\u0440\u043e\u043f\u0435\u0439": 3571, "\u0443\u0434\u043e\u0432\u043b\u0435\u0442": 3572, "\u0448\u043b\u0430\u0120": 3573, "\u041a\u0430\u0440": 3574, "\u043d\u0438\u043a\u043e\u0432.\u0120": 3575, "\u0441\u043b\u0430\u0432\u0120": 3576, "\u043f\u043e\u0441\u043a\u043e\u043b\u044c\u043a\u0443\u0120": 3577, "\u0436\u0438\u0432\u043e": 3578, "\u0412\u044b\u0431\u043e\u0440": 3579, "\u0431\u043b\u0438\u0437": 3580, "\u0443\u0447\u0440\u0435\u0436\u0434": 3581, "\u0421\u043e\u0442\u0440\u0443\u0434\u043d\u0438": 3582, "'\u041b\u0435\u043d": 3583, "\u043a\u043e\u043d\u0446\u0430\u0120": 3584, "\u0433\u043e\u0442\u043e\u0432\u0438": 3585, "\u0437\u0432\u043e": 3586, "\u043d\u0434\u0430": 3587, "\u043f\u043e\u043b\u043d\u043e\u043c\u043e\u0447\u0438": 3588, "\u044f\u0442\u0441\u044f\u0120": 3589, "\u0432\u0430\u043b\u043e\u0120": 3590, "\u043d\u0438\u043a\u0430\u043c\u0438\u0120": 3591, "\u041a\u043e\u0433\u0434\u0430\u0120": 3592, "\u0436\u0443\u0120": 3593, "\u043f\u0440\u043e\u0441\u0120": 3594, "\u0432\u043e\u043b": 3595, "\u0441\u0432\u043e\u0438\u043c\u0120": 3596, "\u043f\u043e\u043c\u0435\u0449": 3597, "\u0435\u0440\u0430\u0120": 3598, "\u043f\u0440\u0435\u0434\u043e\u0441\u0442\u0430": 3599, "\u043e\u0442\u0434\u0435\u043b\u044c": 3600, "\u043f\u0440\u043e\u0448\u043b\u043e\u043c\u0120": 3601, "\u0437\u0430\u0440\u043f\u043b\u0430": 3602, "\u0441\u043f\u0443": 3603, "\u0440\u0443\u043a\u043e\u0432\u043e\u0434\u0438\u0442\u0435\u043b\u044c\u0120": 3604, "\u043c\u044b\u0441": 3605, "\u0436\u043d\u043e\u0433\u043e\u0120": 3606, "\u0421\u0435\u0432\u0435\u0440\u043d\u043e\u0439\u0120": 3607, "\u0441\u0438\u0442\u0443\u0430\u0446\u0438\u0438\u0120": 3608, "\u0432\u043e\u043a\u0120": 3609, "\u0436\u043d\u044b\u0439\u0120": 3610, "\u044e\u0449\u0435\u0435\u0120": 3611, "\u0441\u0442\u043e\u043a\u0120": 3612, "\u041a\u0430\u043b\u0438\u043d\u0438": 3613, "\u0440\u0438\u0442\u044c\u0120": 3614, "\u0433\u043e\u0440\u043e\u0434\u0441\u043a\u043e\u0433\u043e\u0120": 3615, "\u043c\u0435\u0439": 3616, "\u0420\u0430\u0437": 3617, "\u042f": 3618, "'\u042f": 3619, "\u0441\u0440\u0435": 3620, "\u0436\u0435\u0439\u0120": 3621, "28": 3622, "\u043f\u0440\u0435\u0434\u043c\u0435": 3623, "\u043c\u043d\u043e\u0433\u0438\u0435\u0120": 3624, "\u043e\u0431\u0441\u043b\u0443\u0436\u0438": 3625, "'\u0415\u0434\u0438": 3626, "\u043f\u0435\u0440\u0435\u0432\u043e\u0437": 3627, "\u043f\u044b\u0120": 3628, "\u043f\u0435\u0440\u0432\u043e\u0433\u043e\u0120": 3629, "\u0434\u043d\u044f": 3630, "\u043a\u0430\u0437\u0120": 3631, "\u0440\u0430\u0431\u043e\u0447\u0438": 3632, "2006\u0120": 3633, "\u041a\u0430\u0437\u0430": 3634, "\u0441\u0442\u0432,\u0120": 3635, "\u043c\u043e\u043c\u0120": 3636, "\u043d\u0430\u0431\u043b\u044e\u0434\u0430": 3637, "\u0432\u043d\u043e\u0432\u044c\u0120": 3638, "\u041a\u043e\u043d\u0441\u0442\u0430\u043d": 3639, "\u043e\u0431\u043d\u043e": 3640, "\u0434\u0435.\u0120": 3641, "\u0433\u0430,\u0120": 3642, "\u0442\u043d\u0430\u044f\u0120": 3643, "\u043d\u0430\u043a\u043e,\u0120": 3644, "\u0447\u0435\u0442\u044b\u0440\u0435": 3645, "\u043b\u044e\u0431\u0438": 3646, "\u043b\u044c\u0437\u0443": 3647, "\u043a\u0430\u043c": 3648, "\u0411\u043e\u043b\u044c\u0448\u043e": 3649, "\u0442\u0430\u0432": 3650, "\u043d\u0430\u043b\u043e\u0433\u043e": 3651, "\u0438\u0441\u043a\u0443\u0441": 3652, "\u043a\u043e\u043c\u0435\u043d": 3653, "\u043f\u043e\u0433\u0438\u0431\u043b\u0438\u0120": 3654, "\u0421\u0435\u0440\u0433\u0435\u044f\u0120": 3655, "\u043a\u043e\u043c\u043f\u0435\u043d": 3656, "\u0437\u0430\u043a\u043e\u043d\u0430\u0120": 3657, "\u0431\u0435\u0436\u0430": 3658, "\u043f\u0440\u0435\u0434\u0443\u043f\u0440\u0435": 3659, "\u0440\u0430\u0431\u043e\u0442\u0430\u0435\u0442\u0120": 3660, "\u043f\u0440\u0435\u043c\u044c\u0435\u0440-": 3661, "\u0441\u0431\u043e\u0440\u043d\u043e\u0439\u0120": 3662, "\u041e\u0442\u043c\u0435\u0442\u0438\u043c,\u0120": 3663, "\u0413\u0435\u043e\u0440\u0433\u0438": 3664, "\u0433\u043e\u0440\u0438": 3665, "\u0442\u0435\u043a\u0443": 3666, "\u0430\u0440\u0442\u0438": 3667, "\u043d\u043e\u0432\u0430": 3668, "\u0443\u0440\u043e": 3669, "\u0443\u0437\u043d\u0430": 3670, "\u043c\u0438\u043b\u043b\u0438\u0430\u0440\u0434\u0430\u0120": 3671, "\u043c\u044b\u0435\u0120": 3672, "\u0438\u043c\u0438\u0120": 3673, "\u043f\u0440\u043e\u0432\u043e\u0434": 3674, "\u0440\u0430\u0441\u043f\u0440\u043e\u0441\u0442\u0440\u0430": 3675, "\u043f\u0440\u043e\u0433\u0440\u0430\u043c\u043c\u044b\u0120": 3676, "\u043f\u0440\u0438\u0437": 3677, "\u0439\u0442\u0435\u0120": 3678, "\u043c\u0438\u043b\u0438\u0446\u0438\u0438\u0120": 3679, "\u0441\u0442\u0432\u0435\u043d\u043d\u044b\u0445\u0120": 3680, "\u0434\u043e\u043a\u0120": 3681, "\u043f\u043e\u043f\u0443": 3682, "\u043d\u0438\u044f,\u0120": 3683, "\u043d\u0430\u0440\u043a\u043e\u0442\u0438": 3684, "\u0441\u043f\u043e\u0440\u0442\u0438\u0432": 3685, "\u0432\u044b\u043f\u0443": 3686, "\u0435\u043c\u044b\u0435\u0120": 3687, "\u0434\u0438,\u0120": 3688, "\u044f\u0432\u043b\u044f\u044e\u0442\u0441\u044f\u0120": 3689, "\u0411\u0438": 3690, "\u043d\u044b\u0435,\u0120": 3691, "\u043f\u0440\u0438\u043d\u0430\u0434\u043b\u0435\u0436\u0430": 3692, "\u043e\u0442\u043d\u043e\u0441\u0438": 3693, "is": 3694, "\u0446\u0435\u043d\u0442\u0440\u0120": 3695, "\u0446\u0438\u0439,\u0120": 3696, "\u043b\u0441\u044f,\u0120": 3697, "\u043b\u043b\u0430": 3698, "\u043f\u0440\u0438\u0441\u0443\u0442": 3699, "\u043f\u043e\u0434\u0440\u0430\u0437": 3700, "\u043c\u0430\u0441": 3701, "\u0434\u0430\u043d\u043d\u044b\u0445\u0120": 3702, "\u043f\u0440\u043e\u043c\u044b\u0448\u043b\u0435\u043d": 3703, "\u0443\u043c\u044b\u0448\u043b\u0435\u043d": 3704, "\u0434\u0435\u0432\u0443\u0448": 3705, "\u043f\u043e\u0431\u0435\u0434\u0438": 3706, "\u043c\u0435.\u0120": 3707, "\u0434\u043e\u0441\u0442\u0430\u0442\u043e\u0447\u043d\u043e\u0120": 3708, "\u0413\u043e\u0440": 3709, "\u043f\u043b\u0443": 3710, "\u043d\u0430\u0443": 3711, "\u0440\u0435\u0446": 3712, "\u043f\u0440\u0438\u043d\u044f\u0442\u044c\u0120": 3713, "\u043a\u043e\u043c\u043d\u0430": 3714, "\u0432\u044b\u0448\u0435\u0120": 3715, "\u043c\u044b\u0445\u0120": 3716, "\u041a\u043e\u043d\u0441\u0442\u0430\u043d\u0442\u0438": 3717, "\u0430\u043f\u043f\u0430\u0440\u0430": 3718, "\u0432\u043e\u0441\u043a\u0440\u0435": 3719, "\u0432\u0441\u0435\u0433\u043e,\u0120": 3720, "\u0432\u0448\u0438\u043c\u0120": 3721, "\u044f\u0447\u0435": 3722, "\u0446\u0438\u0430": 3723, "\u043c\u043e\u0448\u0435\u043d\u043d\u0438\u0447\u0435": 3724, "\u044e\u0449\u0430\u044f\u0120": 3725, "\u0432\u044b\u0445\u043e\u0434": 3726, "\u0442\u0432\u043e\u0440": 3727, "\u0442\u0430\u043a\u0438\u043c\u0120": 3728, "\u0434\u0438\u044f\u0120": 3729, "\u043b\u044f\u043d": 3730, "\u0438\u043d\u0441\u0442\u0438\u0442\u0443": 3731, "\u043f\u043e\u0442\u0440\u0435\u0431\u0438": 3732, "\u0441\u0443\u0430\u043b\u044c": 3733, "\u0446\u0438\u043e\u043d\u043d\u044b\u0439\u0120": 3734, "\u043f\u043e\u043c\u043e\u0449\u044c\u044e\u0120": 3735, "\u0440\u0435\u0435\u0120": 3736, "\u0435\u0432.\u0120": 3737, "\u0443\u0449\u0435\u0440": 3738, "\u043a\u043e\u043c\u0443\u0120": 3739, "\u043a\u0430\u0442\u0435": 3740, "\u041f\u0435\u0440\u0435": 3741, "\u0444\u0438\u043d": 3742, "\u0432\u0440\u0435\u043c\u0435\u043d\u043d\u043e\u0120": 3743, "\u0441\u0442\u044c,\u0120": 3744, "\u043a\u043e\u043d\u0441\u0443": 3745, "\u0433\u043b\u0443": 3746, "\u0441\u0431\u043e": 3747, "\u0440\u043e\u0432\u0430\u043d\u0438\u0435\u0120": 3748, "\u043f\u0440\u0443": 3749, "\u0441\u0442\u0430.\u0120": 3750, "\u0443\u0441\u0442\u0430\u043d\u0430\u0432\u043b\u0438": 3751, "\u043c\u0435,\u0120": 3752, "\u0440\u044f\u0434\u043e\u043c\u0120": 3753, "\u043c\u0430\u043d\u0120": 3754, "\u041f\u043e\u043b\u0442\u0430\u0432": 3755, "\u0434\u0430\u043b\u044c\u043d\u0435\u0439": 3756, "\u043a\u0432\u0430\u0434\u0440\u0430": 3757, "\u0438\u0441\u043a\u0430": 3758, "\u0432\u044b\u043d\u0435": 3759, "300\u0120": 3760, "il": 3761, "29": 3762, "\u043d\u0438\u043a\u0430\u043a\u0438\u0445\u0120": 3763, "\u0413\u0440\u0443": 3764, "\u0431\u043e\u0439": 3765, "\u0434\u043e\u0431\u0440\u043e": 3766, "\u0443\u043b\u0438\u0446\u044b\u0120": 3767, "\u043f\u0440\u0430\u0432\u0435\u0434": 3768, "\u0441\u043e\u0441\u0442\u0430\u0432\u0120": 3769, "\u0441\u0438\u0445\u0120": 3770, "\u0432\u0441\u0435\u0439\u0120": 3771, "|\u041d\u0430\u0120": 3772, "\u043a\u0430.": 3773, "\u043e\u0431\u0441\u0443\u0436\u0434\u0430": 3774, "\u0432\u043e\u0437\u043d\u0438\u043a": 3775, "\u0441\u0430\u043c\u044b\u0445\u0120": 3776, "\u0440\u0430\u0437\u043c\u0435\u0440\u0435\u0120": 3777, "\u043f\u043e\u0441\u0435\u043b": 3778, "\u0441\u0442\u0440\u043e\u0435\u043d": 3779, "\u0441\u043b\u0435\u0434\u0443\u0435\u0442\u0120": 3780, "\u043f\u0435\u0440\u0432\u043e\u043c\u0120": 3781, "\u043a\u043e\u0441": 3782, "\u0433\u043b\u0438": 3783, "\u0433\u0440\u0443\u043f\u043f\u0430\u0120": 3784, "\u0447\u0438\u0441\u043b\u043e\u0120": 3785, "\u0441\u043e\u0431\u0435": 3786, "\u041c\u0438\u043d\u0438\u0441\u0442\u0435\u0440": 3787, "\u0438\u0437\u0431\u0438": 3788, "\u0438\u043d\u0442\u0435\u0440\u0432": 3789, "\u0441\u043e\u0441\u0442\u043e\u0438": 3790, "\u0444\u043b\u043e": 3791, "\u0440\u0430\u0431\u0430": 3792, "\u0441\u0435\u043c\u044c\u0120": 3793, "\u043f\u043e\u0440\u0443": 3794, "\u0445\u043e\u043b\u043e": 3795, "\u0432\u0441\u043a\u043e\u0433\u043e\u0120": 3796, "\u0446\u0432\u0435": 3797, "\u0437\u0434\u0430\u043d\u0438\u0438\u0120": 3798, "\u0431\u0438\u0442\u0440\u0430": 3799, "\u043b\u044b\u0439\u0120": 3800, "\u0437\u0430\u043c\u0435\u0441\u0442\u0438\u0442\u0435\u043b\u044c\u0120": 3801, "':\u0120": 3802, "\u043e\u043a\u0430\u0437\u0430\u043b\u0441\u044f\u0120": 3803, "\u0440\u0430\u0441\u0441\u043a\u0430\u0437\u0430\u043b\u0438\u0120": 3804, "\u043f\u0435\u0440\u0441\u043e": 3805, "\u043d\u0438\u043b\u0438\u0120": 3806, "\u043f\u0440\u0430\u0432\u0435\u0434\u043b\u0438": 3807, "\u0447\u0435\u0441\u043a\u0438\u0120": 3808, "\u043a\u0432\u0430\u0440\u0442\u0438\u0440\u044b\u0120": 3809, "\u0441\u0442\u0440\u0430\u043d\u0435\u0120": 3810, "\u0424\u043e\u043d\u0442\u0430\u043d\u043a\u0430.": 3811, "\u0440\u0430\u0441\u043f\u043e\u0440\u044f": 3812, "\u043b\u044c,\u0120": 3813, "\u043f\u0440\u043e\u0446\u0435\u0434\u0443": 3814, "\u043c\u0430\u043a\u0441\u0438": 3815, "\u0437\u0430\u043a\u0430\u0437": 3816, "\u0432\u0435\u043b\u0438": 3817, "\u042e": 3818, "\u042e\u0440\u0438\u0439\u0120": 3819, "\u0434\u0430\u0445\u0120": 3820, "\u0442\u0435\u043b\u044c\u0441\u0442\u0432\u0430\u0120": 3821, "\u043d\u044e\u044e\u0120": 3822, "\u043b\u0435\u043d\u0430\u0120": 3823, "\u0434\u043e\u0432\u043e": 3824, "\u0442\u0435\u043b\u044e\u0120": 3825, "\u041f\u0443\u0448\u043a\u0438": 3826, "\u043a\u0430\u0436\u0434\u044b\u0439\u0120": 3827, "5-": 3828, "\u043a\u0438'\u0120": 3829, "\u0438\u0441\u043f\u043e\u043b\u044c\u0437\u0443": 3830, "\u0433\u0430.\u0120": 3831, "\u0447\u043b\u0435\u043d\u043e\u0432\u0120": 3832, "\u0434\u043e\u043b\u043b\u0430\u0440\u043e\u0432.\u0120": 3833, "\u0422\u043e\u0433\u0434\u0430\u0120": 3834, "\u0441\u0435\u0437\u043e": 3835, "\u0422\u0435\u043c\u0120": 3836, "\u0434\u043e\u043b\u043b\u0430\u0440\u043e\u0432\u0120": 3837, "\u0448\u0438\u0120": 3838, "\u0441\u0447\u0438\u0442\u044b": 3839, "\u043f\u0440\u0438\u0435\u0445\u0430": 3840, "\u0442\u0438\u0439": 3841, "\u041d\u0410": 3842, "\u043a\u0438\u043f\u0430": 3843, "\u0446\u0435\u043d\u044b\u0120": 3844, "\u043b\u0435,\u0120": 3845, "\u043f\u0440\u043e\u0442\u043e": 3846, "\u0413\u0423\u041f\u0120": 3847, "\u0417\u0410\u041e\u0120": 3848, "\u0414\u043e\u0120": 3849, "\u0432\u043e\u043a": 3850, "\u0433\u0435\u0440": 3851, "\u0444\u043e\u0440\u0443": 3852, "\u0432\u043e\u0437\u043c\u043e\u0436\u043d\u043e\u0441\u0442\u0438\u0120": 3853, "ce": 3854, "\u043d\u0430\u0447\u0430\u043b\u0438\u0120": 3855, "\u0433\u0440\u0438": 3856, "\u0440\u0438\u0439": 3857, "\u041f\u043e\u044d\u0442\u043e\u043c\u0443\u0120": 3858, "\u0441\u0441\u0438\u0438\u0120": 3859, "\u043b\u044c\u043d\u0443\u044e\u0120": 3860, "\u0438\u0437\u0432\u0435\u0441\u0442\u043d\u043e,\u0120": 3861, "\u0432\u0430\u0440\u0438\u0430\u043d": 3862, "\u043c\u0435\u0441\u0442\u043e": 3863, "\u0434\u043e\u0432,\u0120": 3864, "\u0445\u043e\u0434\u044b\u0120": 3865, "\u043c\u0435\u0442\u0440\u043e\u0432.\u0120": 3866, "\u043d\u0443.\u0120": 3867, "\u043c\u043e\u0449": 3868, "\u0443\u0441\u0442\u0430\u043d\u043e\u0432": 3869, "\u0435\u0432\u0440\u043e\u0120": 3870, "\u0432\u0448\u0438\u0441\u044c\u0120": 3871, "\u0412\u0441\u0435\u0433\u043e\u0120": 3872, "\u043f\u0440\u0438\u043d\u0446\u0438": 3873, "\u041e\u043b\u044c": 3874, "\u0442\u0435\u0445\u0120": 3875, "\u043e\u0442\u0432\u0435\u0447\u0430": 3876, "\u043d\u0435\u0441\u043a\u043e\u043b\u044c\u043a\u0438\u0445\u0120": 3877, "\u043d\u0438\u0438,\u0120": 3878, "\u0431\u044e\u0434\u0436\u0435\u0442\u0430\u0120": 3879, "\u043d\u0430\u0438": 3880, "\u0432\u0448\u0438\u0445\u0441\u044f\u0120": 3881, "\u0433\u043e\u043c\u0120": 3882, "\u0431\u0435\u0441\u043f\u043e": 3883, "\u0441-": 3884, "\u0441\u0438\u043c": 3885, "\u0441\u043e\u0441\u0442\u043e\u044f\u043d\u0438\u0438\u0120": 3886, "2-": 3887, "\u043f\u043e\u0434\u0440\u044f\u0434": 3888, "\u043c\u0435\u0442\u0440\u0430": 3889, "\u043e\u0431\u044f\u0437\u0430\u043d": 3890, "4,": 3891, "\u0411\u0430\u043d": 3892, "\u043d\u043e\u0441\u0442\u044c,\u0120": 3893, "\u043d\u043d\u043e\u0433\u043e\u0120": 3894, "\u043f\u043e\u0442\u0440\u0435\u0431\u043e": 3895, "\u0412\u044b\u0431\u043e\u0440\u0433": 3896, "\u0432\u043d\u0435\u0448": 3897, "'\u041d\u043e\u0432\u043e\u0441\u0442\u0438": 3898, "\u0441\u043f\u0430\u0441\u0430": 3899, "\u0433\u043e\u0434\u044b\u0120": 3900, "\u0440\u0435\u043a\u043e\u043c\u0435\u043d": 3901, "\u043f\u0438\u043d": 3902, "\u0446,\u0120": 3903, "\u0433\u0438.\u0120": 3904, "\u043d\u044b\u043d\u0435\u0448": 3905, "\u043c\u043e\u0433\u043b\u0438\u0120": 3906, "\u0441\u0442\u0432\u0435\u043d\u043d\u044b\u0435\u0120": 3907, "\u043f\u0443\u0442\u0435": 3908, "\u043c\u0435\u0434": 3909, "\u0441\u0430\u043c\u043e\u043c\u0120": 3910, "\u043e\u0441\u043e\u0431\u0435\u043d": 3911, ".ru": 3912, "\u043d\u044f\u0442\u044c\u0120": 3913, "\u0433\u043e-": 3914, "\u043f\u0440\u0438\u0433\u043b\u0430": 3915, "Len": 3916, "\u043d\u0443\u0442\u0120": 3917, "\u043c\u0435\u043d\u0120": 3918, "\u0434\u0443.\u0120": 3919, "\u0434\u0438\u043d\u0430": 3920, "\u0441\u043e\u043e\u0431\u0449\u0430\u044e\u0442\u0120": 3921, "\u043e\u043c\u0120": 3922, "\u043f\u0440\u0430\u0432\u0120": 3923, "\u0410\u043b": 3924, "\u0441\u0442\u0435\u043f\u0435\u043d": 3925, "\u043d\u0443\u043b\u0120": 3926, "\u043c\u0438\u043d\u0438\u0441\u0442\u0435\u0440": 3927, "\u0438\u043d\u0432\u0435\u0441\u0442\u043e": 3928, "\u043c\u044d": 3929, "\u0432\u0443,\u0120": 3930, "\u041f\u0443\u043b\u043a\u043e": 3931, "\u0412\u0435\u0440\u0445\u043e\u0432": 3932, "\u043d\u0430\u0448\u0435\u0439\u0120": 3933, "\u0446\u0435\u043f": 3934, "\u0441\u0442\u0440\u0435\u043c\u0438": 3935, "\u0437\u0430\u0439": 3936, "\u0440\u0435\u0433\u0443\u043b\u0438": 3937, "\u043f\u043e\u043c\u0438\u043d\u0430": 3938, "\u041c\u0438\u043d\u043e": 3939, "\u043f\u0440\u0430\u0432\u0438\u0442\u0435\u043b\u044c\u0441\u0442\u0432\u043e\u0120": 3940, "\u043a\u043e\u043c\u043f\u0430\u043d\u0438\u0439\u0120": 3941, "\u0432\u043d\u0438\u043c\u0430\u043d\u0438\u0435\u0120": 3942, "\u0441\u0430\u0434": 3943, "\u043e\u0434\u043d\u0438\u043c\u0120": 3944, "\u043b\u0435\u0435\u0120": 3945, "\u0414,\u0120": 3946, "\u0424\u0410": 3947, "\u043b\u044c\u044e\u0120": 3948, "\u043f\u043e\u0441\u0432\u044f": 3949, "\u0442\u0440\u0443\u0434": 3950, "\u043e\u0431\u0449\u0435\u0120": 3951, "\u043b\u043e\u0441\u044c.\u0120": 3952, "\u043f\u043e\u0440\u0442\u0430": 3953, "ew": 3954, "\u0442\u0430\u043a\u043e\u0435\u0120": 3955, "\u043d\u043d\u043e\u0439\u0120": 3956, "\u0442\u0430\u043a\u043e\u0433\u043e\u0120": 3957, "\u043e\u0431\u0440\u0430\u0437\u043e\u043c\u0120": 3958, "'\u041c\u0430": 3959, "\u0442\u0432\u043e\u0440\u0438": 3960, "\u0441\u0442\u0443\u0120": 3961, "\u0422\u0435\u043f\u0435\u0440\u044c\u0120": 3962, "\u0435\u043d\u0438\u044f\u043c\u0120": 3963, "\u0434\u0435\u0432\u043e\u0447": 3964, "\u0433\u043e\u0432\u043e\u0439\u0120": 3965, "\u0432\u043e\u0437\u0434\u0443\u0448": 3966, "\u044d\u043a\u0441\u043f\u043b\u0443": 3967, "\u043f\u0440\u0435\u043c\u0438": 3968, "\u043d\u0435\u043b\u044c": 3969, "\u043f\u0440\u0438\u043d\u044f\u043b\u0120": 3970, "\u0442\u0443\u0440\u0430\u0120": 3971, "\u0431\u044b\u0432\u0448\u0435\u0433\u043e\u0120": 3972, "\u0441\u043a\u043e\u0433\u043e,\u0120": 3973, "\u0442\u0430\u043c\u043e\u0436": 3974, "\u043e\u0431\u0449\u0435\u0439\u0120": 3975, "\u0441\u0442\u0430\u0442\u0443": 3976, "\u0438\u043d\u0444\u043e\u0440\u043c\u0430\u0446\u0438\u044f\u0120": 3977, "\u0441\u043f\u0438\u0441\u043e\u043a\u0120": 3978, "\u0434\u0430\u043b\u0120": 3979, "\u0444\u043e\u0442\u043e\u0433\u0440\u0430\u0444\u0438": 3980, "\u0431\u043e\u043b\u0435\u043b\u044c\u0449\u0438": 3981, "\u0444\u0443\u043d\u043a": 3982, "\u043c\u043e\u0436\u0435": 3983, "\u043d\u0438\u0446\u044b\u0120": 3984, "\u043e\u0441\u0443\u0434\u0430\u0440": 3985, "\u043a\u0430\u0441\u0430\u0435\u0442\u0441\u044f\u0120": 3986, "\u043d\u0438\u0442\u0430\u0440": 3987, "\u0443\u0442\u0440\u0430\u0120": 3988, "\u043e\u0447\u0435\u0440\u0435\u0434\u044c\u0120": 3989, "\u0432\u0435\u0434\u0435\u043d\u0438\u0435\u0120": 3990, "\u043f\u0435\u0440\u0432\u043e\u0439\u0120": 3991, "\u0432\u043b\u0435\u043d\u0430\u0120": 3992, "\u043f\u0440\u0438\u0432\u0435": 3993, "\u043f\u0440\u0435\u0434\u0441\u0442\u0430\u0432\u0438\u0442\u0435\u043b\u0435\u0439\u0120": 3994, "\u043d\u0430\u0447\u0430\u043b\u044c\u043d\u0438\u043a\u0430\u0120": 3995, "\u043c:\u0120": 3996, "\u043f\u043e\u0441\u0442\u0120": 3997, "\u0420-": 3998, "\u043a\u0440\u0443\u043f\u043d\u0435\u0439": 3999, "\u0432\u0430\u043d\u0430\u0120": 4000, "\u043d\u0435\u0441\u043c\u043e\u0442\u0440\u044f\u0120": 4001, "\u0443\u0447\u0435\u0431": 4002, "\u0432\u043e\u0441\u043a\u0440\u0435\u0441\u0435\u043d": 4003, "\u043f\u0440\u0435\u0434\u043f\u043e\u043b\u043e": 4004, "\u0431\u0430\u0439": 4005, "\u0437\u0430\u0445\u0432\u0430": 4006, "\u0441\u043e\u0441\u0442\u043e\u0438\u0442\u0441\u044f\u0120": 4007, "'\u041d": 4008, "\u043f\u0440\u043e\u043a\u0443\u0440\u0430\u0442\u0443\u0440\u0430\u0120": 4009, "\u043c-": 4010, "\u0437\u0430\u0444\u0438\u043a\u0441\u0438": 4011, "\u0449\u0435\u043c\u0120": 4012, "\u043e\u0431\u044a\u0435\u0434\u0438": 4013, "\u043a'\u0120": 4014, "\u0440\u0435\u0448\u0438\u043b\u0438\u0120": 4015, "\u0442\u0438\u043a\u0438\u0120": 4016, "\u0441\u0442\u0440\u0430\u043d\u0120": 4017, "\u041f\u0430\u0440": 4018, "\u041c\u0430\u0442\u0432\u0438\u0435\u043d\u043a\u043e\u0120": 4019, "\u041a\u0438\u0440\u043e\u0432": 4020, "\u0433\u0430\u0440": 4021, "\u044d\u043d\u0435\u0440\u0433\u0435": 4022, "\u043c\u0435\u0442\u0430": 4023, "s.\u0120": 4024, "\u0432\u043b\u0430\u0434\u0435": 4025, "\u0442\u044b\u0435\u0120": 4026, "\u0437\u043e\u0432\u0120": 4027, "\u043f\u043e\u0441\u0442\u0440\u0430\u0434\u0430\u0432\u0448\u0438\u0445\u0120": 4028, "\u0432\u0448\u0430\u044f\u0120": 4029, "\u043d\u0438\u0438.\u0120": 4030, "\u043c\u0435\u043d\u0442\u0430\u0120": 4031, "\u0434\u043e\u0441\u0442\u0443\u043f": 4032, "'\u041f\u0440\u043e": 4033, "\u0414\u0432\u043e\u0440": 4034, "\u0432\u043e\u0432\u0120": 4035, "\u0441\u0443\u0434\u0435\u0120": 4036, "\u0432\u043e\u0441\u0442\u043e": 4037, "\u0448\u0430\u0435\u0442\u0120": 4038, "\u0438\u043d\u0442\u0435\u0440\u0435\u0441\u043e": 4039, "\u0430\u0433\u0435\u043d\u0442\u0441\u0442\u0432\u043e\u0120": 4040, "\u0440\u0430\u0439\u043e\u043d\u0435": 4041, "\u043f\u043b\u0430\u0442": 4042, "\u043f\u043e\u043f\u0440\u0430\u0432": 4043, "\u0442\u0438\u0442\u0120": 4044, "\u043f\u0440\u0435\u0434\u0435\u043b": 4045, "\u0434\u0438\u043b\u0438\u0120": 4046, "\u0431\u0430\u043d\u043a\u043e\u0432": 4047, "\u041f\u0440\u0430\u0432": 4048, "\u0431\u044b\u0432\u0448\u0438\u0439\u0120": 4049, "\u0439\u0434\u0443\u0442\u0120": 4050, "\u0434\u044b.\u0120": 4051, "\u0431\u044b,\u0120": 4052, "\u0441\u0438\u043b\u0443\u0120": 4053, "\u0437\u0432\u0443": 4054, "\u043e\u043b\u043e\u0433\u0438": 4055, "70\u0120": 4056, "\u0433\u043b\u0430\u0120": 4057, "\u043f\u0440\u0435\u0434\u043b\u043e\u0436\u0438\u043b\u0120": 4058, "'\u0412\u0435": 4059, "\u0436\u0434\u044b\u0120": 4060, "\u0432\u043b\u0435\u043d\u0438\u0438\u0120": 4061, "\u043a\u0430\u0436\u0434\u043e": 4062, "'\u041b": 4063, "\u0438\u0442\u043e\u0433\u0435\u0120": 4064, "\u043c\u0438\u043b\u043b\u0438\u0430\u0440\u0434\u043e\u0432\u0120": 4065, "\u0432\u0441\u0442\u0443\u043f\u0438": 4066, "\u0413\u0440\u0438": 4067, "\u0447\u0435\u0441\u043a\u0430\u044f\u0120": 4068, "\u0441\u0442\u0430\u043d\u043e\u0432": 4069, "\u0440\u043e\u0432\u043a\u0438\u0120": 4070, "\u0438\u043d\u043e\u0441\u0442\u0440\u0430\u043d\u043d\u044b\u0445\u0120": 4071, "\u043d\u044b\u0445.\u0120": 4072, "\u043d\u0435\u043a\u043e\u0442\u043e\u0440\u044b\u0435\u0120": 4073, "\u044b\u0434\u0443": 4074, "\u041a\u0443\u0440": 4075, "\u0441\u0438\u0442\u0443\u0430\u0446\u0438\u044f\u0120": 4076, "\u0434\u0435\u043a\u0441\u0120": 4077, "\u043e\u043f\u044b": 4078, "\u0433\u043e'\u0120": 4079, "\u043e\u0431\u0440\u0430\u0449\u0430": 4080, "\u043e\u043f\u0440\u043e": 4081, "\u0441\u043b\u043e\u0432\u0430\u0120": 4082, "\u0442\u0438\u0440\u0443\u0435\u0442\u0120": 4083, "\u0440\u0430\u043d\u044c": 4084, "\u043a\u043e\u043d\u043a\u0440\u0435": 4085, "26": 4086, "\u043b\u0438\u0448\u0435\u043d\u0438\u044f\u0120": 4087, "\u0433\u0438\u0438\u0120": 4088, "\u043f\u0435\u0440\u0435\u0441\u0435": 4089, "\u0432\u0437\u0430": 4090, "\u0433\u043e\u0440\u043e\u0436\u0430": 4091, "\u0442\u0440\u0430\u043d\u0441": 4092, "'\u0420\u043e\u0441": 4093, "\u0414.\u0120": 4094, "\u0434\u0430\u0432": 4095, "\u0438\u0441\u0442\u043e\u0440\u0438\u0438\u0120": 4096, "\u0447,\u0120": 4097, "\u043f\u0440\u0438\u043c\u0435\u043d": 4098, "\u0442\u0435\u043b\u044c\u043d\u043e\u0435\u0120": 4099, "\u0434\u0435\u0439\u0441\u0442\u0432\u0438\u0442\u0435\u043b\u044c\u043d\u043e\u0120": 4100, "\u043f\u0440\u0438\u0448\u043b\u043e\u0441\u044c\u0120": 4101, "\u041a\u043e\u043b": 4102, "\u0442\u0438.\u0120": 4103, "\u0441\u043e\u0441\u0442\u0430\u0432": 4104, "\u043c\u0430\u043b\u044c": 4105, "ou": 4106, "\u0438\u043d\u0442\u0435\u0440\u0432\u044c\u044e\u0120": 4107, "\u0437\u043d\u0430\u043a\u043e\u043c": 4108, "\u043f\u0440\u0435\u0434\u0443\u0441\u043c\u0430\u0442\u0440\u0438": 4109, "\u0432\u043e\u0434\u0438\u0442\u0435\u043b\u044c\u0120": 4110, "\u0432\u043e\u043e\u0431\u0449\u0435\u0120": 4111, "\u0435\u043d\u0438\u0438,\u0120": 4112, "\u0444\u0443\u0442\u0431\u043e\u043b\u0438": 4113, "\u043d\u0430\u0440\u0443\u0448\u0435\u043d\u0438\u0435\u0120": 4114, "\u0434\u043e\u043a\u0443\u043c\u0435\u043d\u0442\u0430": 4115, "\u043b'\u0120": 4116, "\u0440\u044c": 4117, "\u0438\u0441\u0442\u043e\u0447\u043d\u0438\u043a\u0120": 4118, "\u0447\u0438\u043a\u0120": 4119, "\u043b\u044b\u0435\u0120": 4120, "\u0432\u043e\u043f\u0440\u043e\u0441\u044b\u0120": 4121, "\u0438\u043d\u0444\u0440\u0430": 4122, "'\u041e\u0120": 4123, "\u0441\u0435\u043a\u0440\u0435\u0442\u0430\u0440\u044c\u0120": 4124, "\u043c\u044f\u0120": 4125, "\u0440\u043e\u0441\u0442\u0120": 4126, "\u043a\u0440\u0435\u043f": 4127, "0\u043f\u0440\u043e\u0446\u0435\u043d\u0442\u043e\u0432\u0120": 4128, "\u0440\u0435\u0439\u0442\u0438\u043d": 4129, "\u0441\u0430\u043c\u043e\u0433\u043e\u0120": 4130, "\u043d\u044b\u0439,\u0120": 4131, "\u0445\u043e\u0442\u0435": 4132, "\u0412\u044f\u0447\u0435": 4133, "\u0440\u0430\u0431\u043e\u0442\u0435\u0120": 4134, "\u044e\u0442.\u0120": 4135, "\u0437\u0430\u043f\u0440\u0435\u0449\u0435\u043d": 4136, "\u043e\u0431\u044a\u0435\u043a\u0442\u043e\u0432\u0120": 4137, "\u043d\u043e\u043c\u0435": 4138, "\u043c\u043e\u043b\u043e\u0434\u0435": 4139, "\u043d\u0441\u043a\u043e\u0439\u0120": 4140, "\u043b\u0435\u0432": 4141, "\u0432\u0435\u0439": 4142, "\u043a\u0432.\u0120": 4143, "\u0438\u043d\u0442\u0435\u0440\u043d\u0435\u0442-": 4144, "\u0421\u041f\u0431": 4145, "\u043a\u0440\u0430\u0439": 4146, "\u043f\u0440\u043e\u0438\u0437\u043e\u0448\u043b\u0430\u0120": 4147, "\u043b\u0435.\u0120": 4148, "\u0430\u043d\u0430\u043b\u043e\u0433\u0438": 4149, "\u0432\u044b\u0440\u0430": 4150, "\u043e\u043a\u0430\u0437\u0430\u043b\u0438\u0441\u044c\u0120": 4151, "\u0432\u044b\u0441\u0442\u0443\u043f\u043b": 4152, "5,": 4153, "\u0412\u0430\u043b\u0435\u043d\u0442\u0438\u043d\u0430\u0120": 4154, "\u0446\u0435\u0432.\u0120": 4155, "\u0437\u0430\u043a\u043e\u043d\u0447\u0438": 4156, "\u0433\u043e\u0440\u043e\u0434\u0430,\u0120": 4157, "\u043d\u0430\u0447\u0430\u043b\u044c\u043d\u0438\u043a\u0120": 4158, "\u0432\u043f\u0435\u0440\u0432\u044b\u0435\u0120": 4159, "\u0413\u043e\u0441\u0443\u0434\u0430\u0440": 4160, "\u0442\u0435\u0440\u0430\u043a": 4161, "\u0442.": 4162, "\u0418\u0441": 4163, "\u0442\u0435\u0445\u043d\u0438": 4164, "\u0433\u043b\u0430\u0432\u043d\u044b\u0439\u0120": 4165, "\u0441\u043d\u043e\u0439\u0120": 4166, "\u0440\u0435\u043d\u0438\u044f\u0120": 4167, "\u0420\u043e\u0441\u0441\u0438\u0438'\u0120": 4168, "\u0440\u0435\u0447\u044c\u0120": 4169, "\u0430\u0440\u043c\u0438": 4170, "\u0421\u0435\u0432\u0435\u0440\u043e-\u0417\u0430\u043f\u0430\u0434": 4171, "\u0432\u0435\u0449\u0435": 4172, "\u0414\u0436": 4173, "\u0412\u0430\u043b\u0435": 4174, "\u0444\u0443\u0442\u0431\u043e\u043b\u044c": 4175, "\u0441\u043b\u0443\u0436\u0431\u0430\u0120": 4176, "\u043e\u0434\u043d\u043e\u0120": 4177, "45\u0120": 4178, "\u0442\u043d\u044b\u043c\u0120": 4179, "\u0437\u0430\u043f\u0430\u0434": 4180, "\u043a\u043d\u043e\u0432": 4181, "\u0440\u0430\u0437\u0433\u043e\u0432\u043e": 4182, "\u043d\u0438\u043a\u0430,\u0120": 4183, "\u043b\u0438\u0446\u0120": 4184, "\u0432\u0435\u0440\u0445": 4185, "\u043a\u043e\u0440\u0440\u0443\u043f": 4186, "\u0436\u0434\u0435\u043d\u044b\u0120": 4187, "\u044d\u043a\u0438\u043f\u0430": 4188, "\u0435\u0432\u0430,\u0120": 4189, "\u0440\u0430\u0438": 4190, "\u043f\u043e\u0434\u0440\u0430\u0437\u0434\u0435\u043b": 4191, "\u043a\u0443\u0440\u0441\u0120": 4192, "\u0436\u0438\u0442\u0435\u043b\u0438\u0120": 4193, "\u0441\u0442\u043e\u0439": 4194, "\u0440\u043e\u0437": 4195, "\u043f\u043e\u0441\u0442\u0443\u043f\u0430": 4196, "\u043b\u0435\u0439": 4197, "\u043c\u0430\u0439": 4198, "\u043e\u0442\u043c\u0435\u043d": 4199, "\u0430\u043a\u0430\u0434\u0435\u043c\u0438": 4200, "\u0444\u0440\u0430\u043d": 4201, "\u043d\u0438,\u0120": 4202, "\u0421\u0421\u0120": 4203, "\u043e\u0444\u0438\u0446\u0438\u0430\u043b\u044c\u043d\u044b\u0439\u0120": 4204, "\u043c\u0435\u0441\u044f\u0446\u0435\u0432\u0120": 4205, "\u043f\u043e\u0434\u0434\u0435\u0440\u0436\u0438": 4206, "\u0433\u0432\u0430\u0440": 4207, "\u043a\u0440\u0443\u0433\u0120": 4208, "\u0432\u044b\u0440\u043e": 4209, "\u043a\u043e\u0442\u043e\u0440\u043e\u043c\u0443\u0120": 4210, "\u043f\u0440\u0438\u043d\u044f\u043b\u0438\u0120": 4211, "\u043a\u043e\u043c\u043f\u0430\u043d\u0438\u0438,\u0120": 4212, "\u0436\u043d\u044b\u0435\u0120": 4213, "\u0434\u0435\u043f\u0443\u0442\u0430\u0442\u0120": 4214, "\u0441\u0430\u0439\u0442\u0120": 4215, "\u043e\u0431\u043e\u0440\u043e\u043d\u044b\u0120": 4216, "\u0432\u0435\u043b\u043e": 4217, "\u0432\u043e\u043a\u0437\u0430": 4218, "\u0432\u044f\u0442\u0120": 4219, "\u0447\u0435\u043d\u044b": 4220, "\u041a\u0438\u0442\u0430": 4221, "\u041c\u0435\u0436\u0434\u0443\u043d\u0430\u0440\u043e\u0434": 4222, "\u043d\u0438\u0435\u043c\u0120": 4223, "\u0431\u0438\u0437\u043d\u0435\u0441\u043c\u0435\u043d": 4224, "\u043d\u0438\u044f.\u0120": 4225, "\u0442\u044c\u044f": 4226, "\u0432\u043e\u0437\u043c\u043e\u0436\u043d\u043e,\u0120": 4227, "\u043a\u0432\u0430\u0440\u0442\u0438\u0440\u0435\u0120": 4228, "\u043b\u0435\u043d\u044b\u0120": 4229, "\u0433\u0435\u0440\u043e": 4230, "\u0443\u0432\u0438\u0434\u0435": 4231, "\u043b\u044c.\u0120": 4232, "\u0441\u043e\u0442\u0440\u0443\u0434\u043d\u0438\u0447\u0435": 4233, "\u0438\u0441\u043f\u044b\u0442\u0430": 4234, "\u043d\u0430\u043b\u0438\u0447\u0438": 4235, "\u0434\u044b,\u0120": 4236, "\u0434\u043e\u0431\u0438": 4237, "\u041a\u043e\u0440": 4238, "\u0441\u043e\u043b": 4239, "\u043e\u0448\u0438": 4240, "\u0446\u0435\u043d\u0120": 4241, "\u0410\u0432\u0442\u043e": 4242, "\u043e\u0444\u043e\u0440": 4243, "\u0440\u043e\u0432\u0430\u0120": 4244, "\u0441\u043e\u0431\u043e\u0439\u0120": 4245, "\u0430\u0431": 4246, "\u0432\u0435\u0434\u044c\u0120": 4247, "\u043f\u043e\u043f\u044b\u0442\u0430": 4248, "\u043b\u043e\u0436\u0435\u043d": 4249, "\u0414\u0435\u043f\u0443\u0442\u0430": 4250, "\u043a\u043b\u0443\u0431\u0430\u0120": 4251, "\u0432\u044b\u0431\u043e\u0440\u0430\u0445\u0120": 4252, "\u043f\u0435\u0440\u0441\u043e\u043d\u0430": 4253, "\u0441\u043b\u044b": 4254, "\u0440\u0430\u0431\u0430\u0442\u044b": 4255, "\u0437\u0430\u0434\u0435\u0440\u0436\u0430\u043d\u044b\u0120": 4256, "\u043e\u0442\u0441\u0442\u0430\u0432": 4257, "ic": 4258, "\u043f\u043e\u043c\u043e\u0449\u044c\u0120": 4259, "\u043e\u0442\u043c\u0435\u0447\u0430\u0435\u0442\u0120": 4260, "\u0433\u043e\u0441\u0443\u0434\u0430\u0440\u0441\u0442\u0432\u0435\u043d\u043d\u043e\u0439\u0120": 4261, "\u043f\u043b\u0430\u043d\u0438\u0440\u043e\u0432\u0430": 4262, "1-": 4263, "\u0420\u0438": 4264, "\u0440\u0443\u044e\u0442\u0120": 4265, "\u043f\u0440\u0435\u0434\u044a\u044f": 4266, "\u0440\u0430\u0441\u0441\u043a\u0430\u0437\u044b\u0432\u0430": 4267, "\u041f\u0440\u0430\u0432\u0434\u0430,\u0120": 4268, "\u0442\u0435\u0445,\u0120": 4269, "\u043d\u0430\u0440\u0443\u0448\u0435\u043d\u0438\u044f\u0120": 4270, "\u0440\u0430\u0431\u043e\u0442\u0430\u044e\u0442\u0120": 4271, ")\u0120": 4272, "')\u0120": 4273, "\u043e\u043d\u0435\u0446": 4274, "\u0443\u043d\u0438\u0447\u0442\u043e": 4275, "\u0436\u0435\u0431": 4276, "1,\u0120": 4277, "\u043f\u0435\u0440\u0435\u0432\u043e": 4278, "\u0449\u0438\u043c\u0120": 4279, "\u0447\u043d\u043e\u043c\u0120": 4280, "\u0421\u0440\u0435\u0434\u0438\u0120": 4281, "\u043f\u0435\u0440\u0432\u0443\u044e\u0120": 4282, "\u043f\u0430\u0441\u043f\u043e\u0440": 4283, "\u0441\u043c\u0435\u0440\u0442\u0438\u0120": 4284, "\u0431\u0440\u0430\u0442\u044c\u0120": 4285, "\u0434\u043d\u043e\u0439\u0120": 4286, "\u0432\u044b\u0441\u0442\u0430\u0432": 4287, "\u0441\u043e\u043e\u0431\u0449\u0430\u043b\u043e\u0441\u044c,\u0120": 4288, "\u0437\u0440\u0438": 4289, "\u043c\u0438\u043b\u0438\u0446\u0438\u043e\u043d\u0435": 4290, "\u0432\u0430\u043d\u043e\u0120": 4291, "27": 4292, "\u0434\u0430\u043b\u0438\u0120": 4293, "\u0440\u0435\u0441\u0443\u0440": 4294, "'\u041d\u0435": 4295, "\u0422\u0410\u0421\u0421": 4296, "80\u0120": 4297, "3-": 4298, "\u043f\u0440\u0438\u0434\u0435\u0442\u0441\u044f\u0120": 4299, "000\u0120": 4300, "\u0441\u043e\u0432\u0435\u0449\u0430": 4301, "\u043d\u0435\u0432": 4302, "\u0434\u043e\u0432.\u0120": 4303, "\u044d\u0444\u0444\u0435\u043a\u0442\u0438\u0432": 4304, "\u0449e\u0120": 4305, "\u043d\u0430\u0431\u0435\u0440\u0435\u0436\u043d\u043e\u0439\u0120": 4306, "\u043f\u0440\u0435\u0434\u043b\u043e\u0436": 4307, "\u0448\u043a\u043e\u043b": 4308, "\u0441\u043e\u0441\u0435": 4309, "\u0432\u043e\u0435\u043d\u043d\u043e": 4310, "\u0440\u044b\u043d\u043a\u0435\u0120": 4311, "\u0434\u0438\u043b\u0120": 4312, "\u0434\u0430\u0440\u044f\u0120": 4313, "\u041d\u0430\u043f\u0440\u0438\u043c\u0435\u0440,\u0120": 4314, "\u043d\u043e\u0441\u0442\u0435\u0439\u0120": 4315, "The\u0120": 4316, "'\u041a\u0430": 4317, "\u0414\u041f": 4318, "\u043b\u0438\u0441\u044c.\u0120": 4319, "\u0437\u0435\u043c\u0435": 4320, "\u0444\u0435\u0434\u0435\u0440\u0430\u043b\u044c\u043d\u043e\u0433\u043e\u0120": 4321, "\u0440\u043e\u0441\u0441\u0438\u0439\u0441\u043a\u0438\u0435\u0120": 4322, "\u0441\u0442\u0432\u0435.\u0120": 4323, "\u0441\u043a\u0438\u0439.\u0120": 4324, "\u044f\u0445,\u0120": 4325, "\u0434\u043e\u043a\u0443\u043c\u0435\u043d\u0442\u044b\u0120": 4326, "\u0412\u0435\u043b\u0438\u043a\u043e": 4327, "\u0410\u043d\u0442\u043e": 4328, "\u0447\u0435\u043d\u0430\u0120": 4329, "\u0441\u043e\u0441\u0442\u0430\u0432\u0438\u043b\u0120": 4330, "\u0446\u043e\u0432\u0120": 4331, "\u043f\u0440\u043e\u0434": 4332, "\u0433\u0430\u043d\u0438": 4333, "\u0428\u0438": 4334, "\u043f\u043e\u0432\u043e\u0434\u0443\u0120": 4335, "\u0442\u043d\u043e\u043c\u0120": 4336, "\u041d\u0438\u043a\u043e\u043b\u0430\u0439\u0120": 4337, "\u0441\u043e\u0442\u0440\u0443\u0434\u043d\u0438\u043a\u0430\u043c\u0438\u0120": 4338, "\u0412\u0442\u043e": 4339, "\u0436\u0438\u043b\u0120": 4340, "\u0440\u043e\u0434\u0441\u0442\u0432\u0435\u043d": 4341, "'\u041d\u043e": 4342, "\u043f\u043b\u0430\u0442\u0435": 4343, "\u043a\u043e\u043c\u043f\u0435\u043d\u0441\u0430": 4344, "-\u0442\u0430": 4345, "te": 4346, "\u0448\u0442\u0440\u0430\u0444": 4347, "\u0432\u0430\u0440\u0438\u0438\u0120": 4348, "\u0447\u0435\u0441\u043a\u0438\u043c\u0120": 4349, "\u041e\u043b\u0435\u0433\u0120": 4350, "\u043f\u0440\u0438\u0445\u043e\u0434\u0438": 4351, "\u043f\u0435\u0442\u0435\u0440\u0431\u0443\u0440\u0433\u0441\u043a\u0438\u0445\u0120": 4352, "\u0421\u043c\u043e\u043b\u044c\u043d\u044b\u0439\u0120": 4353, "\u043c\u0435\u0436": 4354, "\u0437\u0430\u0434\u043e\u043b": 4355, "\u041f\u0435\u0442\u0440\u043e\u0433\u0440\u0430\u0434": 4356, "\u043f\u0440\u0435\u0434\u0432\u0430\u0440\u0438\u0442\u0435\u043b\u044c\u043d\u044b\u043c\u0120": 4357, "\u0441\u043a\u043e\u0440\u043e": 4358, ".co": 4359, "\u043c\u0438\u043d\u0438\u043c\u0443": 4360, "\u043a\u0430\u0440\u0442\u0438": 4361, "\u0433\u043e\u0441\u0443\u0434\u0430\u0440\u0441\u0442\u0432\u0430\u0120": 4362, "\u0441\u0435\u043d\u0430": 4363, "\u043a\u0440\u043e\u0432": 4364, "\u0441\u043e\u0431\u0435\u0441\u0435\u0434\u043d\u0438": 4365, "\u0433\u0430\u0440\u0430\u043d": 4366, "\u0438\u043d\u0444\u0440\u0430\u0441\u0442\u0440\u0443\u043a\u0442\u0443": 4367, "\u043d\u0430'\u0120": 4368, "\u041f\u0440\u0430\u0432\u0438": 4369, "\u0441\u044f\u0442\u0120": 4370, "\u0447\u044c": 4371, "\u0440\u0430\u0441\u0448\u0438": 4372, "\u0434\u043e\u0431\u0430\u0432\u0438\u043b\u0120": 4373, "\u043c\u0435\u0441\u0442\u0430": 4374, "\u043f\u043e\u0441\u0440\u0435\u0434": 4375, "\u043f\u0435\u0120": 4376, "\u0446\u0430,\u0120": 4377, "\u0434\u0435\u044f\u0442\u0435\u043b\u044c\u043d\u043e\u0441\u0442\u044c\u0120": 4378, "\u043c\u043e\u0433\u0120": 4379, "\u0417\u0430\u043a\u0421\u0430\u0120": 4380, "\u043f\u0430\u0440\u0442\u043d\u0435": 4381, "\u0414\u043e\u043d\u0435\u0446": 4382, "\u0442\u043d\u043e\u0435\u0120": 4383, "\u0410\u043d\u0430\u0442\u043e": 4384, "\u043f\u0440\u0435\u0434\u044b\u0434\u0443": 4385, "\u0421\u0443\u0434\u0120": 4386, "\u0433\u043e\u0441\u0442\u0438": 4387, "\u043d\u0430\u0443\u0447": 4388, "\u043d\u0435\u043b\u044c\u0437": 4389, "\u0431\u0438\u043b\u0438": 4390, "\u0422\u0430\u043c\u0120": 4391, "\u043e\u0444\u0438\u0446\u0438\u0430\u043b\u044c\u043d\u043e\u0120": 4392, "\u0437\u044b\u0432\u0430\u0442\u044c\u0120": 4393, "\u0431\u043e\u043c": 4394, "\u0440\u043e\u0441\u0441\u0438\u0439\u0441\u043a\u0438\u0439\u0120": 4395, "\u0442\u0441\u043a\u043e\u0439\u0120": 4396, "\u0438\u043c\u043e": 4397, "\u0441\u0435\u043d\u0120": 4398, "\u043e\u0442\u0434\u0435\u043b\u0120": 4399, "\u0446\u0438\u0439.\u0120": 4400, "\u043f\u0440\u0435\u0441\u0435": 4401, "\u043c\u0443\u044e\u0120": 4402, "\u0432\u044b\u0441": 4403, "\u0437\u0430,\u0120": 4404, "\u0441',\u0120": 4405, "\u0437\u0434\u0440\u0430": 4406, "\u043f\u0440\u043e\u0431\u043b\u0435\u043c\u044b\u0120": 4407, "\u0444\u0430\u043b\u044c": 4408, "\u0441\u0442\u0432\u0443\u044e\u0442\u0120": 4409, "\u0430\u0432\u0430\u0440\u0438\u0438\u0120": 4410, "ss": 4411, "\u043d\u043e\u0432\u0430,\u0120": 4412, "\u0436\u0430\u043b\u043e": 4413, "\u043d\u0430\u0442\u043e\u0440": 4414, "\u0441\u0432\u0438\u0434\u0435\u0442\u0435\u043b\u044c": 4415, "\u0434\u043e\u043c\u043e\u0432\u0120": 4416, "\u0441\u0442\u0432\u0443\u0435\u0442\u0120": 4417, "\u0440\u0430\u0437\u0440\u0430\u0431\u043e\u0442": 4418, "\u0432\u044b\u0432\u043e": 4419, "\u0441\u0442\u0430\u0442\u0438,\u0120": 4420, "\u0437\u0430\u0431\u043e\u043b\u0435": 4421, "\u0431\u0435\u043d": 4422, "\u0432\u043e\u0439,\u0120": 4423, "\u0447e": 4424, "\u0434\u0435\u0432\u044f": 4425, "\u0441\u043e\u0440": 4426, "\u0428\u0435": 4427, "2,\u0120": 4428, "\u043f\u043e\u043f\u0443\u043b\u044f\u0440": 4429, "\u043c\u0435\u043d\u0442\u0120": 4430, "\u043a\u0430\u0442\u0430\u0441\u0442\u0440\u043e": 4431, "\u0434\u0440\u0443\u0433\u0120": 4432, "\u0443\u043a": 4433, "\u041e,\u0120": 4434, "\u044f\u0440": 4435, "\u043f\u0440\u043e\u0445\u043e\u0434\u0438": 4436, "\u0431\u0440\u0438\u0442\u0430": 4437, "\u0437\u0430.\u0120": 4438, "\u0440\u0435\u0448\u0438\u043b\u0120": 4439, "\u043f\u043e\u043f\u044b\u0442": 4440, "\u0437\u0430\u043c\u0435\u043d": 4441, "\u0433\u043e\u0432\u043e\u0440\u0438\u0442\u044c\u0120": 4442, "\u0432\u0438\u0434\u0435\u043e": 4443, "\u0433\u0430\u0445\u0120": 4444, "\u043a\u043e\u043c\u043c\u0443\u043d\u0430": 4445, "\u0441\u043f\u043e\u0440\u0442\u0441\u043c\u0435\u043d": 4446, "\u0436\u0438\u043b\u0438\u0449": 4447, "\u0442\u0440\u0430\u043c": 4448, "\u0441\u043e\u0441\u0442\u0430\u0432\u0438\u043b\u0430\u0120": 4449, "\u043e\u0442\u0432\u0435\u0442\u0441\u0442\u0432\u0435\u043d\u043d\u043e\u0441\u0442\u0438\u0120": 4450, ".0": 4451, "\u0424\u0438\u043d\u043b\u044f\u043d": 4452, "\u0440\u0435\u0431\u0435\u043d\u043a\u0430\u0120": 4453, "\u0442\u043e\u043b": 4454, "\u0441\u043e\u043e\u0431\u0449\u0435\u043d\u0438\u0438\u0120": 4455, "\u043d\u0435\u0442,\u0120": 4456, "\u043f\u0440\u043e\u043a\u043e\u043c\u043c\u0435\u043d": 4457, "\u043a\u0443\u043b\u044c\u0442\u0443\u0440\u044b\u0120": 4458, "\u0412\u0430\u0441\u0438\u043b\u044c\u0435\u0432": 4459, "\u043a\u0430\u0442\u0435\u0440\u0438": 4460, "\u0418\u043b\u044c": 4461, "\u0447\u043d\u0430\u044f\u0120": 4462, "\u044a\u0435\u043a": 4463, "\u0444\u0440\u0430\u043d\u0446": 4464, "\u0432\u0430\u043b\u0430\u0441\u044c\u0120": 4465, "\u043f\u0438\u0441\u0442\u043e": 4466, "\u0438\u0437\u0431\u0440\u0430": 4467, "\u0441\u043a\u043e\u0440": 4468, "\u0421\u043f\u0430": 4469, "\u0442\u0430',\u0120": 4470, "\u044d\u043a\u0441\u043f\u043b\u0443\u0430\u0442\u0430": 4471, "\u043f\u0440\u0430\u0432\u043b\u0435\u043d\u0438\u044f\u0120": 4472, "\u043b\u044e\u0434\u0435\u0439,\u0120": 4473, "\u043e\u0447\u0435\u0440\u0435\u0434\u044c,\u0120": 4474, "\u0436\u0443\u0440\u043d\u0430\u043b\u0438\u0441\u0442\u0430\u043c\u0120": 4475, "\u0441\u0442\u0430\u0432\u0438\u043b\u0120": 4476, "\u041a\u043e\u043c\u0438\u0442\u0435": 4477, "\u043f\u044f\u0442\u0438\u0120": 4478, "\u041a\u043e\u043d\u0441\u0442\u0438\u0442\u0443": 4479, "\u0437\u0430\u044f\u0432\u0438\u043b\u0430\u0120": 4480, "\u0421\u043e\u0432\u0435\u0442\u0430\u0120": 4481, "\u0434\u0435\u043d\u0435\u0433\u0120": 4482, "\u043f\u043e\u043e\u0431\u0435\u0449\u0430": 4483, "\u0442\u0443\u0442\u0120": 4484, "\u043e\u0431\u044a\u0435": 4485, "\u0432\u043e\u0435\u043d\u043d\u043e\u0441\u043b\u0443\u0436\u0430": 4486, "\u0421\u0423\u0120": 4487, "\u0434\u043e\u0432": 4488, "\u0442\u0438\u0440\u043e\u0432\u0430\u0442\u044c\u0120": 4489, "\u044f\u043d\u0432\u0430": 4490, "\u0441\u043b\u0443\u0436\u0435\u0431": 4491, "\u0438\u0434": 4492, "\u043b\u0430\u0445\u0120": 4493, "\u043f\u0430\u043d\u0438\u044f\u0120": 4494, "\u0444\u0435\u0120": 4495, "\u0447\u0435\u0442": 4496, "\u043b\u044b,\u0120": 4497, "\u0432\u043c\u0435\u0441\u0442\u043e\u0120": 4498, "\u0438\u0441\u043a\u0120": 4499, "\u0432\u0448\u0438\u0439\u0441\u044f\u0120": 4500, "\u043d\u0430\u0433\u0440\u0430": 4501, "\u043f\u0440\u0438\u0447\u0430\u0441\u0442": 4502, "\u0441\u0435\u0440\u0435\u0434\u0438": 4503, "\u0442\u0440\u0443\u0434\u043e": 4504, "\u0440\u043e\u0432\u0430\u043d\u043d\u044b\u0445\u0120": 4505, "\u0440\u0430\u0437\u0430\u0120": 4506, "\u0435',\u0120": 4507, "\u0441\u043d\u043e": 4508, "\u0448\u0430\u0442\u044c\u0120": 4509, "\u0445\u043e\u0434\u043e\u0432\u0120": 4510, "\u0432\u043e\u0441\u0441\u0442\u0430\u043d\u043e": 4511, "\u0441\u043b\u0443\u0447\u0438": 4512, "\u0441\u043d\u0430\u0431": 4513, "\u0428\u0443": 4514, "\u041c\u0418\u0414\u0120": 4515, "\u0432\u0447\u0435\u0440\u0430\u0120": 4516, "\u0434\u043e\u043b\u043b\u0430\u0440\u0430\u0120": 4517, "\u043e\u0442\u0434\u044b": 4518, "\u043a\u043e\u0440\u043f\u043e\u0440\u0430": 4519, "\u043b\u044c\u043d\u043e\u043c\u0443\u0120": 4520, "\u043d\u0438.\u0120": 4521, "\u0413\u0423\u0412\u0414\u0120": 4522, "\u043f\u0440\u043e\u0445\u043e\u0434\u0438\u0442\u0120": 4523, "\u043f\u043e\u0442\u0435\u0440\u044f": 4524, "\u0442\u0435\u043b\u044c\u043d\u0430\u044f\u0120": 4525, "\u043a\u0438\u043d\u0120": 4526, "\u0433\u043e\u0441\u043f\u0438\u0442\u0430\u043b\u0438\u0437\u0438\u0440\u043e\u0432\u0430": 4527, "\u0412\u0435\u043b\u0438\u043a\u043e\u0431\u0440\u0438\u0442\u0430": 4528, "\u0440\u0430\u0431\u043e\u0442\u0430\u043b\u0120": 4529, "\u0441\u044e": 4530, "\u043f\u043e\u0434\u043d\u044f": 4531, "\u043d\u0430\u0434\u0437\u043e": 4532, "\u0437\u043e\u043b\u043e": 4533, "\u041c\u0438\u043d\u043e\u0431\u043e\u0440\u043e": 4534, "\u0440\u0435\u0434\u0430\u043a": 4535, "\u041f\u043e\u043a\u0430\u0120": 4536, "\u0434\u043e\u043b\u0436\u043d\u043e\u0441\u0442": 4537, "\u0441\u043e\u0435\u0434\u0438": 4538, "\u043e\u043d\u043e\u0120": 4539, "\u043a\u043e\u043c\u043f\u043b\u0435\u043a\u0441\u0430\u0120": 4540, "\u0448\u043a\u043e\u043b\u044c": 4541, "'\u041a\u043e\u043c": 4542, "\u043c\u0438\u0440\u0430\u043b": 4543, "\u043c\u043e\u0434\u0435": 4544, "\u041f\u0440\u0435\u0434\u0441\u0442\u0430\u0432\u0438": 4545, "\u0443\u0431\u0438\u0439\u0441\u0442\u0432\u0435\u0120": 4546, "\u0437\u0430\u043a\u043e\u043d\u043e\u043f\u0440\u043e\u0435\u043a": 4547, "\u0441\u0442\u0435\u043d": 4548, "\u0433\u043e\u0442\u043e\u0432\u044b\u0120": 4549, "\u0441\u043c\u043e\u0436\u0435\u0442\u0120": 4550, "\u0440\u0443\u043a\u043e\u0432\u043e\u0434\u0441\u0442\u0432\u043e\u0120": 4551, "\u0437\u0430\u043f\u0430": 4552, "\u0431\u043e\u0435\u0432\u0438": 4553, "\u043e\u0434\u0435": 4554, "'\u0424\u043e\u043d\u0442\u0430\u043d\u043a\u0438'.\u0120": 4555, "6,": 4556, "\u0440\u043e\u0432\u0430\u043d\u044b\u0120": 4557, "\u043f\u043e\u043b\u043d\u0435\u0120": 4558, "\u0438\u044e\u043d\u044f": 4559, "\u043e\u0431\u043d\u0430\u0440\u0443\u0436\u0438\u043b\u0438\u0120": 4560, "\u0430\u043c\u0438\u0120": 4561, "\u043e\u0431\u0449\u0430": 4562, "\u0438\u0441\u043a\u043e": 4563, "\u0437\u0430\u0432": 4564, "\u0417\u0430\u043a\u043e\u043d\u043e": 4565, "\u0415\u0432\u0433\u0435\u043d\u0438\u0439\u0120": 4566, "\u0412\u0438\u043a\u0442\u043e\u0440\u0120": 4567, "\u0433\u043e\u0434.\u0120": 4568, "\u0443\u043f\u0440\u0430\u0432\u043b\u0435\u043d\u0438\u0435\u0120": 4569, "\u0413\u043e\u0441\u0434\u0443\u043c\u044b\u0120": 4570, "\u0435e\u0120": 4571, "\u0440\u044b\u043d\u043a\u0430\u0120": 4572, "\u0430\u0445\u0120": 4573, "\u0446\u0430\u043c\u0120": 4574, "\u043e\u0431\u0440\u0430\u0442\u0438\u043b\u0441\u044f\u0120": 4575, "\u0440\u0443\u043a\u043e\u0432\u043e\u0434\u0438\u0442\u0435\u043b\u044f\u0120": 4576, "\u043f\u0440\u043e\u0438\u0437\u043e\u0448\u0435\u0434": 4577, "\u043d\u0430\u0447\u0430\u043b\u0120": 4578, "\u0413\u0418\u0411\u0414\u0414\u0120": 4579, "ra": 4580, "\u0432\u0441\u043a\u043e\u043c\u0120": 4581, "\u0441\u043e\u0441\u0442\u0430\u0432\u0438\u0442\u0120": 4582, "\u0436\u043d\u043e\u0120": 4583, "\u0411\u043e\u043b\u0435\u0435\u0120": 4584, "\u0446\u0438\u043e\u043d\u0438": 4585, "\u0441\u0442\u0432.\u0120": 4586, "\u0434\u043d\u0435\u043c\u0120": 4587, "\u043b\u0438\u043d\u0438\u0438\u0120": 4588, "\u0412\u0412": 4589, "\u043f\u0430\u0441\u0441\u0430\u0436\u0438\u0440\u043e\u0432\u0120": 4590, "\u0432\u0440\u0435\u043c\u0435\u043d\u0438": 4591, "\u043e\u0433\u0440\u0430": 4592, "\u0441\u0442\u0440\u0430\u043d\u044b.\u0120": 4593, "re": 4594, "\u0432\u0448\u0438\u0435\u0441\u044f\u0120": 4595, "Lenta": 4596, "\u0432\u0435\u0441\u0442\u0438": 4597, "\u0434\u0435\u043b\u0430\u0442\u044c\u0120": 4598, "\u0442\u0435\u0430\u0442\u0440\u0430": 4599, "\u0446\u0430.\u0120": 4600, "\u0441\u0441\u043e\u0446\u0438\u0430": 4601, "\u043c\u0438\u043d\u0443\u0442\u0120": 4602, "\u043a\u043b\u0430\u0434\u044b": 4603, "\u043b\u0435\u0442\u0430\u0120": 4604, "'\u0422\u0435": 4605, "\u043b\u043e\u0432,\u0120": 4606, "\u043a\u043e\u043c\u0430\u043d\u0434\u044b\u0120": 4607, "\u0447\u0435\u0441\u043a\u0443\u044e\u0120": 4608, "\u0447\u0430\u0441\u0430\u0120": 4609, "\u0440\u0438\u043d\u0430\u0120": 4610, "\u043b\u043b\u0435\u0442": 4611, "\u0434\u0435\u043f\u0443\u0442\u0430\u0442\u044b\u0120": 4612, "\u043d\u043e\u0441\u0442\u044c.\u0120": 4613, "\u043c\u0438\u0440\u0430\u043b\u0442\u0435\u0439": 4614, "\u0434\u0430\u0435\u0442\u0120": 4615, "\u0434\u0432\u0430": 4616, "\u043d\u0435\u043e\u0434\u043d\u043e": 4617, "\u0434\u0435\u0439\u0441\u0442\u0432\u0438\u0439\u0120": 4618, "\u0442\u0435\u0440\u0440\u043e\u0440\u0438\u0441\u0442\u0438": 4619, "\u043f\u0440\u043e\u0441\u043f\u0435\u043a\u0442\u0430\u0120": 4620, "\u0441\u044b\u0433\u0440\u0430": 4621, "\u0440\u044e": 4622, "\u043e\u0441\u043c\u043e": 4623, "\u0442\u0443\u0440\u043d\u0438": 4624, "\u0443\u0441\u0442\u0440\u0430": 4625, "\u0438\u043d\u0438\u0446\u0438\u0430\u0442\u0438\u0432": 4626, "\u0437\u0430\u044f\u0432": 4627, "\u0433\u043e\u0440\u0430": 4628, "\u0418\u0422\u0410": 4629, "\u0440\u0438\u043b\u0120": 4630, "\u0435\u043c\u043e\u0439\u0120": 4631, "\u043c\u043d\u043e\u0433\u0438\u0445\u0120": 4632, "Re": 4633, "'\u041c\u043e": 4634, "\u0435\u043d\u0120": 4635, "\u043c\u0435\u0446": 4636, "35\u0120": 4637, "\u041c\u0435\u0436\u0434\u0443\u0120": 4638, "ru": 4639, "\u0433\u0440\u0443\u043f\u043f\u0438": 4640, "\u0432\u043e\u0434\u0438\u0442\u0120": 4641, "\u043e\u0431\u043b\u0430\u0441\u0442": 4642, "\u041f\u0443\u0442\u0438\u043d": 4643, "\u0443\u0432\u0435\u043b\u0438\u0447": 4644, "\u043f\u043e\u0434\u0440\u043e\u0431": 4645, "').\u0120": 4646, "\u0441\u0430\u043b\u043e": 4647, "\u0422\u0410\u0421\u0421\u0120": 4648, "\u043a\u0442\u043e\u0440\u0120": 4649, "\u043c\u0430\u043b\u043e": 4650, "\u043e\u043f\u0440\u0435\u0434\u0435\u043b\u0438": 4651, "\u043a\u0430\u0436\u0435": 4652, "\u0431\u043b\u043e\u043a\u0438": 4653, "\u043f\u0440\u043e\u0432\u043e\u0434\u0438\u0442\u0441\u044f\u0120": 4654, "\u043d\u044c": 4655, "\u0430\u043a\u0446\u0438\u0439\u0120": 4656, "\u0420\u043e\u0441\u0441\u0438\u044e\u0120": 4657, "\u0447\u043d\u044b\u043c\u0120": 4658, "\u043a\u043e\u043d\u0435\u0447\u043d\u043e,\u0120": 4659, "\u043d\u0435\u043a\u043e\u0442\u043e\u0440\u044b\u0445\u0120": 4660, "\u043e\u0442\u0435\u0447\u0435": 4661, "\u041f\u043e\u0431\u0435": 4662, "\u0446\u0438\u043e\u043d\u043d\u044b\u0435\u0120": 4663, "\u0438\u043c\u0435\u044e\u0442\u0120": 4664, "\u0433\u043e\u0441\u0443\u0434\u0430\u0440\u0441\u0442\u0432\u0435\u043d\u043d\u043e\u0433\u043e\u0120": 4665, "\u0441\u043d\u043e\u0432\u0430\u0120": 4666, "\u043f\u043e\u0441\u0435\u0442\u0438": 4667, "\u043d\u0430\u0448\u0438\u0445\u0120": 4668, "!'\u0120": 4669, "\u0441\u0432\u043e\u0431\u043e\u0434\u044b\u0120": 4670, "\u0421\u0431\u0435\u0440": 4671, "\u0447\u0435\u043b\u043e\u0432\u0435\u043a\u0430,\u0120": 4672, "\u0442\u0440\u0430\u043d\u0441\u043f\u043e\u0440\u0442\u0430\u0120": 4673, "\u043e\u0441\u0442\u0430\u043d\u043e\u0432": 4674, "\u043c\u0438\u043a\u0440\u043e": 4675, "\u043a\u0440\u043e\u043c\u0435\u0120": 4676, "\u0443\u0447\u0430\u0441\u0442\u043d\u0438\u043a\u0438\u0120": 4677, "\u043d\u0430\u043d\u0435": 4678, "\u0433\u0440\u0430\u0434\u0443": 4679, "\u0430\u0432\u0430\u0440\u0438\u0439": 4680, ".30\u0120": 4681, "\u0418\u0422\u0410\u0420-": 4682, "\u043b:\u0120": 4683, "'\u042d\u0442\u043e\u0120": 4684, "\u0410\u043a": 4685, "\u0444\u0438\u043b\u0438": 4686, "\u0432\u044b\u043d\u0443": 4687, "-\u043b\u0435\u0442\u043d\u044f\u044f\u0120": 4688, "\u0442\u043d\u0443\u044e\u0120": 4689, "\u0440\u0435\u0430\u043b\u0438\u0437\u0430\u0446\u0438\u0438\u0120": 4690, "\u043c\u0430\u0441\u0448\u0442\u0430": 4691, "\u0444\u043e\u0440\u043c\u0438\u0440\u043e": 4692, "\u043f\u0435\u0440\u0432\u043e": 4693, "\u043f\u043e\u0433\u0438\u0431\u0448\u0438\u0445\u0120": 4694, "\u0442\u0447\u0438": 4695, "\u0441\u0442\u0440\u0430\u0442\u0435": 4696, "\u0440\u0435\u0441\u0442\u043e\u0440\u0430": 4697, "\u043d\u0435\u0437\u0430\u0432\u0438\u0441\u0438": 4698, "\u043f\u043e\u0442\u0435": 4699, "\u0435\u0449e\u0120": 4700, "-\u0442\u0430\u043a\u0438\u0120": 4701, "\u0441\u043e\u0445\u0440\u0430\u043d": 4702, "\u0432\u043d\u0443\u0442\u0440\u0435\u043d\u043d\u0438\u0445\u0120": 4703, "\u0440\u0443.\u0120": 4704, "\u0432\u0443.\u0120": 4705, "\u0414\u0435\u043d\u0438": 4706, "\u0441\u043a\u043e\u0440\u0435\u0435\u0120": 4707, "\u0431\u0435\u043b\u043e": 4708, "\u0441\u0444\u0435\u0440\u0435\u0120": 4709, "\u0432\u044b\u0438\u0433\u0440\u0430": 4710, "\u0447\u0435\u043d\u0438\u044e\u0120": 4711, "\u0441\u044b,\u0120": 4712, "\u043f\u0440\u043e\u0438\u0441\u0448\u0435\u0441\u0442\u0432\u0438\u044f\u0120": 4713, "\u0440\u044f\u0434\u0430\u0120": 4714, "\u0433\u0443\u0431\u0435\u0440\u043d\u0430\u0442\u043e\u0440": 4715, "\u043f\u043b\u0435": 4716, "\u043f\u0440\u043e\u0441\u043f\u0435\u043a\u0442\u0443\u0120": 4717, "\u0415\u043a\u0430\u0442\u0435\u0440\u0438": 4718, "\u0420\u0430\u0431\u043e": 4719, "\u041e\u0434\u043d\u0430\u043a\u043e,\u0120": 4720, "\u0410\u043d\u0430\u0442\u043e\u043b\u0438": 4721, "\u0441\u043e\u0432\u0435\u0440\u0448\u0435\u043d\u0438\u0438\u0120": 4722, "\u0439:\u0120": 4723, "\u0435\u0434\u0438\u043d\u043e": 4724, "\u0413\u0430\u0437\u0435\u0442\u0430.": 4725, "\u0441\u0443\u043f\u0440\u0443": 4726, "\u043b\u0435\u0436\u0438\u0442\u0120": 4727, "\u0434\u0438\u043f\u043b\u043e": 4728, "\u0415\u0433\u0438": 4729, "\u0411\u0430\u043b\u0442\u0438\u0439": 4730, "\u0447\u0435\u043d\u0438\u0435\u043c\u0120": 4731, "\u0432\u044b\u0431\u043e\u0440\u043e\u0432\u0120": 4732, "\u0447\u0435\u043c\u043f\u0438\u043e\u043d\u0430\u0442\u0430\u0120": 4733, "\u0434\u0435\u0440\u0435\u0432": 4734, "\u043e\u0442\u043d\u043e\u0448\u0435\u043d\u0438\u044f\u0120": 4735, "\u043e\u043f\u0435\u0440\u0430\u0446\u0438\u0438\u0120": 4736, "\u0442\u0435\u043c\u043f\u0435\u0440\u0430": 4737, "\u043d\u0430\u0439\u0442\u0438\u0120": 4738, "\u043b\u0438\u0437\u043e": 4739, "\u0447\u0430\u0441\u0442\u0438": 4740, "\u0442\u0438\u0440\u043e\u0432\u0430\u043b\u0120": 4741, "\u0432\u0435\u0440\u0442\u043e": 4742, "\u0447\u0430\u0439": 4743, "198": 4744, "\u043f\u0440\u0430\u043a\u0442\u0438": 4745, "\u043a\u0438\u0441\u0442\u0430": 4746, "\u043c\u043e\u043a\u0440\u0430": 4747, "\u0432\u044b,\u0120": 4748, "\u0432\u0437\u0430\u0438\u043c\u043e": 4749, "\u041e\u0434\u0438\u043d\u0120": 4750, "\u0446\u0435\u043b\u044c\u044e\u0120": 4751, "\u043a\u0438\u043c\u0438\u0120": 4752, "\u043e\u0434\u043e\u0431": 4753, "\u0441\u043e\u0446\u0438\u0430\u043b\u044c\u043d\u043e\u0439\u0120": 4754, "\u0441\u0442\u043e\u0440\u043e\u043d\u0443\u0120": 4755, "\u043f\u043b\u0430\u0442\u0438\u0442\u044c\u0120": 4756, "\u043c\u043d\u0435\u043d\u0438\u044e,\u0120": 4757, "\u0446\u0435\u0120": 4758, "\u043e\u043a\u0430\u0437\u044b\u0432\u0430": 4759, "\u0433\u0438\u0435\u0120": 4760, "\u0411\u0430\u0440": 4761, "\u0421\u043e\u044e": 4762, "\u043c\u043e,\u0120": 4763, "\u0432\u043e\u043e\u0440\u0443\u0436\u0435\u043d": 4764, "\u0447\u043a\u0438\u0120": 4765, "\u0412\u044b\u0120": 4766, "\u0441\u0435\u0432\u0435\u0440": 4767, "\u043f\u043e\u0441\u0432\u044f\u0449\u0435\u043d": 4768, "\u043f\u043b\u0430\u043d\u0438\u0440\u0443\u0435\u0442\u0120": 4769, "\u0432\u0441\u044e\u0120": 4770, "\u043f\u0440\u0435\u0434\u0432\u0430\u0440\u0438\u0442\u0435\u043b\u044c\u043d\u043e\u0439\u0120": 4771, "\u043b\u0430\u043c\u0438\u0120": 4772, "\u0413\u0440\u0435": 4773, "\u043f\u043e\u043a\u0443\u043f": 4774, "\u043b\u0438\u0441\u044c,\u0120": 4775, "\u043f\u0440\u043e\u0432\u0435\u0440\u044f": 4776, "'\u0424\u043e\u043d\u0442\u0430\u043d\u043a\u0430'\u0120": 4777, "\u0442\u0430\u043c,\u0120": 4778, "\u0440\u0443\u0431\u043b\u044f\u0120": 4779, "\u043f\u0440": 4780, "\u044e\u0442\u0441\u044f.\u0120": 4781, "\u0440\u0430\u0437\u0431\u0438": 4782, "\u0441\u043a\u043e\u0439,\u0120": 4783, "\u0437\u0430\u0441\u0442\u0440\u043e\u0439\u0449\u0438": 4784, "ol": 4785, "\u043f\u0440\u0438\u0437\u043d\u0430\u043b\u0120": 4786, "\u0441\u0440\u0430\u0432\u043d\u0435\u043d\u0438\u044e\u0120": 4787, "\u0447\u0435\u0441\u043a\u043e\u0435\u0120": 4788, "\u0436\u0435\u043d\u0449\u0438\u043d\u0430\u0120": 4789, "\u0441\u0447\u0438\u0442\u0430\u0435\u0442,\u0120": 4790, "\u043b\u0438\u0446\u0435\u043d": 4791, "\u0432\u043e-": 4792, "\u041f\u0440\u0438\u0447\u0438": 4793, "\u043a\u0430:\u0120": 4794, "\u0434\u044c": 4795, "\u042f\u043f\u043e": 4796, "\u0424\u043e\u043d\u0442\u0430\u043d\u043a\u0430.\u0440\u0443\u0120": 4797, "\u0440\u0435\u043c\u043e": 4798, "\u043be": 4799, "\u0442\u0435\u043b\u044c\u043d\u043e,\u0120": 4800, "\u0438\u0441\u043f\u043e\u043b\u043d\u0438\u0442\u0435\u043b\u044c": 4801, "\u043d\u0441\u043a\u0438\u0439\u0120": 4802, "\u0447\u0435\u0442\u044b\u0440\u0435\u0445\u0120": 4803, "\u0432\u0435\u0441\u044c\u0120": 4804, "\u043f\u0440\u0438\u0437\u044b": 4805, "\u0433\u0440\u0430\u0434\u043e": 4806, "\u0431\u043b\u0430\u0433\u043e\u0442\u0432\u043e\u0440\u0438": 4807, "\u041c\u0438\u0440\u043e": 4808, "\u0441\u043d\u044b\u0445\u0120": 4809, "\u0421\u0442\u043e\u0438": 4810, "\u043e\u043b\u043e": 4811, "\u043d\u0435\u0435,\u0120": 4812, "\u0444\u043e\u043d\u0434\u0430\u0120": 4813, "\u043f\u0440\u0435\u0434\u043e\u0441\u0442\u0430\u0432\u043b\u044f": 4814, "\u043e\u0431\u0435\u0441\u043f\u0435\u0447\u0438": 4815, "\u0434\u0432\u043e\u043a\u0430": 4816, "\u0441\u0431\u0438": 4817, "\u0445\u043e\u0447\u0435\u0442\u0120": 4818, "\u0442\u044c'\u0120": 4819, "\u043d\u0435\u043d\u0438\u0438\u0120": 4820, "\u0432\u043f\u043e\u043b\u043d\u0435\u0120": 4821, "\u0432\u043e\u0441\u043f\u0438": 4822, "\u0420,\u0120": 4823, "\u043c\u0430\u0442\u0447\u0120": 4824, "'\u042e": 4825, "\u043c\u0430\u0448\u0438\u043d\u044b\u0120": 4826, "\u043f\u0440\u043e\u0432\u0435\u0434\u0435\u043d\u0438\u0435\u0120": 4827, "\u0432\u043b\u0435\u043d\u043d\u044b\u0445\u0120": 4828, "\u043a\u043e\u043c,\u0120": 4829, "\u0449\u0435\u043d\u0120": 4830, "\u0436\u0438\u0437\u043d\u044c\u0120": 4831, "\u0447\u043d\u043e\u0435\u0120": 4832, "\u0441\u043a\u0430\u043d\u0434\u0430": 4833, "\u043c\u0435\u0441\u044f\u0446\u0430\u0120": 4834, "\u0431\u0443\u0434\u0435\u043c\u0120": 4835, "\u043e\u043a\u0120": 4836, "\u043c\u043e\u0442\u0438": 4837, "\u043f\u043e\u0434\u043e\u0437\u0440": 4838, "\u043d\u0430\u0437\u0432\u0430\u043b\u0120": 4839, "2005\u0120": 4840, "\u0445',\u0120": 4841, "\u0433\u043b\u0430\u0432\u043d\u043e\u0433\u043e\u0120": 4842, "'\u0421\u0430": 4843, "\u0446\u0438\u0444": 4844, "\u043e\u0442\u043c\u0435\u043d\u0438": 4845, "\u0447\u0430\u0442\u044c\u0120": 4846, "\u0441\u0442\u043e\u043b\u043a\u043d\u0443": 4847, "\u043c\u0430\u043a\u0441\u0438\u043c\u0430": 4848, "7,": 4849, "\u0414\u0435\u043b\u043e\u0120": 4850, "\u044d\u0432\u0430\u043a\u0443\u0438": 4851, "\u0421\u043f\u0435": 4852, "\u0434\u043e\u043b\u0433\u043e": 4853, "\u043b\u044f\u0445\u0120": 4854, "\u0440\u0435\u0436\u0438\u0441\u0441\u0435": 4855, "\u043f\u043e\u0434\u0434\u0435\u0440\u0436\u043a\u0443\u0120": 4856, "\u043f\u0435\u0440\u0441\u043f\u0435\u043a": 4857, "\u0434\u0435\u0441\u044f\u0442": 4858, "\u041a\u0440\u0438": 4859, "\u043c\u0435\u043d\u043d\u043e\u0120": 4860, "\u043e\u0441\u043e\u0431\u043e\u0120": 4861, "\u0443\u0441\u0438\u043b\u0438": 4862, "\u0418\u043d\u0442\u0435\u0440\u043d\u0435": 4863, "\u043e\u0442\u043a\u043b\u044e": 4864, "\u043a\u043e\u043c\u043f\u0430\u043d\u0438\u0438.\u0120": 4865, "\u0411\u0120": 4866, "\u0424\u0421\u0411\u0120": 4867, "\u0430\u0440\u0445\u0438\u0442\u0435\u043a": 4868, "\u0431\u0440\u0438\u0442\u0430\u043d": 4869, "22": 4870, "\u0421\u043f\u0440\u0430\u0432": 4871, "\u0441\u0442\u043e\u043b\u043a\u043d\u043e\u0432": 4872, "\u0410\u0434\u0432\u043e\u043a\u0430": 4873, "\u043a\u0432\u0430\u0434\u0440\u0430\u0442\u043d\u044b\u0445\u0120": 4874, "\u0441\u0442\u0440\u0120": 4875, "\u043d\u0430\u043f\u043e\u043c\u043d\u0438": 4876, "\u0440\u043e\u0441\u0441\u0438\u044f\u043d\u0120": 4877, "\u0421\u0430\u043d\u043a\u0442-\u041f\u0435\u0442\u0435\u0440\u0431\u0443\u0440\u0433\u0435\u0120": 4878, "\u043d\u0438\u043c\u0438\u0120": 4879, "\u0442\u0435\u0440\u0430\u0120": 4880, "\u0447\u043d\u0443\u044e\u0120": 4881, "\u043c\u0435\u043d\u044c\u0448\u0435\u0120": 4882, "\u0442\u043e\u0447\u043a\u0438\u0120": 4883, "\u043d\u0435\u0443": 4884, "\u0440\u0435\u0437\u043e": 4885, "\u043f\u043e\u0445\u043e": 4886, "\u0421\u043e\u0442\u0440\u0443\u0434\u043d\u0438\u043a\u0438\u0120": 4887, "\u041e\u043a": 4888, "\u043b\u0435\u043c\u0120": 4889, "\u0420\u0435\u0441": 4890, "-\u043b\u0438\u0431\u043e\u0120": 4891, "\u0441\u043f\u0435\u043a\u0442\u0430\u043a": 4892, "\u0443\u0440\u043e\u0432\u043d\u0435\u0120": 4893, "\u043e\u0442\u043c\u0435\u0442\u0438\u043b\u0438\u0120": 4894, "\u043a\u043e\u043b\u043e\u0433\u0438": 4895, "\u0441\u043e\u043e\u0431\u0449\u0435\u043d\u0438\u0435\u0120": 4896, "\u043a\u043e\u0440\u0430\u0431": 4897, "\u043a\u0430\u0431\u0438": 4898, "\u0432\u044b\u0440\u0430\u0437\u0438": 4899, "\u041a\u041f": 4900, "\u0440\u0435\u0448\u0435\u043d": 4901, "\u042d\u0440": 4902, "\u044d\u0444\u0438": 4903, "\u0448\u0435\u0441\u0442\u044c\u0120": 4904, "\u043e\u0437\u043d\u0430": 4905, "\u041e\u0431\u0430": 4906, "\u0441\u043e\u0432\u0441\u0435\u043c\u0120": 4907, "\u043c\u0430\u0442\u0447\u0430\u0120": 4908, "\u0420\u043e\u0441\u0441\u0438\u044f'\u0120": 4909, "\u0420\u0435\u0441\u043f\u0443\u0431\u043b\u0438": 4910, "\u0447\u0438\u043a\u0430\u0120": 4911, "\u0432\u0435\u043b\u0438\u0120": 4912, "\u041f\u0440\u0430": 4913, "\u0438\u0437\u043c\u0435\u043d\u0435\u043d\u0438\u044f\u0120": 4914, "\u0432\u043e\u043a\u0440\u0443\u0433\u0120": 4915, "\u0443\u0440\u043e\u0432\u0435\u043d\u044c\u0120": 4916, "\u0442\u043e\u043c.\u0120": 4917, "\u0442\u0435\u043b\u044f,\u0120": 4918, "\u043e\u043d,\u0120": 4919, "\u041f\u0443\u0442\u0438\u043d\u0430\u0120": 4920, "\u0434\u0435\u043f\u0430\u0440\u0442\u0430": 4921, "\u0449\u0430\u0442\u044c\u0120": 4922, "\u0432\u044b\u0431\u043e\u0440": 4923, "\u043d\u0430\u0440\u0443\u0448\u0438": 4924, "\u0432\u0448\u0435\u0433\u043e\u0441\u044f\u0120": 4925, "\u0437\u0432\u0435\u0437": 4926, "\u0440\u043e\u043a\u0120": 4927, "\u043f\u0435\u043d\u0441\u0438\u043e\u043d\u0435": 4928, "\u043c\u0435\u0442\u0440\u043e\u043f\u043e\u043b\u0438": 4929, "\u0441\u0435,\u0120": 4930, "\u043a\u043e\u043d\u043a\u0443\u0440\u0435\u043d": 4931, "\u0435\u043c.\u0120": 4932, "\u0422\u0430\u0442\u044c\u044f": 4933, "\u043b-": 4934, "\u043f\u043e\u043b\u0443\u0447\u0438\u043b\u0430\u0120": 4935, "\u0447\u0430\u0435\u0442\u0120": 4936, "\u043a\u0430',\u0120": 4937, "\u0432\u0437\u044b": 4938, "\u043f\u0440\u043e\u0120": 4939, "\u043f\u043b\u043e\u0449\u0430\u0434\u044c\u044e\u0120": 4940, "\u0437\u0430\u043f\u0443": 4941, "\u0440\u0430\u0441\u043a\u0440\u044b": 4942, "\u043f\u043e\u0441\u0442\u0443\u043f\u0438\u043b\u043e\u0120": 4943, "\u043f\u0440\u0438\u0432\u043b\u0435\u043a\u0430": 4944, "\u0441\u0442\u043e\u043c\u0120": 4945, "\u0434\u0435\u043a\u0430\u0431\u0440\u0435\u0120": 4946, "\u044d\u043b\u0435\u043a\u0442\u0440\u0438": 4947, "\u0447\u0435\u043d\u043d\u044b\u0435\u0120": 4948, "\u0443\u043c": 4949, "\u0442\u0440\u043e\u0435\u0120": 4950, "\u043e\u0431\u044a\u044f\u0441\u043d\u044f": 4951, "4-": 4952, "\u0441\u0430\u043c\u044b\u043c\u0120": 4953, "\u0441\u043e\u0431\u044b\u0442\u0438": 4954, "\u0414\u043c\u0438\u0442\u0440\u0438\u044f\u0120": 4955, "\u0441\u043e\u0442": 4956, "21": 4957, "\u0441\u0432\u0430": 4958, "\u0448\u0430\u043d": 4959, "\u0444\u0430\u043a\u0442\u0438\u0447\u0435\u0441\u043a\u0438\u0120": 4960, "\u0441\u0443\u0431\u044a\u0435\u043a": 4961, "\u0433\u043e\u0442\u043e\u0432\u0120": 4962, "\u0448\u0435.\u0120": 4963, "\u043f\u043e\u0441\u0442\u0440\u0430\u0434\u0430\u043b\u0438\u0120": 4964, "\u0440\u043e\u0432\u0430\u043d\u0120": 4965, "\u0447\u0443\u0442\u044c\u0120": 4966, "\u0431\u0443\u043c\u0430": 4967, "\u0442\u043e\u043f\u043b\u0438": 4968, "'\u0420\u0443\u0441": 4969, "\u043e\u0434\u043d\u0443\u0120": 4970, "\u0433\u0443.\u0120": 4971, "\u0430\u0432\u0442\u043e\u043c\u043e\u0431\u0438\u043b\u044c\u0120": 4972, "\u0432\u0440\u0435\u043c\u044f,\u0120": 4973, "\u0440\u0435\u043a": 4974, "\u0442\u0440\u0435\u043d\u0438": 4975, "\u0433\u0438\u0441\u0442\u0440\u0430": 4976, "\u0443\u0441\u043b\u043e\u0432\u0438\u044f\u0445\u0120": 4977, "\u041f\u0440\u043e\u043a\u0443": 4978, "\u043d\u0438\u0446\u0435": 4979, "\u0411\u0435\u0440": 4980, "\u0442\u0440\u0430\u043c\u0432\u0430": 4981, "\u041a\u0440\u0435\u043c": 4982, "\u0441\u0438\u0442\u0443\u0430\u0446\u0438\u044e\u0120": 4983, "\u043c\u043e\u0433\u043e\u0120": 4984, "\u0445\u043e\u0434\u0430\u0442\u0430\u0439": 4985, "\u0435\u043d\u0430\u0120": 4986, "\u043e\u0431\u0440\u0430\u0437\u043e\u0432\u0430\u043d\u0438\u044f\u0120": 4987, "\u0431\u043e\u0440\u0442\u0443\u0120": 4988, "\u043e\u0441\u0442\u0430\u0435\u0442\u0441\u044f\u0120": 4989, "\u0412\u0438\u0442\u0430\u043b\u0438": 4990, "\u0446\u044b,\u0120": 4991, "\u043d\u0435\u0432\u043e\u0437\u043c\u043e\u0436": 4992, "'\u0418\u043d\u0442\u0435\u0440\u0444\u0430\u043a\u0441'.\u0120": 4993, "\u043d\u0438\u0446\u0120": 4994, "\u0441\u0442\u0440\u0435\u043b\u044f": 4995, "\u0441\u043e\u043e\u0431\u0449\u0430\u0435\u0442\u0441\u044f\u0120": 4996, "\u043b\u0438\u0442\u0435": 4997, "\u0433\u0438\u0431\u0435": 4998, "\u0448\u043e\u0441\u0441\u0435\u0120": 4999, "\u0440\u043e\u0432\u0430\u043d\u043e\u0120": 5000, "\u043f\u043e\u043c\u043e\u0433\u0430": 5001, "\u043f\u0438\u043b\u043e": 5002, "\u041e.\u0120": 5003, "\u0432\u043e\u0437\u0433\u043b\u0430\u0432\u043b\u044f": 5004, "\u0441\u0435\u0442\u0435": 5005, "\u0447\u0435\u0441\u043a\u043e\u043c\u0120": 5006, "\u043d\u0430\u0441\u0442\u0430": 5007, "\u043f\u0440\u0435\u0434\u043f\u0440\u0438\u044f\u0442\u0438\u044f\u0120": 5008, "\u0441\u043e\u043f\u0440\u043e\u0432\u043e": 5009, "\u043a\u0432\u0430\u043b\u0438": 5010, "1,5\u0120": 5011, "\u0440\u0438\u0430": 5012, "\u0432\u0430\u043c\u0438\u0120": 5013, "\u0441\u0442\u0440\u043e\u0438\u0442\u0435\u043b\u044c\u0441\u0442\u0432\u0443\u0120": 5014, "\u0438\u0441\u043a\u043b\u044e\u0447\u0438": 5015, "\u0425\u043e\u0442": 5016, "\u0434\u0436\u0430": 5017, ":00\u0120": 5018, "\u0432\u0437\u0440\u044b\u0432": 5019, "\u0414\u0440\u0443": 5020, "\u044e\u0449\u0443\u044e\u0120": 5021, "\u043f\u0440\u043e\u0441\u044c\u0431\u043e\u0439\u0120": 5022, "\u0432\u0438\u0442\u044c\u0120": 5023, "\u0420\u0411": 5024, "\u0441\u043a\u0430\u0437\u0430\u043b\u0430\u0120": 5025, "\u0441\u043e\u0437\u0434\u0430\u0442\u044c\u0120": 5026, "\u043e\u0442\u0440\u0430": 5027, "\u0442\u0435\u043b\u0438,\u0120": 5028, "\u0433\u043e\u0439\u0120": 5029, "\u041f\u0435\u0442\u0435\u0440\u0431\u0443\u0440\u0433\u0443,\u0120": 5030, "'),\u0120": 5031, "\u0433\u0432\u0430\u0440\u0434\u0435\u0439": 5032, "\u0441\u043e\u043e\u0431\u0449\u0435": 5033, "\u043f\u0440\u0438\u0435\u0437": 5034, "\u043a\u043e\u043c\u043f\u044c\u044e": 5035, "\u041e\u0441": 5036, "\u043e\u0442\u0434\u0435\u043b\u0435\u043d\u0438\u044f\u0120": 5037, "\u043e\u0442\u0432\u0435\u0442\u0120": 5038, "\u0441\u0442\u043e\u0432.\u0120": 5039, "\u0432\u0441\u0442\u0440\u0435\u0447\u0438\u0120": 5040, "\u0440\u0430\u0437\u0440\u0443": 5041, "\u043d\u0430\u0438\u0431\u043e\u043b\u0435\u0435\u0120": 5042, "\u0432\u044b\u0441\u043e\u043a\u043e": 5043, "'\u0413\u043e": 5044, "\u043d\u0430\u0445\u043e\u0434\u0438\u043b\u0441\u044f\u0120": 5045, "\u0441\u0442\u044f": 5046, "\u0441\u0434\u0435\u043b": 5047, "\u0420\u0410": 5048, "\u043f\u043e\u0432\u0435": 5049, "\u043e\u0442\u043f\u0443": 5050, "\u0441\u0430\u043c": 5051, "\u0445\u043e\u0442\u044f\u0442\u0120": 5052, "\u0440\u0435\u0437\u0435\u0440": 5053, "\u043e\u0431\u0440\u0430\u0437\u043e\u0432\u0430": 5054, "\u0441\u0442\u043e\u0432\u0435\u0440": 5055, "\u0441\u0430\u0445\u0120": 5056, "\u043d\u0441\u043a\u043e\u043c\u0120": 5057, "\u0440\u043e\u0440": 5058, "\u043f\u0440\u0438\u0447\u0438\u043d\u043e\u0439\u0120": 5059, "\u043f\u043e\u0434\u043f\u0438\u0441\u0430\u043b\u0120": 5060, "\u0430\u0443\u043a": 5061, "\u0436\u0435\u043b\u0435\u0437\u043d\u043e": 5062, "\u0431\u0440\u044c": 5063, "\u043d\u0438\u043a\u0438,\u0120": 5064, "\u0440\u0435\u043c\u043e\u043d\u0442\u0120": 5065, "\u0448\u0438\u0440\u043e": 5066, "\u0440\u0430\u0437\u043d\u044b\u0445\u0120": 5067, "\u0443\u043f\u0430\u043b\u0120": 5068, "\u0410\u043d\u0434\u0440\u0435\u044f\u0120": 5069, "\u0441\u0430\u043c\u043e\u0439\u0120": 5070, "\u041f\u043b\u0430": 5071, "\u0442\u0435\u0430\u0442\u0440\u0430\u0120": 5072, "\u0441\u0442\u0430\u043d\u0434\u0430\u0440": 5073, "\u0431\u043e\u043b\u044c\u0448\u0438\u043d\u0441\u0442\u0432\u043e\u0120": 5074, "\u043f\u043e\u0447\u0435\u043c\u0443\u0120": 5075, "\u0424\u0430": 5076, "\u043f\u0440\u043e\u043a\u0443\u0440\u0430\u0442\u0443\u0440\u044b\u0120": 5077, "\u0445\u043e\u043b": 5078, "\u0443\u0442\u043e\u0447\u043d\u044f": 5079, "\u0438\u043d\u0436\u0435\u043d": 5080, "\u0438\u0441\u043f\u043e\u043b\u044c\u0437\u043e\u0432\u0430\u0442\u044c\u0120": 5081, "\u0443\u0441\u043f\u0435\u0448": 5082, "\u0414\u043e\u043d": 5083, "\u043e\u043f\u0440\u043e\u0432\u0435\u0440": 5084, "\u0433\u043e\u0432\u043e\u0440\u044f\u0442\u0120": 5085, "\u0441\u0442\u0440\u0435\u043b\u044c": 5086, "\u043d\u0430\u0448\u0438\u0120": 5087, "\u0441\u043e\u0432\u0435\u0440\u0448\u0435\u043d\u043d\u043e": 5088, "\u0424\u043e\u0442\u043e": 5089, "\u0433\u0434\u0430": 5090, "\u0440\u0430\u0441\u0441\u0447\u0438\u0442\u044b": 5091, "\u044d\u043a\u043e\u043d\u043e\u043c\u0438\u0447\u0435\u0441\u043a\u043e\u0433\u043e\u0120": 5092, "\u0434\u043d\u0435\u0432": 5093, "\u0444\u0440\u0430\u043d\u0446\u0443\u0437": 5094, "\u043b\u0430\u0434": 5095, "\u0433\u043e\u043d": 5096, "el": 5097, "\u0442\u0435\u043b\u0435\u0444": 5098, "\u043a\u043e\u043f\u0438": 5099, "\u0433\u043d\u0443": 5100, "\u0414\u0432\u043e\u0440\u0446\u043e": 5101, "\u0440\u0435\u0432\u043d\u043e": 5102, "\u0438\u043d\u0434\u0438": 5103, "\u0412\u043e\u043b": 5104, "\u0439-": 5105, "\u0432\u044b\u043f\u043e\u043b\u043d\u044f": 5106, "\u0442\u0438\u0432\u0120": 5107, "400\u0120": 5108, "\u0441\u0438\u0442\u044c\u0120": 5109, "\u043e\u0433\u0440\u043e\u043c": 5110, "\u043f\u043e\u044f\u0441\u043d\u0438\u043b\u0120": 5111, "\u0440\u0443\u043d": 5112, "\u0432\u0438\u043b\u0120": 5113, "\u041a\u0438\u0440\u0438": 5114, "\u043f\u043e\u043b\u0438\u0446\u0438\u044f\u0120": 5115, "\u043d\u0430\u043f\u0438\u0441\u0430\u043b\u0120": 5116, "\u0443\u0447\u0430\u0441\u0442\u0438\u0435\u043c\u0120": 5117, "\u043a\u043e\u043d\u0444\u0435\u0440\u0435\u043d\u0446\u0438\u0438\u0120": 5118, "\u043b\u0435\u043d\u044c": 5119, "\u041c\u0438\u0445\u0430\u0439": 5120, "\u0410\u0432": 5121, "\u0441\u043b\u0430\u0432": 5122, "\u0434\u043e\u043f\u0443\u0441\u0442\u0438": 5123, "\u044f\u043d\u0432\u0430\u0440\u044f": 5124, "\u0443\u0447\u0430\u0441\u0442\u043a\u0435\u0120": 5125, "\u043d\u0430\u0445\u043e\u0434\u0438\u043b\u0438\u0441\u044c\u0120": 5126, "\u0433\u0440\u0443\u0437": 5127, "\u0441\u043e\u0441\u0442\u0430\u0432\u0435\u0120": 5128, "\u0441\u043c\u043e\u0433\u043b\u0438\u0120": 5129, "\u0446.\u0120": 5130, "\u0440\u0430\u0441\u043f\u043e\u043b\u0430\u0433\u0430": 5131, "\u0434\u0435\u043f\u0443\u0442\u0430\u0442\u043e\u0432\u0120": 5132, "\u0432\u0430\u043d\u043d\u044b\u0445\u0120": 5133, "\u0430\u043c\u0120": 5134, "\u0433\u043e\u0432\u043e\u0440\u0438\u043b\u0120": 5135, "\u043c\u0438\u0433\u0440\u0430\u043d": 5136, "\u043b\u0438\u0448\u0438": 5137, "\u0432\u0435\u0434\u043e\u043c\u0441\u0442\u0432\u0430\u0120": 5138, "\u043f\u043e\u0441\u043b\u0435\u0434\u043d\u0438\u0439\u0120": 5139, "\u043f\u0440\u0435\u0441\u0442\u0443\u043f\u043b\u0435\u043d\u0438\u044f\u0120": 5140, "\u043d\u0435\u043e\u0434\u043d\u043e\u043a\u0440\u0430": 5141, "\u041d\u0435\u0432\u0441\u043a\u043e\u0433\u043e\u0120": 5142, "'\u0414\u043e": 5143, "\u0434\u0430\u043b\u0435\u043a\u043e\u0120": 5144, "\u0441\u0442\u044f\u0120": 5145, "\u043d\u0438\u043a\u0443\u0120": 5146, "\u041f\u0435\u0440\u0432\u044b\u0439\u0120": 5147, "\u0443\u0432\u043e": 5148, "\u0432\u0435\u0440\u043e\u044f\u0442": 5149, "\u043f\u043e\u0441\u043e": 5150, "\u0441\u043e\u043b\u044e": 5151, "\u0432\u043e\u0435\u043d\u043d\u043e\u0433\u043e\u0120": 5152, "\u0441\u043e\u0442\u0440\u0443\u0434\u043d\u0438\u043a\u0120": 5153, "\u0441\u043e\u0446": 5154, "\u043a\u0430\u043c\u0438,\u0120": 5155, "\u0427\u0443": 5156, "\u0441\u0445\u0435": 5157, "\u0443\u0447\u0430\u0441\u0442\u043e\u043a\u0120": 5158, "\u043f\u0435\u0440\u0435\u043d": 5159, "\u0434\u0435\u0439\u0441\u0442\u0432\u0438\u0435\u0120": 5160, "\u041e\u041f": 5161, "\u043d\u0430\u0441\u0435\u043b\u0435\u043d\u0438\u044f\u0120": 5162, "\u043a-": 5163, "\u0420\u0422": 5164, "\u043a\u043e\u043c.\u0120": 5165, "\u0430\u0433\u0435\u043d\u0442\u0441\u0442\u0432\u0430\u0120": 5166, "\u0449\u0435\u043d\u044b\u0120": 5167, "\u0447\u0442\u043e-\u0442\u043e\u0120": 5168, "\u043d\u043e\u0447\u044c\u044e\u0120": 5169, "\u043f\u0440\u0435\u0434\u044a": 5170, "\u0447\u0442": 5171, "\u0448\u0442\u0440\u0430\u0444\u043e": 5172, "\u0441\u0447\u0438\u0442\u0430\u044e\u0442\u0120": 5173, "\u0441\u0435\u043a\u0441\u0443\u0430\u043b\u044c": 5174, "\u0434\u0435\u0448\u0435": 5175, "\u0437\u0430\u043b\u0438": 5176, "\u0434\u043e\u0441\u0442\u0430\u0432": 5177, "\u0442\u0443\u0430\u043b\u044c": 5178, "\u0441\u0442\u043e\u043b\u0438\u0446\u0435\u0120": 5179, "\u041d\u0418": 5180, "\u0436\u0430\u0442\u044c\u0120": 5181, "\u0434\u043d\u043e\u0120": 5182, "\u044e\u0442\u0441\u044f,\u0120": 5183, "\u0446\u0438\u044f\u0445\u0120": 5184, "\u043c\u0435\u0442\u043e": 5185, "\u043f\u0440\u043e\u0441\u0442\u0440\u0430\u043d": 5186, "\u0432\u0442\u043e\u0440\u043e\u043c\u0120": 5187, "\u043d\u0435\u043f\u043e\u0441\u0440\u0435\u0434": 5188, "\u041a\u0410": 5189, "\u0432\u0430\u0442\u043e": 5190, "\u043b\u0438\u0448\u043a\u043e\u043c\u0120": 5191, "\u0430\u0434\u0440\u0435\u0441\u0120": 5192, "\u043e\u0431\u044a\u0435\u043c\u0120": 5193, "\u0421\u0428\u0410,\u0120": 5194, "\u0442\u044f\u0436": 5195, "'\u0417\u0430": 5196, "\u043d\u044b\u043c\u0438.\u0120": 5197, "\u041f\u043e\u0434\u0440\u043e\u0431": 5198, "\u043f\u0440\u0438\u0441\u0442\u0430": 5199, "\u044d\u043a\u0441\u0442\u0440\u0435\u043c\u0438": 5200, "\u0446\u0435\u043b\u043e\u043c\u0120": 5201, "\u0410\u043b\u0435\u043a\u0441\u0435\u044f\u0120": 5202, "\u0440\u043e\u0432\u0430,\u0120": 5203, "\u041f\u043e\u043b\u0438\u0446\u0438\u044f\u0120": 5204, "\u0443\u0441\u0442\u0440\u043e\u0438": 5205, "\u0433\u043e\u0440\u043e\u0434\u0441\u043a\u0438\u0445\u0120": 5206, "\u0430\u0431\u043e": 5207, "\u0440\u0430\u0437\u0431\u0438\u0440\u0430": 5208, "\u0441\u0442\u0440\u0430\u0442\u0435\u0433\u0438": 5209, "\u0440\u0435\u0444\u0435\u0440\u0435\u043d": 5210, "\u0441\u043e\u0432\u0435\u0440\u0448\u0435\u043d\u043d\u043e\u043b\u0435\u0442": 5211, "\u043d\u044e\u0120": 5212, "\u0440\u0430\u0431\u043e\u0442\u0430\u0120": 5213, "\u0441\u0438\u043d": 5214, "\u0432\u0435\u0442\u043b\u0430": 5215, "\u044e\u0449\u0438\u0445\u0441\u044f\u0120": 5216, "\u043d\u0435\u043c\u0435\u0446": 5217,
[...]
