#version: 0.2
а Ġ
б Ġ
в Ġ
г Ġ
д Ġ
е Ġ
ё Ġ
ж Ġ
з Ġ
и Ġ
й Ġ
к Ġ
л Ġ
м Ġ
н Ġ
о Ġ
п Ġ
р Ġ
с Ġ
т Ġ
у Ġ
ф Ġ
х Ġ
ц Ġ
ч Ġ
ш Ġ
щ Ġ
ъ Ġ
ы Ġ
ь Ġ
э Ġ
ю Ġ
я Ġ
с т
е н
р о
р а
к о
н о
р е
п о
н и
т о
н а
т е
в о
л ь
в а
р и
н ы
л и
к а
ен и
з а
г о
д е
н аĠ
л е
т а
о б
г оĠ
п ро
в е
л о
д а
л а
н е
с о
в и
д о
т и
ц и
м о
р у
м е
л иĠ
к и
ч е
д и
с ко
ст а
п е
т оĠ
т ьĠ
с и
м и
с яĠ
м а
в ы
б о
п ре
н еĠ
с е
ст в
ч а
п а
п ри
б у
о т
н оĠ
ч и
ст о
п оĠ
о с
ч тоĠ
с а
е тĠ
г а
р ы
но йĠ
х о
те р
с ки
ны хĠ
б ы
те ль
но гоĠ
л аĠ
щ и
л у
т сяĠ
и з
с у
к у
м ен
о н
д у
и н
в л
ж и
п и
ени яĠ
п ра
к иĠ
е р
д аĠ
ст и
н у
ш и
л оĠ
м иĠ
ж еĠ
' ,Ġ
ра з
т аĠ
о р
м ,Ġ
т ь
ве р
г и
ны йĠ
ени еĠ
ко то
с ьĠ
ны еĠ
л яĠ
к аĠ
ж а
т у
ш е
с я
пре д
бу р
д ен
ст иĠ
м уĠ
П е
тер бур
г ра
щ е
з аĠ
ко н
по д
ст ра
б е
з и
ра с
э то
' .Ġ
с ка
ци иĠ
к оĠ
щ а
т ы
со об
п у
и зĠ
2 0
р аĠ
пе ре
н я
ж е
ц ен
л ю
ко м
К а
ва ни
Р ос
ско гоĠ
л я
ско йĠ
ств ен
б и
с по
ф и
в ,Ġ
Пе тербур
в аĠ
ц е
б а
а к
л еĠ
з о
м у
ст ро
т ра
Рос си
в .Ġ
р я
во з
с лу
кото ры
ст ьĠ
н ыĠ
с ле
й ,Ġ
ны мĠ
с пе
ю тĠ
до л
ра бо
г ла
о тĠ
т ыĠ
е тсяĠ
т еĠ
с во
д ляĠ
ро ва
г у
в ре
з на
н к
й .Ġ
но мĠ
т ро
д оĠ
ст у
мо ж
но еĠ
го д
м ы
е мĠ
Петербур г
е гоĠ
де тĠ
ени иĠ
т ,Ġ
П о
ка кĠ
п ла
я ,Ġ
а р
то вĠ
с си
а ль
д ни
де р
го ро
в то
пе р
л ьĠ
л ен
на яĠ
д еĠ
те ле
го во
е ,Ġ
П оĠ
ре д
и ,Ġ
с ло
к ра
л сяĠ
ле к
е к
ч ен
т р
т ре
ст ви
ски йĠ
ж д
но в
б ле
б ыĠ
ть сяĠ
вл я
ка за
ко вĠ
да н
Ка кĠ
т иĠ
ств аĠ
с об
о д
20 1
хо ди
з ы
с еĠ
ль коĠ
Н а
ски хĠ
ш а
та к
ю щи
т уĠ
в ши
ф ор
ств оĠ
к еĠ
с с
м .Ġ
м аĠ
за я
ста ви
в се
о нĠ
и с
ж ен
ме р
в у
ча ст
к уĠ
сто я
па ни
ли сьĠ
по л
Ф он
е йĠ
в я
бу детĠ
ме ст
э тоĠ
р иĠ
х а
да ни
и .Ġ
но стиĠ
по лу
по с
ор га
м ыĠ
сооб ща
Фон та
ти в
го даĠ
т я
з е
ну юĠ
С а
ра й
л ,Ġ
с ь
про цен
т ру
по ли
ни к
бо ль
о на
ле т
е в
па р
это мĠ
ва тьĠ
я .Ġ
н д
к ры
ско мĠ
К о
го ,Ġ
ра н
ком пани
и хĠ
то мĠ
вре м
ло ве
на ча
ска за
ни ма
сооб щи
ру бле
бы лĠ
во д
' Фонта
во ди
е .Ġ
ро в
ва р
че лове
М а
сто ч
так жеĠ
во йĠ
го ло
об ъ
ве т
ци яĠ
ст во
но ,Ġ
Н аĠ
дер жа
ми ни
б ли
да р
ли ц
з у
вл ен
б р
к то
у жеĠ
ко йĠ
р ыĠ
т ри
пра ви
а вто
х ,Ġ
в оĠ
ро вĠ
кото ро
те льĠ
ру п
щ еĠ
ве д
де й
Н о
е з
д ру
про из
бо ле
н яĠ
ро сси
Росси иĠ
бы лоĠ
с мо
0 0Ġ
ски еĠ
к лю
го да
врем яĠ
ени юĠ
м еĠ
ду тĠ
ст е
о наĠ
г даĠ
С о
ты ся
С е
к ре
в сеĠ
ко но
ч то
слу ж
а д
н иĠ
20 0
л ли
ст ре
т ся
с оĠ
ва ,Ġ
ци аль
п ло
М и
З а
ств у
которы еĠ
ста но
стро и
ст ь
ло сьĠ
хо д
не еĠ
ла сьĠ
т .Ġ
сообща етĠ
ко ми
но стьĠ
э к
спо р
зая ви
ш ен
об ла
бы лиĠ
то лькоĠ
у р
ф е
с аĠ
дол ж
ве ст
Р а
пос леĠ
ж да
зи ден
ни ц
па с
фор ма
про ек
орга ни
от ме
ю тсяĠ
с вя
ци юĠ
но вĠ
с лиĠ
на ру
чи та
ко р
т -
ти че
п ы
де ла
А лек
вани яĠ
с ред
и лиĠ
а н
ли ,Ġ
росси й
тру дни
) .Ġ
ю ,Ġ
л ы
п риĠ
сту п
со трудни
В о
ре ш
сточ ник
те лиĠ
г ен
пере да
т вер
бо р
са мо
ны миĠ
ри иĠ
ни ка
ро д
Т а
рабо та
боле еĠ
ми лли
ени йĠ
ма р
И сточник
по ло
Источник :Ġ
ци он
с ен
сле д
г е
об ра
ни кĠ
В а
вы хĠ
из вест
о ко
о к
с ни
в ла
у част
мож етĠ
Г а
е щеĠ
М е
М ос
год уĠ
х и
ска яĠ
зы ва
то р
голо в
к ла
х .Ġ
ста в
но сти
сло ва
в з
от вет
пре зиден
де ра
м л
об и
ин форма
которы йĠ
р еĠ
ль ногоĠ
П у
м ни
то го,Ġ
и спо
бр яĠ
ва .Ġ
Р ФĠ
об ще
чи с
в ше
о ста
ни еĠ
но муĠ
гово ри
пре сс
д ви
ть ,Ġ
ю ще
ль та
теле йĠ
ка н
'Фонта н
де л
ни яĠ
по дĠ
во гоĠ
от но
е еĠ
вы еĠ
Мос к
спе к
Б о
ени я
в ыĠ
он иĠ
полу чи
око лоĠ
пе ра
бу дутĠ
органи за
об о
к е
та кĠ
И н
ш еĠ
ф ак
В ла
до ро
б ер
пи са
го су
за держа
Но во
то ч
М о
во про
не гоĠ
вы йĠ
при ня
пред стави
тыся чĠ
ба н
ре ги
) ,Ġ
об е
госу дар
д ы
пресс -
по р
г иĠ
сле до
ени емĠ
пра вл
ни иĠ
го то
то м,Ġ
ко в
х ра
сто ро
воз мож
зу льта
строи тель
пе тербур
на коĠ
р уĠ
ки ,Ġ
ро мĠ
к вар
з дани
1 9
Петербург аĠ
' С
о бĠ
дей стви
ли ч
тра н
Са нк
к ,Ġ
по мо
что быĠ
ре зульта
пра во
ста н
я н
процен товĠ
Санк т-
и ю
сказа лĠ
ми ,Ġ
ци и,Ġ
при я
ни хĠ
это гоĠ
ко мĠ
горо д
ф о
у ча
об раз
но -
щ ен
ва ри
ла га
ч иĠ
г ро
в еĠ
у голов
ва лĠ
на ли
ни киĠ
та ,Ġ
коми те
а ви
П ро
ц а
о ди
н ен
е ди
Вла ди
ку р
г руп
по мни
п я
ри то
й ча
Н е
ни ковĠ
а ли
ти яĠ
с пи
я вля
служ б
сто и
се год
вани еĠ
П ри
со вĠ
бы лаĠ
ств еĠ
Петербург еĠ
вре мен
но сть
ми .Ġ
про ти
ру ко
к .Ġ
отно ш
со гла
К и
тся ,Ġ
на ,Ġ
те ляĠ
произ о
- лет
тер рито
че мĠ
ку мен
Алек са
н уĠ
с ы
г аĠ
у лиц
о фи
Алекса нд
О бĠ
с чита
ва н
я ви
ва лиĠ
О д
Р И
пу бли
та .Ġ
б ра
ло ги
до мĠ
пу та
ле тĠ
Е в
т ен
ль ныйĠ
ж ден
на то
не йĠ
Б а
ско лькоĠ
м оби
ста вля
ни че
йча сĠ
д об
ль зо
у да
о не
С ер
со вер
РИ АĠ
Влади ми
до кумен
у ч
те ля
ст аĠ
нк е
м ь
м но
за кон
слу ча
ка ,Ġ
про ве
с ку
отме ти
ре кто
ени я,Ġ
Н оĠ
ст ру
сь ,Ġ
при зна
де ль
ни тель
пло ща
' З
ни йĠ
ви де
ки хĠ
о пера
д во
с ла
У кра
ма н
ко гдаĠ
г деĠ
се р
Д е
на д
е мы
и ме
стро й
года .Ġ
процен то
дру ги
ки .Ġ
рубле й.Ġ
ход я
образ о
ски мĠ
д ву
гу тĠ
сту пи
у би
мини стра
кон ц
те х
Н и
с ро
ту а
гра м
с тĠ
ско в
Ф е
о че
прави тель
та мĠ
про вер
'Фонта нке
ступ л
- заĠ
П а
ь юĠ
та .
на ходи
стра н
бы тьĠ
помни м,Ġ
ря д
е слиĠ
об ви
во ен
компани иĠ
до вĠ
па д
квар ти
е стьĠ
у т
переда етĠ
тель ноĠ
ш о
фи на
те ри
про ш
ени я.Ġ
ком п
про спек
со стоя
В и
ко л
в ра
ме тро
' А
ше лĠ
ль нойĠ
про ку
К у
пра в
и мен
ж чи
свя з
ра ту
бе зĠ
ка хĠ
от кры
да ,Ġ
| ВĠ
до м
В е
стра да
б ю
за щи
но .Ġ
по з
1 0Ġ
ю .Ġ
сти .Ġ
На помним,Ġ
су д
ти н
ч ениеĠ
ци и.Ġ
Р е
ди ректо
м пи
Л ен
э коно
Э тоĠ
ко в,Ġ
су дĠ
ж ениеĠ
тр ен
оди нĠ
ка .Ġ
о каза
ж ур
я сни
мо н
мож ноĠ
с киĠ
ад министра
ро меĠ
за ме
не об
С Ш
М В
тран спор
по до
ы ,Ġ
м я
ва яĠ
О нĠ
пред ло
че р
- тоĠ
ны ,Ġ
которы хĠ
петербур г
гла в
площа д
за коно
ли ш
1 0
ч у
ме ся
К он
ка р
ра в
д ваĠ
Б е
е т,Ġ
ж енияĠ
2 0Ġ
л .Ġ
про да
т ныхĠ
3 0Ġ
стру к
'Фонтан ки
с к
из -заĠ
заяви лĠ
гу бер
о неĠ
слова мĠ
сообщи лĠ
де пута
ф а
не тĠ
ла ,Ġ
пла ни
не с
на род
П риĠ
раз ви
ль ныхĠ
ре зĠ
у стано
на .Ġ
се б
не сколькоĠ
сегод няĠ
со ответ
в ле
ра яĠ
о хра
си туа
дол ла
ч енияĠ
' Га
я хĠ
го р
чен ьĠ
са й
Г о
эконо ми
г ру
м оĠ
ны .Ġ
с со
ш ин
помо щ
след стви
дан нымĠ
пресс- служб
сообщи лиĠ
жд уĠ
и мĠ
м н
а в
ющи хĠ
же нĠ
по каĠ
ни каĠ
мини ст
ло мĠ
вши йĠ
Л и
му жчи
авто моби
Р о
прия ти
по зи
за ко
ли .Ġ
ф он
ва етĠ
те ре
ско еĠ
ч ьĠ
уча сти
ности ,Ġ
Од накоĠ
рова н
у правл
не мĠ
по тре
вл ениеĠ
к ри
е вĠ
э ти
до ста
по ги
м ени
необ ходи
кор ре
де ка
Петербур га
я за
ста лоĠ
ве дом
'З ени
де лаĠ
при нима
офи циаль
но во
сс ы
сле ду
в стре
ско муĠ
ль ноĠ
по страда
спо н
мо мен
с ыĠ
Т ак
рова тьĠ
де я
гра ж
о ру
П ос
с че
реш ениеĠ
т раĠ
до маĠ
про грам
фина н
ос у
от ве
ко гоĠ
нару ш
обла стиĠ
ту р
мо гутĠ
ми ли
Т е
си сте
е муĠ
пы та
связ иĠ
де лоĠ
со ве
д ыĠ
ску юĠ
те мĠ
рубле йĠ
ре й
Д о
мо ло
да жеĠ
ш лиĠ
Т о
мест еĠ
д же
хо деĠ
государ ствен
ци йĠ
результа теĠ
че резĠ
у ве
ты ,Ġ
' М
ши хĠ
' О
е тся,Ġ
К ромеĠ
не р
о новĠ
Д ми
Р Ф
с дела
Фе дера
ф ер
д ра
ж из
ки еĠ
е мо
спон ден
это тĠ
вы бо
С у
вер си
и сто
ку ль
б ло
ко в.Ġ
ц о
Ев ро
Дми три
та р
ц аĠ
ци она
о ченьĠ
по да
сооб щ
Р у
ре б
5 0Ġ
у сло
кото раяĠ
тя бряĠ
по жа
у юĠ
на стоя
рай онеĠ
по лага
ш та
б ла
губер нато
ро йĠ
гра ни
ста ть
за клю
С и
вы мĠ
спе р
все хĠ
ы .Ġ
ж ду
об яза
1 5Ġ
в не
груп п
проку рату
горо даĠ
Пу ти
ре ши
воз бу
про дол
это муĠ
проти вĠ
В ы
объ ек
ю т,Ġ
ми ну
ст вĠ
ра к
г еĠ
А р
ющи йĠ
со з
т нойĠ
гра д
ющи еĠ
ра ,Ġ
оче ред
ц ыĠ
ти тьĠ
О О
ссы л
се йчасĠ
бе ре
подо з
при чи
се да
П ре
про бле
ть .Ġ
е м
б из
би ра
вши хĠ
ве де
явля етсяĠ
при мер
это йĠ
по ч
'Фонтанке 'Ġ
ст ва,Ġ
то ,Ġ
но я
раз ме
ка на
я тĠ
дву хĠ
пар ти
су м
це вĠ
ден ь
у до
уби й
ств уĠ
вы со
ме ри
е ха
e r
испо л
ст ва.Ġ
зо пас
жур нали
го ду
фе дера
ссыл койĠ
корре спонден
те ,Ġ
н ,Ġ
ко ,Ġ
про це
ра зĠ
соб ствен
са жи
ин тере
долж ныĠ
во мĠ
Д а
то в,Ġ
мест оĠ
ки мĠ
ст ыĠ
тр иĠ
рабо т
Л е
во с
ма т
Ин тер
зе та.
р оĠ
по се
Ра нееĠ
руко води
жен щи
ну ж
да тель
я мĠ
об нару
А нд
ви д
и но
й 'Ġ
Ми ха
бе зопас
да .Ġ
су т
про ис
1 ,
че скойĠ
мо р
к руп
чис леĠ
ме ждуĠ
со стави
ни ци
за нима
по каза
пре ду
н .Ġ
Росси й
про вед
С мо
ро в,Ġ
дея тель
ос нов
отнош енииĠ
террито рииĠ
э лек
ав гу
е ра
сти ,Ġ
ка че
Ч е
во й
т 'Ġ
Владими рĠ
ка миĠ
рабо тыĠ
не й
п ен
та ли
к лу
лю д
комп лек
ру б
пре ступл
жду народ
ген т
кон кур
мл нĠ
за се
про води
б ря
гла ваĠ
ло сь,Ġ
челове кĠ
Г ла
а пре
ры ,Ġ
поги б
ро в.Ġ
СШ АĠ
с .Ġ
и то
за пре
тся .Ġ
О т
А н
на зна
ос но
сво юĠ
ле нĠ
пре де
ави а
ва ютĠ
зе м
МВ ДĠ
р ен
смо тр
Александ рĠ
ль ныеĠ
испо льзо
ш ко
Н ев
бю дже
б аĠ
у твер
э та
Л ени
с ня
ра м
ин тер
к ли
С М
соз да
обще ствен
отме ча
ри яĠ
за кры
щ енияĠ
в ли
на ло
эк спер
сту па
ре жи
засе дани
о стро
улиц еĠ
вше гоĠ
тре бо
к ну
ма тери
па ра
ли че
Пос леĠ
ени е,Ġ
ш ениеĠ
и м
по сле
ме ди
которо йĠ
Ц ен
пред седа
б ри
ть ся
А ОĠ
ность юĠ
я 'Ġ
к тоĠ
с ноĠ
й тиĠ
1 5
ма яĠ
на мĠ
эк с
ев ра
у ров
на з
ф евра
которо гоĠ
Анд ре
бла го
л ко
гра жда
х ран
пас сажи
ци али
кре ди
кон тро
вл енияĠ
про си
пу сти
л уĠ
года ,Ġ
под дер
са мы
произо ш
сто вĠ
Алек се
к ру
e n
все гоĠ
комите таĠ
рай онаĠ
ч аĠ
ва етсяĠ
ст ва
ми на
ф ут
к си
та н
поз во
ше йĠ
х от
Е слиĠ
слова м,Ġ
об ы
усло ви
су де
че скихĠ
обе спе
под твер
э ро
ж нойĠ
после дни
Г ос
со в
су ще
на р
про ду
о п
Пе тро
г ейĠ
го .Ġ
сь .Ġ
сти ту
лу ч
му ,Ġ
ра .Ġ
ру етĠ
вы пол
ь ,Ġ
че скогоĠ
Сер гейĠ
на б
ста лĠ
дол женĠ
э тиĠ
К рас
не ф
ра нееĠ
де т
П ер
хо ро
вер ну
де те
Укра и
ст ри
ли к
ва тьсяĠ
ство мĠ
ме ро
Г У
1 2Ġ
коми сси
ян вар
0 -
ны м,Ġ
на сĠ
О б
ден ьĠ
обра ти
с ,Ġ
ше гоĠ
я миĠ
жд енияĠ
ст оĠ
л ыĠ
т рĠ
по ку
рай он
а гент
ло в
Г УĠ
у ни
ли чи
свя за
и гра
но р
по яви
Мо сков
обо ро
ве ро
мо стьĠ
ру 'Ġ
ско ль
Ме д
до гово
по ме
во р
ще еĠ
од накоĠ
дру го
себ яĠ
уголов ноеĠ
мери кан
президен таĠ
к ва
це й
Лени н
пу нк
ре сто
пре мь
сво бо
и г
со ставля
П ред
о жи
с ма
нача ль
'Фонтан ка
ву юĠ
то гоĠ
по ряд
ла мен
от каза
ка зыва
момен тĠ
б оĠ
ОО ОĠ
пе ри
милли оновĠ
х ва
н енияĠ
'Га зета.
' Д
до мо
ч лен
мы ш
ро ди
э нер
т ви
чи нов
С К
Санкт- Петербург
то йĠ
си ль
та й
ча стьĠ
соб ра
о преде
ло вĠ
под гото
милли ар
ты .Ġ
к ро
граж дан
лю де
вопро сĠ
гра фи
Л а
од ногоĠ
вз я
зна чи
ва лаĠ
произ вод
ин ве
ходи тĠ
за вер
ъ я
мл р
1 2
В се
де ся
но ст
Укра ин
ка з
ст ер
у кра
i n
то в.Ġ
по па
по тер
пер ьĠ
са мĠ
щ ениеĠ
проек тĠ
ле д
ми ро
' Т
тель нойĠ
извест ноĠ
Мед веде
по бе
те а
че мпи
та ри
жа й
ло гоĠ
со циаль
совер шен
сво ейĠ
у ли
со ста
a n
стано ви
в ну
ев ро
ш енияĠ
Т А
г уĠ
пере дĠ
ответ ствен
элек тро
боль шеĠ
С С
с каĠ
201 4Ġ
ко личе
о грани
у ,Ġ
тиче скиĠ
че ты
У КĠ
И з
тор го
рам кахĠ
ко ман
З аĠ
спе циали
продол жа
пи ш
т ноĠ
л ся
реги она
мо стиĠ
мен я
рас сказа
Д ляĠ
влен ыĠ
нача лаĠ
б ро
ту ри
пар ламен
Миха и
по то
те м,Ġ
че гоĠ
од но
охра нитель
п ря
М у
в с
ка мĠ
подоз ре
проду к
ч ноĠ
т ногоĠ
руко вод
ку ,Ġ
компани яĠ
ци ейĠ
доб ави
террито ри
Б у
Так жеĠ
ч нойĠ
Ко м
полу ча
М ин
ла н
1 1Ġ
ти рова
т ныеĠ
ре з
пи та
спе циаль
су б
пред вари
. .
у ста
поч тиĠ
' П
реб ен
ре мон
у че
с мер
ко ло
ди да
и му
та миĠ
други хĠ
сма три
це -
й сяĠ
по вы
ша яĠ
2 5Ġ
м 'Ġ
-лет нийĠ
у каза
служ быĠ
находи тсяĠ
с кĠ
про во
ко ма
бли жай
ре с
ци оне
да ль
вани иĠ
ко еĠ
ши еĠ
исто ри
м ногоĠ
имен ноĠ
де лĠ
ч еĠ
ности .Ġ
бо е
жден оĠ
не ,Ġ
го дĠ
в ноĠ
o r
вз ры
на ходя
пра вля
ло ,Ġ
д уĠ
бр еĠ
а мерикан
сво ихĠ
ве че
ден е
поли ти
ля .Ġ
Ново стиĠ
цен тр
сотрудни киĠ
фи ль
которо еĠ
с па
говори тсяĠ
организа цииĠ
пол но
в клю
он .Ġ
законо датель
пра з
од нойĠ
до ма
М Ч
же ла
щи хĠ
н ениеĠ
R u
сво иĠ
ме ждународ
ис клю
под писа
М ар
кон тра
пред лага
юще йĠ
не де
ма ши
вла стиĠ
участи еĠ
мыш лен
1 3
1 4
во еĠ
рубле й,Ġ
щи йĠ
на циона
челове к.Ġ
объ я
у слу
пе й
ча стиĠ
то тĠ
боль ниц
мен ь
кан дида
следо ва
матери а
ени е
при вле
пре до
соответ ству
Росси и
лиш ьĠ
' В
право охранитель
ше стви
де к
1 6
па мя
х сяĠ
ру с
мно го
ста лиĠ
из мен
Дмитри йĠ
вши еĠ
та 'Ġ
су ди
ше д
финан со
ком мен
1 8
ак тив
не закон
Ново сти.Ġ
ше еĠ
р .Ġ
проценто в.Ġ
про стоĠ
с бор
' ВĠ
с са
ко не
за ви
ре али
дей ству
ш ки
а эро
гла выĠ
случа еĠ
иму ще
1 8Ġ
соб и
во ль
мо йĠ
201 1Ġ
слу жи
ти еĠ
Г ен
ве з
пра к
мо сков
г лиĠ
обви ня
ли боĠ
уч ре
ени е.Ġ
те чениеĠ
по ез
хо в
дека бряĠ
рас поло
ля ,Ġ
на зыва
об ре
1 4Ġ
мно ги
директо рĠ
че твер
ни мĠ
ща яĠ
горо деĠ
настоя щееĠ
л енияĠ
201 0Ġ
под чер
Ни ко
ок ру
200 9Ġ
ма га
заяви л,Ġ
пример ,Ġ
опера тив
Бо ль
й детĠ
ко .Ġ
ген ера
суде б
у чи
та хĠ
би р
ж иĠ
ски миĠ
за цииĠ
. r
ино стран
201 2Ġ
г .Ġ
пресс-служб еĠ
поли цей
о то
ю ри
Се йчасĠ
челове к,Ġ
Се вер
o n
' |
спо соб
ь е
сто лиц
Росси и.Ġ
россий скихĠ
бу ду
ра хĠ
с се
у спе
январ яĠ
все мĠ
голо со
обе ща
ствен нойĠ
на за
млр дĠ
юще гоĠ
со ю
' Э
же ,Ġ
боль шо
Гос ду
к е,Ġ
ку .Ġ
президен тĠ
ве стиĠ
рай она
пред прияти
ш тра
но ваĠ
биз нес
1 6Ġ
ки йĠ
за во
ры .Ġ
ч ныхĠ
у точ
ча совĠ
влен оĠ
ж ныхĠ
и сточ
ме рĠ
Л у
та ль
ре в
' Интер
то в
стан цииĠ
ря дĠ
, 5Ġ
сай теĠ
Г И
не извест
уголов ногоĠ
ви це-
по льзо
з я
Н еĠ
ло .Ġ
ствен ногоĠ
т киĠ
ци и
М ыĠ
ка ну
из бира
ри йĠ
пиш етĠ
ле з
ста р
тель ныхĠ
теле мĠ
нуж ноĠ
куль ту
поддер ж
бо ро
С П
ж аĠ
200 8Ġ
поли тиче
да тьĠ
н ныхĠ
тыся чиĠ
ле жа
у .Ġ
хо дĠ
га зе
1 7Ġ
Ж и
по ступи
раз уĠ
ка ж
но в,Ġ
управл енияĠ
фут бо
1 00Ġ
ь ю
ж ер
ту ,Ġ
т ныйĠ
предло жи
201 5Ġ
1 3Ġ
не .Ġ
но в.Ġ
част ности,Ġ
те .Ġ
меро прияти
информа цииĠ
бо йĠ
те й
стои тĠ
Ленин град
с ве
аэро пор
фер ен
ь яĠ
ра ди
струк ту
пя т
на дĠ
на се
1 7
заме сти
19 9
емы хĠ
се мь
де ли
ию ляĠ
за ня
П и
Петербур гĠ
сен тябряĠ
ли ни
ка яĠ
чи тьĠ
рас сказалĠ
ос об
ц ени
нар ко
вы з
ду ма
плани ру
По д
действи яĠ
по ль
га н
на хĠ
ве .Ġ
ж о
Украин ыĠ
мар таĠ
осу ще
мн ениюĠ
получи лĠ
'Интер фак
рас следо
ня яĠ
тех ниче
ст ы
кон струк
З ак
безопас ностиĠ
0 ,
до пол
си ли
которо мĠ
ши йĠ
пи сь
пресс-служб аĠ
авто бу
эти хĠ
соби ра
устано влен
ль номĠ
'Фонтанки 'Ġ
Пути нĠ
й ',Ġ
са н
ти лĠ
ле га
ли мпи
тра в
до йĠ
л об
ще гоĠ
ти ,Ġ
С та
Росси и,Ġ
ме тр
Д Т
Нико ла
ла .Ġ
201 3Ġ
фак туĠ
в ен
сер ь
д .Ġ
ва нĠ
Росси яĠ
тя же
вани емĠ
д ли
полно мо
в нима
на ш
с 'Ġ
t a
ст .Ġ
у гро
'Газета. Ru
само ле
во ка
ар ен
сло ж
сторо ныĠ
сво егоĠ
С лед
до сти
пери о
4 0Ġ
Г ер
проти во
здани яĠ
представи тельĠ
ени й,Ġ
д не
премь ер
Сер ге
г ре
ви ди
ле г
мар ш
Х а
са ,Ġ
то н
сотрудни ковĠ
конц еĠ
укра ин
е сяĠ
су даĠ
году .Ġ
жи ль
ию няĠ
з ыĠ
от дел
пер выйĠ
Г у
ф у
поли цииĠ
Во з
каче ствеĠ
ч уĠ
ф ек
стра ныĠ
зави си
бе з
авгу стаĠ
меди ци
и ници
б еĠ
пер выеĠ
ок тябряĠ
во ри
сред иĠ
потре б
но си
жи тель
доро ж
ти иĠ
О ниĠ
а ,Ġ
ос во
ро б
л ле
со кра
уда лосьĠ
ро ри
групп ыĠ
д няĠ
проек таĠ
раз и
к е.Ġ
подозре ва
администра тив
Андре йĠ
по ня
о те
ру юĠ
с кеĠ
ло йĠ
произош лоĠ
ноя бряĠ
возбу жденоĠ
ч енииĠ
г ,Ġ
ль нымĠ
ва ли
по ря
ко й
ч ныеĠ
на пра
Г е
у па
се кре
та койĠ
к ло
с не
цен тра
МЧ СĠ
е ваĠ
о ,Ġ
му зы
публи ко
сегод ня
ко ваĠ
a r
- гоĠ
апре ляĠ
2 4Ġ
ма шин
зая вл
мага зи
те к
Алексе йĠ
п ли
ло ж
пред принима
уве личи
пре кра
ч ногоĠ
вы пла
ан ти
ди иĠ
да ле
сто л
э туĠ
реш енияĠ
Крас но
правитель стваĠ
подтвер ди
со держа
под об
В сеĠ
лет .Ġ
ре гу
кану неĠ
2 2Ġ
' На
ти лиĠ
у строй
тер рори
И гор
ра ви
конц ер
Гла в
ре а
проценто в,Ġ
Лен та.
не до
при над
о з
из дани
кри зи
ад вока
Ф ран
долж наĠ
серь ез
о кон
петербур ж
e s
теля мĠ
п аĠ
минист рĠ
ющи мĠ
воз ду
подчер кну
Се год
праз дни
жд ениеĠ
В ер
марш ру
площад иĠ
ли де
рова лиĠ
осуще ств
пре ступ
ля р
Моск веĠ
про фе
и де
О АОĠ
о ни
по хи
фи р
по ясни
ч ныйĠ
К ры
ни тьĠ
на каза
Ф С
ль щи
пя тьĠ
ак ти
вы да
возмож ностьĠ
1 9Ġ
са .Ġ
милли онаĠ
контра к
дан ным,Ġ
са нк
здани еĠ
жд ы
ком му
' Е
ры н
2 1Ġ
о пас
пре вы
Со гла
'М ыĠ
об су
ре ,Ġ
росси я
о вĠ
тре хĠ
и гро
защи т
хо зя
на чи
ору жи
допол нитель
ш енииĠ
медици н
времен иĠ
ки ло
з ор
де ми
еди н
го с
ми р
с виде
тель ногоĠ
ль наяĠ
отмети лĠ
нача леĠ
ени ю,Ġ
ши мĠ
пре ж
на писа
сен тя
работа тьĠ
го ре
рес публи
по след
доста точ
корреспонден туĠ
т ',Ġ
Ви кто
эти мĠ
тро мĠ
с разуĠ
3 0
произо шелĠ
кома нд
'Фонтанки ',Ġ
бе с
квар та
не муĠ
фо то
дел уĠ
тель ныеĠ
рас про
но вогоĠ
при обре
центр еĠ
теле й,Ġ
ад ре
ч .Ġ
нк еĠ
ве ,Ġ
л юĠ
ро н
ма ссо
че м,Ġ
на миĠ
е тся.Ġ
с мен
разви тияĠ
г но
щ енииĠ
гово ря
' Б
Ма тви
ствен ныйĠ
Матви ен
ди а
н ьĠ
пред полага
то раĠ
утвер жда
органи зо
а вари
Д и
те перьĠ
парти иĠ
располо жен
ения хĠ
вла дель
вер ен
ф лик
чи лĠ
' И
о цен
сво йĠ
вто ройĠ
г ля
вани юĠ
на доĠ
чемпи она
рабо туĠ
че скийĠ
на мер
. ,Ġ
ва ж
по ра
пен си
день гиĠ
М ак
мен ееĠ
веро -
гражда нĠ
се ль
де сьĠ
оп пози
д веĠ
мы ,Ġ
которы мĠ
тель нымĠ
л ениеĠ
. 00Ġ
ен ьĠ
ци ден
мен яĠ
пред ста
метро вĠ
февра ляĠ
соб о
смотр яĠ
Петербурга .Ġ
я ',Ġ
Михаи лĠ
ри н
Со ве
- йĠ
д ,Ġ
вто р
мер еĠ
но логи
проис шестви
ъ ез
ка 'Ġ
воз гла
и детĠ
сче тĠ
е рĠ
объ яви
провед енияĠ
но выйĠ
при гово
устано ви
о публико
количе ствоĠ
о цени
составля етĠ
россий скогоĠ
но й,Ġ
' Г
обнару жи
администра цииĠ
РФ .Ġ
при ш
м ',Ġ
стоя тель
жер т
ар хи
' Ф
иници а
Л ю
ле йĠ
н ныеĠ
ру до
в местеĠ
про па
ж енииĠ
от прави
а п
осво бо
губернато рĠ
по ста
то жеĠ
челове каĠ
нор ма
за да
тре ть
комите тĠ
отмети л,Ġ
бор ь
соб ы
че йĠ
о хран
з он
ше ,Ġ
про те
те ра
верси те
ожи да
обла сти,Ġ
По ли
от сут
воз вра
получи лиĠ
че скиеĠ
строитель ствоĠ
ка са
о пла
ни юĠ
ве лĠ
Александ раĠ
но ч
город скойĠ
на де
з уĠ
ро с
подгото в
не т.Ġ
Ба л
строитель стваĠ
Б ы
фи ци
Сегод няĠ
2 ,
та кихĠ
2 3Ġ
ь .Ġ
Санкт- ПетербургаĠ
Ми ни
Ва лен
СМ И
ве ри
с уĠ
200 7Ġ
2 7Ġ
ок тя
С КĠ
бря .Ġ
От ме
петербург скогоĠ
з ло
сред ствĠ
'Фонтанка .
мо шен
кон флик
ин ф
ха рак
ста лаĠ
но выхĠ
с фер
вед енияĠ
пу ска
дан ныеĠ
Гер ма
пе ча
вну трен
пра воĠ
вы я
-лет негоĠ
стоя н
стви иĠ
дви женияĠ
к ни
то гдаĠ
кли ен
го спи
ма ,Ġ
други еĠ
Ве ли
а т
ве ден
ре .Ġ
ходя тĠ
Пре зиден
ство ,Ġ
ени и.Ġ
д ьĠ
на вли
СШ А
ь еĠ
памя т
му зе
биз не
с ме
проценто в
Х о
дви жи
ни ков,Ġ
на бере
на й
чен ыĠ
Т и
щи еĠ
ре ша
ба р
Д у
на пад
вани йĠ
ди н
Согла сноĠ
ско н
тре бу
дер жи
За пад
Вален ти
си ло
про жи
представи телиĠ
за строй
хо даĠ
сво емĠ
О ле
правоохранитель ныхĠ
во тĠ
2 8Ġ
Ленинград скойĠ
бу де
i t
ч но,Ġ
из и
со мĠ
ка пита
' У
директо раĠ
ва лисьĠ
пред ставля
лы хĠ
ш уюĠ
заседани иĠ
пере гово
а та
гра ниц
тель ныйĠ
0 0
смо трен
вы ступа
ми ра
перио дĠ
2 6Ġ
чен коĠ
вы ясни
га мĠ
ак цииĠ
ст еĠ
ше мĠ
люде йĠ
Ч и
стави тьĠ
Т ур
суще ству
Россий скойĠ
Моск выĠ
я ко
ль ноеĠ
ду ,Ġ
' К
фор ми
ени й.Ġ
в уĠ
'Фонтанке ',Ġ
С ред
п си
журнали ста
По л
'Газета.Ru 'Ġ
Так ,Ġ
что ,Ġ
то рĠ
Ру с
дан ныйĠ
реги стри
проце с
у ди
окон ча
дете йĠ
стать еĠ
е м,Ġ
бря ,Ġ
й '.Ġ
ба л
де нĠ
кото руюĠ
стви еĠ
теля миĠ
профе сси
участ никовĠ
во ро
При мор
Ф ин
Фонта н
поряд каĠ
ен ыĠ
В ДĠ
граж дани
ви нов
.. .Ġ
ве ду
р ,Ġ
метр оĠ
получи тьĠ
обо рудо
н ю
а ресто
бан каĠ
ниче гоĠ
по нима
l e
Ма ри
задержа нĠ
и на
раз лич
ди тьĠ
от делаĠ
инве сти
с рав
Ч тоĠ
ва мĠ
стои мостьĠ
че нĠ
щ уюĠ
С то
пол ностьюĠ
про чем,Ġ
ти ру
Т у
по стано
з еĠ
на ч
сту ден
мест аĠ
информа циюĠ
смо тре
во ч
Б Д
'Зени т'Ġ
ком мер
проспек теĠ
го вĠ
спе ц
т рас
ву ш
интер не
ци ю,Ġ
Ч а
Ва силь
t er
с кры
прия тияĠ
ници па
Петербург уĠ
мужчи наĠ
хот яĠ
тех нологи
то ва
люд иĠ
на правл
Ев г
ту .Ġ
поло ви
ро зы
емо гоĠ
лю да
сообщи лаĠ
ре кла
ка та
ци я
вод уĠ
те рĠ
те м
й |
чис лен
лю бо
ра миĠ
ДТ ПĠ
СМ ИĠ
' По
ма .Ġ
ни лĠ
потер пе
ще йĠ
зако нĠ
Владими раĠ
по не
пре тен
с цен
ро ванияĠ
ка деми
ре ли
себ еĠ
О наĠ
би ле
' ЯĠ
се к
воз ра
зи иĠ
удо в
ш аĠ
та киеĠ
емы йĠ
сро кĠ
счита етĠ
де мон
Моск вы
2 5
последни еĠ
сво еĠ
ты хĠ
жи тьĠ
ну ,Ġ
но выеĠ
ми тин
верси иĠ
м неĠ
r o
согла со
ен е
г на
до ров
по ле
мер ыĠ
да вноĠ
1 1
ты с.Ġ
сове таĠ
деятель ностиĠ
не движи
обла сти.Ġ
ны х,Ġ
за р
име етĠ
ста ди
20 0Ġ
имен иĠ
вани я,Ġ
тра ди
под пи
по че
' Во
по став
ка жды
финан си
ла й
са миĠ
зи рова
Президен тĠ
ва ку
след ствен
Цен тра
ку юĠ
кол ле
э таĠ
пар та
за м
боль шин
чи ты
Бо ри
по этомуĠ
му ниципа
ро ст
году ,Ġ
при н
н скогоĠ
корреспонден тĠ
из ъя
вше йĠ
произ води
сколь куĠ
рас смотр
ты йĠ
з про
201 6Ġ
ни з
рас че
мен е
во ору
ра мĠ
2 4
горо дĠ
то рыĠ
те пло
ре аль
ко ра
на канунеĠ
дни мĠ
ться ,Ġ
задержа лиĠ
ци ю.Ġ
у бе
о ри
сов мест
пы т
ин циден
Петербурга ,Ġ
пра ваĠ
наза дĠ
вы ступи
теле й.Ġ
ба нк
И зĠ
фи ка
жиз ниĠ
Се веро-
я зы
проку ро
ча яĠ
дво еĠ
председа тельĠ
по -
ска зыва
Л о
цен траĠ
па да
де тсяĠ
у з
яко быĠ
ле т,Ġ
по рĠ
h eĠ
мо но
ствен ноĠ
помощ иĠ
х аĠ
ре ди
фи гу
рас сматри
ста нетĠ
ник тоĠ
госпи тали
со в.Ġ
про ез
ста тьĠ
сдела тьĠ
ст ейĠ
то кĠ
чен оĠ
орга новĠ
уни версите
на пример,Ġ
не ш
'Фонтанка. ру'Ġ
д иĠ
ги ,Ġ
четы реĠ
ва лю
3 ,
поку па
е т.Ġ
се тиĠ
стра хо
со вет
по я
а .Ġ
Е гоĠ
ули це
2 9Ġ
э ф
реги стра
ви н
ш ос
долж ноĠ
на ме
вли я
прове стиĠ
про йдетĠ
'Зени та'Ġ
В оĠ
м '.Ġ
со времен
ва ныĠ
цион нойĠ
жи телейĠ
х е
прош логоĠ
ва ютсяĠ
губернато раĠ
со кĠ
не сколь
ь я
Федера цииĠ
с иĠ
обнару жен
разви ти
е же
дви жениеĠ
га зо
ва лсяĠ
со в,Ġ
сто в
жд енииĠ
сти ва
Та кĠ
кла д
ки но
но чьĠ
необходи моĠ
гру зо
Ж У
хо да
дво р
слу жа
И ва
ре да
н ениюĠ
но войĠ
ли н
согла си
фи кси
ходи тьĠ
слу ша
ви чĠ
начи на
щ ер
же лез
за пи
спор т
ц ер
ти м,Ġ
пар т
а ре
на шлиĠ
го сяĠ
э ваку
во до
рабо тĠ
ви зи
про гно
ку п
россий скойĠ
ре нĠ
м сяĠ
од наĠ
з ен
' Ново
секре тар
з ин
д нейĠ
находя тсяĠ
систе мыĠ
за регистри
a t
С .Ġ
ку пи
ци я,Ġ
вто ро
говори тĠ
ти йĠ
А ЖУ
б уĠ
из о
теле кана
с да
Гла ваĠ
тель ствоĠ
над зор
Э к
суд ь
ны м.Ġ
ну тьĠ
сторо н
осуществ ля
щ у
до меĠ
Игор ьĠ
цион ногоĠ
Мак си
ближай шееĠ
у верен
с '.Ġ
Ч ер
5 00Ġ
ни комĠ
го ря
сум муĠ
з доров
согла сноĠ
по томĠ
ль но
6 0Ġ
мы .Ġ
професси она
ми гра
по ки
прак тическиĠ
ство .Ġ
мо вĠ
з ер
опреде лен
ения миĠ
ра ж
теле фон
з десьĠ
по следстви
гро м
о станови
a l
ка ки
сред стваĠ
за темĠ
м |
но кĠ
прове ден
я т
про сь
ру ,Ġ
провер киĠ
Ш а
совер ши
си лĠ
е 'Ġ
пят ниц
ма тиче
объ ясни
образо м,Ġ
дви ж
зая вля
куль тур
сегодня ш
ру дни
де ло
у л.Ġ
позво ля
об стоятель
информа ции,Ġ
ста ,Ġ
по стоян
приня тоĠ
по проси
жа лоб
Е щеĠ
пото муĠ
завер ши
экспер ти
c o
го до
зая влениеĠ
при бы
чу в
ре конструк
С от
ство ватьĠ
я сьĠ
к рас
цион ныхĠ
ку даĠ
В прочем,Ġ
все гдаĠ
вы миĠ
акти ви
не тсяĠ
ци е
х у
ито гамĠ
сто в,Ġ
ло н
вани я.Ġ
o o
3 1Ġ
юри ди
д ро
ться .Ġ
сер ви
на прави
из мени
М И
лко го
ку с
суб бо
х удо
рова лĠ
в ско
т ю
оче вид
ру бе
кон ферен
под держа
' Р
де леĠ
ГИ БД
горо да.Ġ
участ во
но й.Ġ
н ныйĠ
Медведе вĠ
'Га зпро
Зак С
бан кĠ
т '.Ġ
о г
по вре
я '.Ġ
у л
преду смотрен
скон ча
сс аĠ
ли щ
пожа р
А д
жи тĠ
кол лек
соответ ствииĠ
ре м
поне дель
вече ромĠ
к ти
х оĠ
вод ыĠ
2 3
хозя й
че тĠ
ника мĠ
при ме
ис следо
экс -
т :Ġ
.r uĠ
од номĠ
до каза
( вĠ
пример ноĠ
ми раĠ
у правля
се м
це в,Ġ
позво ли
друго йĠ
ски й,Ġ
ф изи
кор пу
дви га
лимпи й
ми моĠ
Лента. руĠ
орга ныĠ
на логи
' Ме
РФ ,Ġ
со хра
моло ды
минист раĠ
му .Ġ
вы де
сообщи л,Ġ
о .Ġ
Та кимĠ
ви деĠ
сть юĠ
планиру етсяĠ
ник ,Ġ
стави лиĠ
то муĠ
лся .Ġ
комисси иĠ
то ровĠ
а нали
стать иĠ
а лкого
следстви я,Ġ
де ,Ġ
се дни
у тромĠ
б ин
смо гутĠ
в нов
д ж
чен ныхĠ
па ла
вы ез
гу ,Ġ
но е,Ġ
пользо ва
председа теляĠ
строи тьĠ
Ко ми
в че
ра ке
' Со
ко ро
С ,Ġ
на ро
Ф и
е в,Ġ
ор ги
ле те
Бе ло
эф фек
х 'Ġ
О р
ди нĠ
ш у
су р
сни зи
фе стива
ниц аĠ
большо йĠ
ко ва,Ġ
евро пей
удов лет
ш лаĠ
Ка р
ни ков.Ġ
сла вĠ
по сколькуĠ
жи во
Вы бор
бли з
учре жд
Сот рудни
' Лен
конц аĠ
гото ви
з во
н да
полномо чи
я тсяĠ
ва лоĠ
ника миĠ
Ко гдаĠ
ж уĠ
про сĠ
во л
сво имĠ
поме щ
ер аĠ
пре доста
от дель
прош ломĠ
зар пла
с пу
руководи тельĠ
мы с
ж ногоĠ
Север нойĠ
ситуа цииĠ
во кĠ
ж ныйĠ
юще еĠ
сто кĠ
Ка лини
ри тьĠ
город скогоĠ
ме й
Ра з
' Я
с ре
же йĠ
2 8
пред ме
многи еĠ
об служи
'Е ди
пере воз
п ыĠ
пер вогоĠ
д ня
ка зĠ
рабо чи
200 6Ġ
Ка за
ств ,Ġ
мо мĠ
наб люда
внов ьĠ
Кон стан
об но
де .Ġ
га ,Ġ
т наяĠ
на ко,Ġ
четы ре
лю би
ль зу
ка м
Боль шо
та в
нало го
ис кус
ко мен
погиб лиĠ
Серге яĠ
комп ен
зако наĠ
бе жа
преду пре
работа етĠ
премьер -
сбор нойĠ
Отме тим,Ġ
Ге орги
го ри
те ку
ар ти
но ва
у ро
у зна
миллиар даĠ
мы еĠ
и миĠ
про вод
распро стра
програм мыĠ
при з
й теĠ
мили цииĠ
ствен ныхĠ
до кĠ
по пу
ни я,Ġ
нарко ти
спор тив
вы пу
емы еĠ
ди ,Ġ
явля ютсяĠ
Б и
ны е,Ġ
принад лежа
отно си
i s
цен трĠ
ци й,Ġ
лся ,Ġ
л ла
при сут
под раз
ма с
дан ныхĠ
про мышлен
у мышлен
де вуш
побе ди
ме .Ġ
достаточ ноĠ
Г ор
п лу
на у
ре ц
приня тьĠ
ком на
вы шеĠ
мы хĠ
Констан ти
ап пара
вос кре
все го,Ġ
вши мĠ
я че
ци а
мошен ниче
ю щаяĠ
вы ход
т вор
та кимĠ
ди яĠ
ля н
ин ститу
потре би
су аль
цион ныйĠ
помощ ьюĠ
ре еĠ
е в.Ġ
у щер
ко муĠ
ка те
Пе ре
ф ин
времен ноĠ
сть ,Ġ
кон су
г лу
с бо
ро ваниеĠ
п ру
ста .Ġ
уста навли
ме ,Ġ
ря домĠ
ма нĠ
Пол тав
даль ней
ква дра
и ска
вы не
3 00Ġ
i l
2 9
ника кихĠ
Г ру
бо й
доб ро
улиц ыĠ
пра вед
соста вĠ
си хĠ
все йĠ
| НаĠ
ка .
обсу жда
воз ник
самы хĠ
раз мереĠ
посе л
стро ен
следу етĠ
пер вомĠ
ко с
г ли
групп аĠ
чис лоĠ
соб е
Мини стер
из би
интер в
со стои
ф ло
ра ба
сем ьĠ
по ру
хо ло
в скогоĠ
ц ве
здани иĠ
би тра
лы йĠ
замести тельĠ
' :Ġ
оказа лсяĠ
рассказа лиĠ
пер со
ни лиĠ
правед ли
че скиĠ
кварти рыĠ
стра неĠ
Фонтан ка.
рас поря
ль ,Ġ
проце ду
ма кси
за каз
ве ли
Ю рийĠ
да хĠ
тель стваĠ
ню юĠ
лен аĠ
до во
те люĠ
Пу шки
кажды йĠ
5 -
ки 'Ġ
испо льзу
га .Ġ
член овĠ
долла ров.Ġ
То гдаĠ
се зо
Т емĠ
долла ровĠ
ш иĠ
с читы
при еха
ти й
Н А
ки па
цен ыĠ
ле ,Ġ
про то
ГУ ПĠ
З АОĠ
Д оĠ
во к
г ер
фо ру
возмож ностиĠ
c e
нача лиĠ
г ри
ри й
По этомуĠ
сси иĠ
ль нуюĠ
извест но,Ġ
вари ан
ме сто
до в,Ġ
ход ыĠ
метро в.Ġ
ну .Ġ
мо щ
уста нов
ев роĠ
вши сьĠ
Все гоĠ
прин ци
О ль
те хĠ
отве ча
несколь кихĠ
ни и,Ġ
бюдже таĠ
на и
вши хсяĠ
го мĠ
бе спо
с -
си м
состоя нииĠ
2 -
под ряд
ме тра
обяза н
4 ,
Б ан
ность ,Ġ
н ногоĠ
потре бо
Выбор г
вне ш
'Ново сти
спа са
год ыĠ
ре комен
п ин
ц ,Ġ
ги .Ġ
ны неш
мо глиĠ
ствен ныеĠ
пу те
ме д
само мĠ
особ ен
.r u
ня тьĠ
го -
при гла
L en
ну тĠ
ме нĠ
ду .Ġ
ди на
сообща ютĠ
о мĠ
пра вĠ
А л
сте пен
ну лĠ
минист ер
инве сто
м э
ву ,Ġ
Пу лко
Вер хов
на шейĠ
це п
стре ми
за й
регу ли
по мина
Ми но
правитель ствоĠ
компани йĠ
внима ниеĠ
са д
о днимĠ
ле еĠ
Д ,Ġ
Ф А
ль юĠ
пос вя
тру д
об щеĠ
ло сь.Ġ
пор та
e w
та коеĠ
н нойĠ
та когоĠ
образо мĠ
' Ма
т вори
ст уĠ
Те перьĠ
ения мĠ
де воч
гово йĠ
возду ш
экс плу
пре ми
не ль
приня лĠ
ту раĠ
бы вшегоĠ
ско го,Ġ
та мож
обще йĠ
ста ту
информа цияĠ
спи сокĠ
да лĠ
фото графи
боле льщи
фу нк
мо же
ниц ыĠ
осу дар
каса етсяĠ
ни тар
ут раĠ
очеред ьĠ
вед ениеĠ
пер войĠ
влен аĠ
при ве
представи телейĠ
началь никаĠ
м :Ġ
пос тĠ
Р -
круп ней
ва наĠ
не смотряĠ
уче б
воскре сен
пред поло
ба й
за хва
состои тсяĠ
' Н
прокурату раĠ
м -
за фикси
ще мĠ
объ еди
к 'Ġ
реши лиĠ
ти киĠ
стра нĠ
П ар
Матвиен коĠ
Ки ров
га р
энер ге
ме та
s .Ġ
вла де
ты еĠ
зо вĠ
пострада вшихĠ
в шаяĠ
ни и.Ġ
мен таĠ
до ступ
' Про
Д вор
во вĠ
су деĠ
во сто
ша етĠ
интере со
агент ствоĠ
рай оне
пла т
по прав
ти тĠ
пре дел
ди лиĠ
бан ков
П рав
бы вшийĠ
й дутĠ
ды .Ġ
бы ,Ġ
си луĠ
з ву
о логи
7 0Ġ
г лаĠ
предложи лĠ
' Ве
жд ыĠ
вл енииĠ
каж до
' Л
ито геĠ
миллиар довĠ
в ступи
Г ри
че скаяĠ
ста нов
ров киĠ
иностран ныхĠ
ны х.Ġ
не которыеĠ
ы ду
К ур
ситуа цияĠ
дек сĠ
о пы
го 'Ġ
обра ща
о про
сло ваĠ
ти руетĠ
ран ь
кон кре
2 6
лиш енияĠ
ги иĠ
пере се
в за
горо жа
тран с
' Рос
Д .Ġ
да в
исто рииĠ
ч ,Ġ
при мен
тель ноеĠ
действи тельноĠ
приш лосьĠ
Ко л
ти .Ġ
со став
ма ль
o u
интерв ьюĠ
зна ком
преду сматри
води тельĠ
во общеĠ
ени и,Ġ
футбо ли
наруш ениеĠ
докумен та
л 'Ġ
р ь
источ никĠ
чи кĠ
лы еĠ
вопро сыĠ
инф ра
' ОĠ
секретар ьĠ
м яĠ
ро стĠ
кре п
0 процентовĠ
рей тин
само гоĠ
ны й,Ġ
хо те
В яче
рабо теĠ
ю т.Ġ
запре щен
объек товĠ
но ме
моло де
н скойĠ
ле в
ве й
к в.Ġ
интерне т-
СП б
кра й
произош лаĠ
ле .Ġ
а налоги
вы ра
оказа лисьĠ
вы ступл
5 ,
Валенти наĠ
це в.Ġ
закон чи
горо да,Ġ
началь никĠ
в первыеĠ
Г осудар
те рак
т .
И с
тех ни
глав ныйĠ
с нойĠ
р енияĠ
России 'Ġ
ре чьĠ
ар ми
Северо- Запад
ве ще
Д ж
Ва ле
фут боль
служб аĠ
од ноĠ
4 5Ġ
т нымĠ
за пад
к нов
раз гово
ника ,Ġ
ли цĠ
вер х
кор руп
жден ыĠ
э кипа
е ва,Ġ
ра и
подраз дел
кур сĠ
жи телиĠ
сто й
ро з
по ступа
ле й
ма й
от мен
а кадеми
ф ран
ни ,Ġ
С СĠ
официаль ныйĠ
меся цевĠ
поддер жи
г вар
кру гĠ
вы ро
которо муĠ
приня лиĠ
компани и,Ġ
ж ныеĠ
депута тĠ
сай тĠ
оборо ныĠ
ве ло
вок за
вя тĠ
чен ы
Ки та
Ме ждународ
ни емĠ
бизнес мен
ни я.Ġ
ть я
возмож но,Ġ
кварти реĠ
лен ыĠ
ге ро
у виде
ль .Ġ
сотрудни че
ис пыта
нали чи
ды ,Ġ
д оби
К ор
со л
о ши
це нĠ
А вто
о фор
ро ваĠ
собо йĠ
а б
вед ьĠ
по пыта
ло жен
Де пута
клу баĠ
выбо рахĠ
персо на
с лы
раба ты
задержа ныĠ
от став
i c
помощ ьĠ
отмеча етĠ
государствен нойĠ
плани рова
1 -
Р и
ру ютĠ
пред ъя
рас сказыва
Прав да,Ġ
те х,Ġ
наруш енияĠ
работа ютĠ
' )Ġ
оне ц
уни что
же б
1 ,Ġ
пере во
щи мĠ
ч номĠ
Сред иĠ
пер вуюĠ
па спор
смер тиĠ
бра тьĠ
д нойĠ
вы став
сообща лось,Ġ
з ри
мили ционе
ва ноĠ
2 7
да лиĠ
ре сур
' Не
ТА СС
8 0Ġ
3 -
при детсяĠ
0 00Ġ
сове ща
не в
до в.Ġ
эффек тив
щ eĠ
набере жнойĠ
предло ж
ш кол
со се
воен но
ры нкеĠ
ди лĠ
дар яĠ
На пример,Ġ
ност ейĠ
T heĠ
' Ка
Д П
ли сь.Ġ
зе ме
федера льногоĠ
россий скиеĠ
ст ве.Ġ
ски й.Ġ
я х,Ġ
докумен тыĠ
Вели ко
Ан то
чен аĠ
состави лĠ
цо вĠ
про д
га ни
Ш и
по водуĠ
т номĠ
Никола йĠ
сотрудни камиĠ
В то
жи лĠ
род ствен
' Но
пла те
компен са
- та
t e
штра ф
ва рииĠ
че скимĠ
Оле гĠ
при ходи
петербург скихĠ
Смо льныйĠ
ме ж
за дол
Петро град
предвари тельнымĠ
ско ро
. co
мини му
кар ти
государ стваĠ
сен а
к ров
собе седни
га ран
инфра структу
на 'Ġ
П рави
ся тĠ
ч ь
рас ши
добави лĠ
ме ста
пос ред
п еĠ
ца ,Ġ
деятель ностьĠ
мо гĠ
ЗакС аĠ
парт не
Д онец
т ноеĠ
А нато
пред ыду
Су дĠ
го сти
на уч
нель з
би ли
Та мĠ
официаль ноĠ
зы ватьĠ
бо м
россий скийĠ
т скойĠ
и мо
се нĠ
от делĠ
ци й.Ġ
пре се
му юĠ
вы с
за ,Ġ
с ',Ġ
з дра
пробле мыĠ
ф аль
ству ютĠ
а варииĠ
s s
но ва,Ġ
жа ло
на тор
свиде тель
домо вĠ
ству етĠ
раз работ
вы во
ста ти,Ġ
за боле
б ен
во й,Ġ
ч e
де вя
со р
Ш е
2 ,Ġ
попу ляр
мен тĠ
ката стро
дру гĠ
у к
О ,Ġ
я р
про ходи
бри та
за .Ġ
реши лĠ
по пыт
за мен
говори тьĠ
виде о
га хĠ
комму на
спорт смен
жи лищ
тра м
состави лаĠ
ответствен ностиĠ
. 0
Фин лян
ребен каĠ
то л
сообщ енииĠ
не т,Ġ
про коммен
культу рыĠ
Василь ев
ка тери
И ль
ч наяĠ
ъ ек
фран ц
ва ласьĠ
пи сто
из бра
ско р
С па
та ',Ġ
эксплу ата
правл енияĠ
люде й,Ġ
очеред ь,Ġ
журналиста мĠ
стави лĠ
Коми те
пя тиĠ
Кон ститу
заяви лаĠ
Сове таĠ
дене гĠ
по обеща
ту тĠ
объ е
военно служа
С УĠ
до в
ти роватьĠ
ян ва
слу жеб
и д
ла хĠ
пани яĠ
ф еĠ
че т
лы ,Ġ
в местоĠ
ис кĠ
вши йсяĠ
на гра
при част
се реди
тру до
рован ныхĠ
раз аĠ
е ',Ġ
с но
ша тьĠ
хо довĠ
вос стано
слу чи
с наб
Ш у
МИ ДĠ
вче раĠ
долла раĠ
от ды
кор пора
ль номуĠ
ни .Ġ
ГУ ВДĠ
про ходитĠ
потер я
тель наяĠ
ки нĠ
госпитали зирова
Велико брита
работа лĠ
с ю
под ня
над зо
зо ло
Мино боро
реда к
По каĠ
долж ност
со еди
о ноĠ
комплек саĠ
шко ль
' Ком
мира л
мо де
Пред стави
убий ствеĠ
законо проек
ст ен
гото выĠ
с можетĠ
руковод ствоĠ
за па
бое ви
о де
'Фонтанки '.Ġ
6 ,
рова ныĠ
пол неĠ
ию ня
обнаружи лиĠ
а миĠ
об ща
и ско
за в
За коно
Евг енийĠ
Викто рĠ
год .Ġ
управл ениеĠ
Госду мыĠ
е eĠ
рын каĠ
а хĠ
ца мĠ
обрати лсяĠ
руководи теляĠ
произо шед
нача лĠ
ГИБД ДĠ
r a
в скомĠ
состави тĠ
ж ноĠ
Бо лееĠ
ци они
ств .Ġ
д немĠ
ли нииĠ
В В
пассажи ровĠ
врем ени
о гра
стра ны.Ġ
r e
вши есяĠ
Len ta
ве сти
дела тьĠ
теа тра
ца .Ġ
ссо циа
мину тĠ
кла ды
ле таĠ
' Те
ло в,Ġ
команд ыĠ
че скуюĠ
ча саĠ
ри наĠ
л лет
депута тыĠ
ность .Ġ
мирал тей
да етĠ
д ва
не одно
действи йĠ
террори сти
проспек таĠ
сы гра
р ю
ос мо
тур ни
у стра
инициа тив
зая в
го ра
И ТА
ри лĠ
емо йĠ
многи хĠ
R e
' Мо
е нĠ
ме ц
3 5Ġ
Ме ждуĠ
r u
груп пи
води тĠ
обла ст
Пу тин
уве лич
под роб
' ).Ġ
са ло
ТА ССĠ
кто рĠ
ма ло
опреде ли
ка же
бло ки
проводи тсяĠ
н ь
ак цийĠ
Росси юĠ
ч нымĠ
коне чно,Ġ
не которыхĠ
оте че
П обе
цион ныеĠ
име ютĠ
государствен ногоĠ
с новаĠ
посе ти
на шихĠ
! 'Ġ
свобо дыĠ
С бер
челове ка,Ġ
транспор таĠ
оста нов
ми кро
к ромеĠ
участ никиĠ
на не
гра ду
авари й
. 30Ġ
ИТА Р-
л :Ġ
' ЭтоĠ
А к
фи ли
вы ну
-лет няяĠ
т нуюĠ
реали зацииĠ
мас шта
фор миро
пер во
погиб шихĠ
т чи
стра те
ресто ра
не зависи
по те
е щeĠ
-та киĠ
со хран
внутрен нихĠ
ру .Ġ
ву .Ġ
Д ени
ско рееĠ
бе ло
сфер еĠ
вы игра
ч ениюĠ
сы ,Ġ
происшестви яĠ
ря даĠ
губер натор
п ле
проспек туĠ
Е катери
Ра бо
Од нако,Ġ
Анато ли
совер шенииĠ
й :Ġ
еди но
Га зета.
су пру
ле житĠ
ди пло
Е ги
Бал тий
ч ениемĠ
выбо ровĠ
чемпиона таĠ
де рев
отнош енияĠ
опера цииĠ
тем пера
на йтиĠ
ли зо
ча сти
тирова лĠ
вер то
ча й
19 8
прак ти
ки ста
мо кра
вы ,Ġ
вза имо
О динĠ
це льюĠ
ки миĠ
од об
социаль нойĠ
сторо нуĠ
пла титьĠ
мн ению,Ġ
ц еĠ
о казыва
ги еĠ
Б ар
Со ю
мо ,Ġ
воору жен
ч киĠ
В ыĠ
се вер
посвя щен
плани руетĠ
вс юĠ
предвари тельнойĠ
ла миĠ
Г ре
поку п
ли сь,Ġ
провер я
'Фонтанка 'Ġ
та м,Ġ
руб ляĠ
п р
ю тся.Ġ
раз би
ско й,Ġ
застрой щи
o l
призна лĠ
срав нениюĠ
че скоеĠ
женщи наĠ
счита ет,Ġ
ли цен
во -
При чи
ка :Ġ
д ь
Я по
Фонтанка. руĠ
ре мо
л e
тель но,Ġ
испол нитель
н скийĠ
четыре хĠ
ве сьĠ
при зы
гра до
благо твори
Ми ро
с ныхĠ
Сто и
о ло
не е,Ġ
фон даĠ
предо ставля
обеспе чи
дво ка
с би
хо четĠ
ть 'Ġ
н енииĠ
в полнеĠ
во спи
Р ,Ġ
мат чĠ
' Ю
машин ыĠ
провед ениеĠ
влен ныхĠ
ко м,Ġ
ще нĠ
жиз ньĠ
ч ноеĠ
ска нда
меся цаĠ
буде мĠ
о кĠ
мо ти
подоз р
наз валĠ
200 5Ġ
х ',Ġ
глав ногоĠ
' Са
ци ф
от мени
ча тьĠ
стол кну
макси ма
7 ,
Де лоĠ
эваку и
С пе
дол го
ля хĠ
режи ссе
поддерж куĠ
пер спек
деся т
К ри
мен ноĠ
особ оĠ
у сили
Интер не
от клю
компани и.Ġ
ФС БĠ
архи тек
бри тан
2 2
С прав
стол кнов
А двока
квадра тныхĠ
ст рĠ
на помни
россия нĠ
Санкт- ПетербургеĠ
ни миĠ
тер аĠ
ч нуюĠ
мень шеĠ
точ киĠ
не у
ре зо
по хо
Сотрудни киĠ
О к
ле мĠ
Ре с
- либоĠ
спек так
уров неĠ
отмети лиĠ
ко логи
сообщ ениеĠ
кора б
ка би
вы рази
К П
ре шен
Э р
э фи
ше стьĠ
о зна
О ба
со всемĠ
мат чаĠ
Росси я'Ġ
Рес публи
чи каĠ
ве лиĠ
П ра
измен енияĠ
во кругĠ
уров еньĠ
то м.Ġ
теля ,Ġ
он ,Ġ
Пути наĠ
де парта
ща тьĠ
вы бор
нару ши
вше госяĠ
з вез
ро кĠ
пенси оне
метро поли
се ,Ġ
конкур ен
е м.Ġ
Та тья
л -
получи лаĠ
ча етĠ
ка ',Ġ
в зы
п роĠ
площад ьюĠ
за пу
рас кры
поступи лоĠ
привле ка
сто мĠ
дека бреĠ
элек три
чен ныеĠ
у м
тро еĠ
объя сня
4 -
самы мĠ
собы ти
Дмитри яĠ
со т
2 1
с ва
ша н
фак тическиĠ
суб ъек
го товĠ
ше .Ġ
пострада лиĠ
рова нĠ
чу тьĠ
бу ма
то пли
' Рус
од нуĠ
гу .Ġ
автомоби льĠ
врем я,Ġ
ре к
тр ени
ги стра
услови яхĠ
Про ку
ни це
Б ер
трам ва
К рем
ситуа циюĠ
мо гоĠ
хода тай
ен аĠ
образо ванияĠ
бор туĠ
оста етсяĠ
Ви тали
ц ы,Ġ
не возмож
'Интерфак с'.Ġ
ни цĠ
стре ля
сообща етсяĠ
ли те
ги бе
шос сеĠ
рова ноĠ
помо га
пи ло
О .Ġ
возгла вля
се те
че скомĠ
на ста
пред приятияĠ
со прово
ква ли
1, 5Ġ
ри а
ва миĠ
строитель ствуĠ
исклю чи
Х от
д жа
: 00Ġ
взры в
Д ру
ю щуюĠ
прось бойĠ
ви тьĠ
Р Б
сказа лаĠ
созда тьĠ
от ра
те ли,Ġ
го йĠ
Петербур гу,Ġ
' ),Ġ
гвар дей
сооб ще
при ез
комп ью
О с
отдел енияĠ
отве тĠ
сто в.Ġ
встре чиĠ
раз ру
наи болееĠ
высо ко
' Го
находи лсяĠ
ст я
с дел
Р А
по ве
от пу
са м
хот ятĠ
рез ер
образо ва
сто вер
са хĠ
н скомĠ
ро р
причи нойĠ
подписа лĠ
а ук
желез но
бр ь
ни ки,Ġ
ремон тĠ
ши ро
раз ныхĠ
упа лĠ
Андре яĠ
само йĠ
П ла
теа траĠ
стан дар
большин ствоĠ
поче муĠ
Ф а
прокурату рыĠ
хо л
уточ ня
ин жен
использо ватьĠ
успе ш
Д он
о провер
говоря тĠ
стре ль
наш иĠ
совершен но
Ф ото
г да
рас считы
экономи ческогоĠ
дне в
франц уз
ла д
го н
e l
теле ф
ко пи
г ну
Двор цо
рев но
ин ди
Во л
й -
выпол ня
ти вĠ
4 00Ġ
си тьĠ
о гром
поясни лĠ
ру н
ви лĠ
Ки ри
поли цияĠ
написа лĠ
участи емĠ
конферен цииĠ
лен ь
Миха й
А в
сла в
до пусти
янва ря
участ кеĠ
находи лисьĠ
гру з
состав еĠ
смо глиĠ
ц .Ġ
рас полага
депута товĠ
ван ныхĠ
а мĠ
говори лĠ
мигра н
ли ши
ведом стваĠ
последни йĠ
преступл енияĠ
неодно кра
Нев скогоĠ
' До
дале коĠ
ст яĠ
ни куĠ
Пер выйĠ
у во
веро ят
по со
со лю
воен ногоĠ
сотрудни кĠ
со ц
ка ми,Ġ
Ч у
с хе
уча стокĠ
пер ен
действи еĠ
О П
насе ленияĠ
к -
Р Т
ком .Ġ
агент стваĠ
щен ыĠ
что -тоĠ
ноч ьюĠ
пред ъ
ч т
штра фо
счита ютĠ
сек суаль
де ше
за ли
до став
ту аль
столиц еĠ
Н И
жа тьĠ
д ноĠ
ю тся,Ġ
ци яхĠ
ме то
про стран
вто ромĠ
не посред
К А
ва то
лиш комĠ
адре сĠ
объ емĠ
США ,Ġ
тя ж
' За
ны ми.Ġ
Под роб
при ста
эк стреми
це ломĠ
Алексе яĠ
рова ,Ġ
Поли цияĠ
у строи
город скихĠ
а бо
раз бира
страте ги
ре ферен
совершенно лет
н юĠ
рабо таĠ
си н
вет ла
ющи хсяĠ
не мец
Ад миралтей
за би
ме ха
прода жиĠ
у ме
метрополи тен
Бело ру
она .Ġ
у чены
Нев скомĠ
И ра
убий стваĠ
до р
взы ска
На ва
лиц аĠ
Евро пей
стви яĠ
' Ко
Б ла
про шед
жа л
Ра с
худо ж
Михаи лаĠ
ствен нымĠ
Т ро
дей ство
дву х
'Э хоĠ
ц уĠ
ново мĠ
результа тыĠ
процен таĠ
пе ше
ни когдаĠ
ос ен
ска я,Ġ
выясни лось,Ġ
государствен ныхĠ
требо вани
на сле
предлага етĠ
юще мĠ
следстви еĠ
Из -заĠ
п ти
у тра
это м,Ġ
кри ти
воз ме
само летĠ
тре тьĠ
территори юĠ
про сто
бизнес -
ре гла
по леĠ
услови яĠ
ру етсяĠ
услу гĠ
ди с
смотре тьĠ
ни е,Ġ
Полтав ченкоĠ
п р.Ġ
он до
ко й,Ġ
испол ни
с вед
на помина
по ро
ст ве,Ġ
прото ко
коло нииĠ
Па в
О М
обществен ногоĠ
комплек сĠ
обви н
А З
много числен
кварти рĠ
Па велĠ
еха лĠ
так ,Ġ
дж етĠ
у тĠ
под суди
1 50Ġ
специали стыĠ
требо ванияĠ
пи ра
ющи миĠ
ли за
защи тыĠ
то м
Ку з
ви да
сообщи ли,Ġ
по тра
благо даряĠ
у потреб
ре став
еха тьĠ
И хĠ
ф рак
та '.Ġ
насе л
в спо
обяза тель
национа льнойĠ
влен ныеĠ
докумен товĠ
пере кры
подтвер жда
и |
с лишкомĠ
4 0
вс eĠ
различ ныхĠ
процес сĠ
систе маĠ
це ле
пи тер
со ревно
СМИ ,Ġ
вле нĠ
контро ли
ин вали
Му жчи
ско -
8 ,
пе л
д вер
участи яĠ
челове к
гро зи
С тро
груп по
ло в.Ġ
вы зыва
авто ма
развити юĠ
Т оĠ
пятниц уĠ
за бо
ко ль
вклю чаяĠ
лиде рĠ
та каяĠ
ря с
представи теляĠ
актив ноĠ
при е
удовлет вори
ро жд
реа ги
про ф
бри га
ки н
воз обно
стои мостиĠ
Г и
наказа ниеĠ
перегово рыĠ
площад ьĠ
ди йĠ
e тĠ
Ва ди
в скийĠ
9 ,
Лен областиĠ
во сточ
О тĠ
ни ков
Бори сĠ
i r
мы йĠ
мар теĠ
ле цĠ
заяви лиĠ
Ма ка
- 201
це ремо
Георги йĠ
и 'Ġ
т скогоĠ
чи лиĠ
ствен наяĠ
поги бĠ
молоды хĠ
пассажи р
ля тьĠ
т скихĠ
сто лькоĠ
подчеркну лĠ
С ле
а но
неде лиĠ
зло умышлен
i m
ть ',Ġ
О лимпи
С ветла
5 процентовĠ
послед нееĠ
най ден
Из раи
СК АĠ
ла сь.Ġ
от да
им яĠ
зо неĠ
лен ныхĠ
во сь
тамож ен
круп ныхĠ
ту даĠ
ци я.Ġ
бра лиĠ
Си ри
О фи
ре кор
раз ы
школ ыĠ
обще гоĠ
не совершеннолет
' Ре
ка ми.Ġ
стра ны,Ġ
провер куĠ
А б
Миноборо ныĠ
I n
се тьĠ
сум маĠ
полу ченияĠ
при шлиĠ
зо мĠ
под вер
' Х
в ру
бы ло.Ġ
'Газета. ру'Ġ
на шегоĠ
ответствен ностьĠ
уточ ни
мо ра
ти сти
мо з
таль ян
стре ли
ва сĠ
но м,Ġ
зе лен
но мерĠ
законо проектĠ
сообщ ении.Ġ
Са мо
самоле таĠ
Петербург е.Ġ
жи лиĠ
цен аĠ
По з
5 0
Украи неĠ
е й,Ġ
со зна
случа е,Ġ
о стано
жи лыхĠ
пря моĠ
' НаĠ
ко ле
настоя щийĠ
добави л,Ġ
рун зен
с част
г ни
л енииĠ
меро приятияĠ
сть .Ġ
гла веĠ
раз работа
жур на
ри ца
конкур сĠ
о йĠ
принима тьĠ
воен ныхĠ
б ран
транспор тнойĠ
производ стваĠ
результа тамĠ
комите теĠ
воен нойĠ
И менноĠ
необходи мостиĠ
организа цияĠ
На таль
п .Ġ
за интересо
по в
осно ванииĠ
недвижи мо
ско вĠ
9 0Ġ
ту рыĠ
эк спе
прави лĠ
под рост
сим во
К е
конкур саĠ
кам пани
а м
Москов скомĠ
г ря
Москов скогоĠ
не нĠ
нато рĠ
ш оĠ
ко лоĠ
челове ка.Ġ
са ми
у луч
лиц ,Ġ
аб солю
? 'Ġ
д яĠ
воз леĠ
понедель никĠ
О се
' Петро
вани е,Ġ
преж немуĠ
И тали
8 -
де мокра
авиа компанииĠ
ко дек
же ст
сред уĠ
t o
полномо чен
по тен
ва го
про дли
ар битра
д ри
про фи
встре чеĠ
ры нокĠ
ло ваĠ
ближай шиеĠ
района .Ġ
второ гоĠ
ле ти
зи рован
в ро
Ц И
У голов
l eĠ
ба .Ġ
адвока тĠ
х |
оши б
сконча лсяĠ
кос ми
тиче скихĠ
1 .Ġ
су до
r es
наме ренĠ
де рĠ
ско м,Ġ
официаль номĠ
верну тьĠ
поло ж
отказа лсяĠ
' Лента.
поль зуĠ
меся цĠ
Мари ин
лич ноĠ
Ва си
лю бойĠ
про тя
все -такиĠ
Т ре
реали зо
ст ек
i a
клу бĠ
сво имиĠ
до сту
ш ьĠ
от рас
депута таĠ
гото в
ле томĠ
Ру ко
След ственногоĠ
те лоĠ
кла сс
пригово рĠ
неф те
стои мо
ствен ноеĠ
оста н
участ каĠ
еже год
вз гля
ст роĠ
Д ан
проводи тьĠ
от рица
генера льныйĠ
т но
выбо рыĠ
щи хсяĠ
нельз яĠ
Д об
ь ю,Ġ
ван нойĠ
от казыва
бу д
про тив
чинов никиĠ
расследо ванияĠ
ник .Ġ
T e
доб а
Ч то
'Я бло
середи неĠ
н -
се кто
обеспе ченияĠ
тре х
В отĠ
рань шеĠ
лен оĠ
ве тера
сто лич
же .Ġ
Е ленаĠ
' за
реконструк цииĠ
лег ко
се .Ġ
ме :Ġ
догово рĠ
Ком панияĠ
ма стер
чи ,Ġ
под зем
рав ноĠ
охра ныĠ
ма еĠ
хо к
пу тиĠ
заседани еĠ
состоя ниеĠ
ью -
п лю
ТАСС .Ġ
М ор
ка х,Ġ
очеред нойĠ
сказа ть,Ġ
НА Т
та яĠ
вы шелĠ
' вĠ
регу ляр
фа на
я м,Ġ
ф ыĠ
ры хĠ
дорож ногоĠ
столиц ыĠ
в иĠ
предло жениеĠ
щен коĠ
ко ва.Ġ
самы йĠ
ка заĠ
вы гля
не давноĠ
Хот яĠ
при ем
ль -
ку па
ни нĠ
региона льногоĠ
То лькоĠ
обра щ
ника .Ġ
ма гистра
имуще стваĠ
во спо
тя тĠ
е :Ġ
ст ,Ġ
По ль
позволи тĠ
ис че
ти лаĠ
ми н
Ни ки
Р ы
Макси мĠ
поряд кеĠ
по зна
e t
особен ноĠ
прове лиĠ
Красно гвардей
заво даĠ
мер сан
ниц еĠ
Не смотряĠ
член ыĠ
a s
д но
сентя бреĠ
ж де
дома ш
согла ш
поли ции,Ġ
пар ко
Са мĠ
'Еди нойĠ
премь ерĠ
Рос потреб
публи ка
со ору
трен ерĠ
пла тыĠ
' Жи
л ки
Гу бер
мероприяти йĠ
аэропор туĠ
Законо датель
ку ри
с ъ
Смо льно
мини стро
неоднокра тноĠ
республи киĠ
осу жден
' не
по н
Ф рунзен
совмест ноĠ
надзор аĠ
ди .Ġ
ч каĠ
кон так
здра во
рубле й
e sĠ
постано влениеĠ
и ',Ġ
Л ондо
за про
2 .Ġ
у го
район ныйĠ
услу гиĠ
чи .Ġ
з ренияĠ
сою заĠ
ви лиĠ
тель нуюĠ
рели ги
боль ше,Ġ
д ниĠ
Во ен
сти тьĠ
ма лень
хоро шоĠ
улице ,Ġ
бы .Ġ
6 -
э п
парламен таĠ
заяви ли,Ġ
К ер
ст ин
на пря
вы х,Ġ
с ке
ра 'Ġ
С об
пожа раĠ
або нен
' Ро
' Де
по- прежнемуĠ
Москов скойĠ
Р .Ġ
О колоĠ
про шелĠ
в ме
ко й.Ġ
торго в
вы .Ġ
У жеĠ
К СĠ
креди то
под клю
музы ка
0- хĠ
на пада
ты мĠ
ста тисти
ст ы,Ġ
о лимпий
генера льногоĠ
разме рĠ
Ген ера
я х.Ġ
на я,Ġ
за тра
ро т
долж ностьĠ
ре за
президен томĠ
мо ни
распро стран
зая вленияĠ
Вяче славĠ
ак ционе
Е СĠ
спо кой
разви тиеĠ
печа т
Ко ва
убий ствоĠ
ма наĠ
США .Ġ
мат чеĠ
i o
то п
про хо
СС С
счита ют,Ġ
да миĠ
част оĠ
вер я
фигу ран
Проку рату
дела ,Ġ
борь беĠ
у мень
во лю
u n
задол жен
появи ласьĠ
обви нениеĠ
Константи нĠ
пер выхĠ
при меня
но вымĠ
4 7
'О х
февра леĠ
района хĠ
прош лиĠ
За па
провед енииĠ
вопро самĠ
ф аĠ
у казыва
объяви лĠ
про голосо
К рон
хок ке
С лу
ци тируетĠ
ра до
-лет нейĠ
с куĠ
бю джетĠ
поря докĠ
е ва.Ġ
ци ямĠ
теля .Ġ
росси ян
постоян ноĠ
право наруш
о прав
дела .Ġ
жа етĠ
тю рь
е '.Ġ
подчеркну л,Ġ
a m
ше нĠ
в нес
ва ть,Ġ
с нима
на сили
набере ж
Ле они
больниц уĠ
Федера льнойĠ
сдела лĠ
сотрудни каĠ
на сило
вя тсяĠ
поез д
е -тоĠ
говоря т,Ġ
во ,Ġ
за цияĠ
Еги п
ри юĠ
Фран цииĠ
комисси яĠ
По лу
си льноĠ
связа ноĠ
нов уюĠ
ки ',Ġ
ке рĠ
встре ча
ма 'Ġ
Оль гаĠ
га миĠ
де жур
В ОĠ
ро стаĠ
со зданиеĠ
По ро
Ж ен
ствен но,Ġ
па три
основ номĠ
да 'Ġ
э ле
В Т
подозр ениюĠ
Васи ле
| ПрезидентĠ
ду ш
'Лента. ру'Ġ
от личи
прове лĠ
т каĠ
не ожи
л киĠ
купи тьĠ
ви чаĠ
ма тьĠ
здраво охран
д ца
ю 'Ġ
сла ваĠ
помо щи
зна мени
поли циюĠ
дел юĠ
О те
К -
до воль
регистра цииĠ
в кла
ро м,Ġ
лю б
ше муĠ
миниму мĠ
тиче скогоĠ
нач нетсяĠ
Герма нииĠ
года мĠ
выро сĠ
пре вра
М ОĠ
сло жи
мы мĠ
суббо туĠ
Э сто
энер го
лицен зи
Ма й
свобо д
ноя бреĠ
ви а
Ве дьĠ
встре ти
апре леĠ
Е стьĠ
ц ы
установи тьĠ
слы ша
пресс- службыĠ
ле та
кре ст
s ,Ġ
5 5Ġ
вы дви
соверши лĠ
вани е.Ġ
пос мо
ми реĠ
экономи ческойĠ
раз о
же сто
Воз мож
су ль
' Ми
пы ,Ġ
чис лаĠ
пер ене
'А р
Ос нов
ми ',Ġ
О че
М МВ
А ф
контро ляĠ
' Ин
с пас
ради о
правоохранитель ныеĠ
Си рииĠ
за рубе
По мимоĠ
уров няĠ
' Петербург
с ви
и поте
тель номĠ
дву мяĠ
то еĠ
го лу
попа лĠ
у бор
доро гиĠ
музы кан
шта д
втор никĠ
появи лисьĠ
на па
корпу сĠ
Ю ли
Газета. руĠ
то войĠ
Т В
ново еĠ
Василе остро
име тьĠ
вше йсяĠ
иг рыĠ
докумен тĠ
г лоĠ
С ко
ва лосьĠ
обществен ныхĠ
са 'Ġ
тиче скойĠ
ново год
луч шеĠ
ни жеĠ
инициа ти
х иĠ
смо гĠ
точ ноĠ
по сад
лю ди,Ġ
х '.Ġ
гли й
w w
7 -
уче томĠ
воскресен ьеĠ
х ули
' ПоĠ
обла да
е тся
при водитĠ
пра веĠ
дово льноĠ
ца миĠ
у г
' УĠ
беспо ряд
Д Н
на шĠ
фо неĠ
про йтиĠ
ны ми,Ġ
чи ковĠ
ны е.Ġ
ж денĠ
пресс- секретарьĠ
организа цийĠ
хол дин
ка '.Ġ
январ еĠ
e rĠ
че кĠ
а уди
граждани нĠ
Россий скиеĠ
у мер
моло дойĠ
сте й,Ġ
' Ба
па ке
О С
участво ватьĠ
у воль
оказа ласьĠ
раж дан
Про ек
приобре т
вы дели
ограни чен
ны й.Ġ
Ф о
извест ныйĠ
кате гори
мест ныхĠ
демон стри
воз гора
Э тотĠ
руб .Ġ
ль го
ба ,Ġ
Что быĠ
пси хо
э кологи
сообщ енияĠ
А .Ġ
ь ян
суще ство
дан ногоĠ
Татья наĠ
неф тьĠ
ла мĠ
т но,Ġ
дни йĠ
Но в
инф ля
дете й,Ġ
и сте
'Ком мерсан
евро .Ġ
расследо ваниеĠ
коммен тари
Справ ка:Ġ
из насило
авгу стеĠ
шен коĠ
рестав ра
Е Г
не делюĠ
до говори
каждо гоĠ
д нееĠ
хи ми
Ва сили
сред немĠ
само еĠ
ве ща
4 ,Ġ
октя бреĠ
Ген на
да мĠ
повы шен
долж ностиĠ
ка кой
и м.Ġ
програм муĠ
су домĠ
позволя етĠ
при соеди
п ля
дан номуĠ
торго вĠ
при шелĠ
ка м,Ġ
Пре мь
не боль
с сĠ
оста лисьĠ
г ин
ска я'Ġ
поло житель
контро льĠ
об ру
з маĠ
вл ениемĠ
З е
е й.Ġ
жен ыĠ
фили а
значи тельноĠ
N ew
боле з
аэропор таĠ
сове тĠ
продолжа етĠ
Ц е
Петербург е,Ġ
ш лоĠ
вы м,Ġ
реши тьĠ
ка койĠ
я ми,Ġ
тор гово
следу ющийĠ
слож ностиĠ
проис ходитĠ
Г СУĠ
К стати,Ġ
ло д
систе муĠ
во й.Ġ
суд .Ġ
Вла стиĠ
ски й'Ġ
з ейĠ
совершен ноĠ
ки тай
при ступи
че муĠ
дале еĠ
обви ненияĠ
об станов
вы рос
это ,Ġ
ди тĠ
га заĠ
В ос
пред стоитĠ
Т ю
предло женияĠ
коман ди
обрати ласьĠ
и тальян
С З
ми та
ви ду
референ ду
ме стĠ
газе таĠ
ван ныеĠ
Большо йĠ
ро льĠ
то му,Ġ
гибе лиĠ
зон ыĠ
На циона
со жал
ри лиĠ
( '
раз вед
пло хо
ф ла
т скийĠ
мар киĠ
Но выйĠ
тр еĠ
ин спек
граждан ,Ġ
'С праведли
благо устрой
автомоби ляĠ
5 ,Ġ
Моск ваĠ
обрати лисьĠ
рабо то
пыта лисьĠ
Кири л
мужчи ныĠ
ла сь,Ġ
ла 'Ġ
заседани яĠ
тра ге
вл ениюĠ
19 7
ры вĠ
с началаĠ
масшта б
пробле мĠ
неде леĠ
мест ногоĠ
об уч
кон цеп
поправ киĠ
к етĠ
ка х.Ġ
ин спе
посо ль
ви дĠ
ло ка
След ственныйĠ
у си
миро войĠ
с вышеĠ
э н
производ ствоĠ
дома ,Ġ
самы еĠ
до ва
Ю жнойĠ
ве детĠ
метро в,Ġ
т |
сте й.Ġ
поли ции.Ġ
фор меĠ
пол ков
тя брь
ста би
ча етсяĠ
В М
3 ,Ġ
офор мл
за вед
по ни
ж номĠ
сказа л,Ġ
по казыва
про йдутĠ
o c
учи ты
использо ванияĠ
ль нымиĠ
Смо льногоĠ
ся ,Ġ
соб а
ию неĠ
ма ти
вос станови
фак тĠ
доб ы
Центра льногоĠ
сро киĠ
спор таĠ
ограни чи
отмеча ютĠ
За держа
.ru .Ġ
му тĠ
знаком ы
теку щегоĠ
та цииĠ
о го
Б ри
ч рез
тор же
при род
попроси лĠ
грузо ви
' ЕслиĠ
не га
лы .Ġ
чинов никовĠ
лу ,Ġ
фон дĠ
На ча
ве тĠ
в шуюĠ
автомоби лейĠ
согла шениеĠ
по кры
пра вамĠ
петербург скойĠ
от кло
опреде ля
б каĠ
Пос ле
пер воеĠ
Ц БĠ
ма то
О ста
В местеĠ
u ter
изо ля
де тя
прокоммен тировалĠ
требу етĠ
ци ен
при чемĠ
му ли
интере с
собеседни кĠ
мо ро
ж у
инциден тĠ
возвра ща
помо чьĠ
следо ваниеĠ
Р ез
защи теĠ
ба зеĠ
эваку а
програм меĠ
Re uter
испол ня
из обра
жи логоĠ
Вале рийĠ
ма хĠ
тив ныхĠ
ос обо
ко ор
се тя
ф рон
Э тиĠ
раз но
обеспе читьĠ
материа лыĠ
' Па
ин те
х :Ġ
Красно сель
ка киеĠ
за леĠ
е |
принад лежитĠ
ли це
граждани наĠ
руковод ствомĠ
собира етсяĠ
'Новости '.Ġ
в скойĠ
по строитьĠ
гу ма
восто кеĠ
in gĠ
a ce
в ся
намер еныĠ
влен ныйĠ
руковод стваĠ
ли :Ġ
га з
По жа
рассказа лаĠ
остро веĠ
ведом ства.Ġ
Та коеĠ
ну лиĠ
дер ж
со зданияĠ
замести теляĠ
гражда неĠ
ли 'Ġ
си рий
ма лоĠ
инжен ер
рай онĠ
но чиĠ
контрак тĠ
заклю ченияĠ
при зыва
отсут ствиеĠ
пор тĠ
са маĠ
клад би
сь маĠ
сегодняш нийĠ
инди виду
6 00Ġ
на правля
ва ть.Ġ
усло в
d a
ше стиĠ
ро м.Ġ
при не
те ме:Ġ
лик види
це в
ог не
Анатоли йĠ
ко пе
выпол нен
сы .Ġ
'Д ина
во дĠ
ю ',Ġ
ху д
коман даĠ
У Ф
те 'Ġ
возбу жденииĠ
ми нима
Офи циаль
предполо жи
в ъез
пер вымĠ
Н Д
са нитар
кон ститу
ству ,Ġ
ори ен
архи те
П ен
тро й
до кла
Прави тельствоĠ
преж деĠ
не о
Губер наторĠ
продук цииĠ
u r
трас сеĠ
па н
Прокурату раĠ
де ре
бес пла
ро жденияĠ
Че ч
у н
района ,Ġ
занима тьсяĠ
это го,Ġ
преступл ения,Ġ
Н ью-
тех никиĠ
я дер
пресе ченияĠ
в веден
худо же
по стро
ОО НĠ
w it
заме ча
Об ще
пред назна
бу дьĠ
подготов киĠ
Крон штад
ге ль
об ли
вя з
Комите тĠ
по строен
' Бе
вше муĠ
По страда
под чи
россий скимĠ
по вĠ
остро ваĠ
директо ровĠ
Д же
пла нĠ
I IĠ
эфи реĠ
сол да
полицей скиеĠ
ро во
Стои мостьĠ
полити киĠ
' При
Ле бе
смо три
с ъез
ко войĠ
четвер гĠ
Росси я
с мыс
кварти руĠ
досту пĠ
последни хĠ
де тиĠ
ли наĠ
РБ КĠ
Р П
бар ре
вы м.Ġ
З ем
год ,Ġ
Евро пыĠ
Эк спер
та ми,Ġ
значи т,Ġ
ш ениюĠ
специаль ноĠ
ве сьмаĠ
ци ямиĠ
суд ьяĠ
рова лаĠ
Примор скомĠ
компани ейĠ
индивиду аль
оппози ционе
районе .Ġ
необходи мыеĠ
Д еньĠ
ок е
o s
Ис пани
c h
здани йĠ
'Интерфак с'Ġ
лу .Ġ
винов нымĠ
ч ения.Ġ
вице- губернаторĠ
3 2Ġ
вне сен
2 ,5Ġ
тон нĠ
ФА СĠ
г е,Ġ
хра ни
предъ яви
жен аĠ
Па ри
9 -
угро жа
за вод
моло до
кто -тоĠ
води тсяĠ
Че резĠ
т куĠ
ра то
но го,Ġ
вто ры
лите рату
прош лаĠ
прави лаĠ
край неĠ
ча ,Ġ
200 4Ġ
к ле
Ки ев
' Та
о предел
недвижи мостиĠ
К ,Ġ
при вы
во даĠ
вла стейĠ
бро си
С ен
Россий скийĠ
су да,Ġ
па циен
конфлик таĠ
на ',Ġ
ва хĠ
щи ковĠ
цие й.Ġ
приходи тсяĠ
вы ру
веде нĠ
К ГИ
врем я.Ġ
пра ши
до м,Ġ
ва ющихĠ
над ца
гри п
Витали йĠ
проси тĠ
жи тельĠ
до сро
С те
за циюĠ
Te le
основ еĠ
Э СĠ
пыта лсяĠ
не -
игра тьĠ
За темĠ
цие й,Ġ
к ',Ġ
.. .
ь ер
вы шлиĠ
законодатель стваĠ
ения ',Ġ
воз му
чи ст
Ма рияĠ
работ никовĠ
лет ряс
во шлиĠ
соб люд
ции ',Ġ
си гна
пар каĠ
мест ныеĠ
то нĠ
мар ке
ло кĠ
ак цияĠ
П ,Ġ
ю го-
лик вида
ре е
до кана
дан номĠ
вла ст
С ла
u b
во семьĠ
в ходитĠ
за куп
3 6
на м,Ġ
каби не
вы йтиĠ
' Ла
национа ли
мо л
други мĠ
че стьĠ
Т С
Н ор
ющи есяĠ
Оте че
я ми.Ġ
дан нойĠ
Пред полага
пре пят
ступл енияĠ
соста ваĠ
проводи тĠ
но ва.Ġ
которы миĠ
петербурж цевĠ
д жи
я сяĠ
пожа рĠ
з бир
кандида товĠ
мест уĠ
мн ениеĠ
исче з
де кла
при бли
о щу
мно же
Пра во
ван ныйĠ
И ринаĠ
ч куĠ
ши миĠ
ссоциа цииĠ
зако номĠ
жда тьĠ
во .Ġ
Министер ствоĠ
При чемĠ
обрати тьсяĠ
си лыĠ
пись моĠ
ле кар
Со вет
'Дина мо
момен таĠ
взры ваĠ
Ю рияĠ
чен ко.Ġ
запре тĠ
че ст
случа й
экономи киĠ
лю бы
ение м,Ġ
с фе
улице .Ġ
относи тельноĠ
сторо ж
экспер тыĠ
ию леĠ
вле ка
консу льта
П .Ġ
проф сою
пси хи
мя г
ви зо
Но ,Ġ
ско го.Ġ
А ль
рассмотр енияĠ
ча сĠ
цер к
а гре
обязан ностиĠ
женщи ныĠ
во муĠ
Ор гани
Бла го
уве до
ни е.Ġ
Санкт- Петербурга
ч ленĠ
лиде раĠ
те ли.Ġ
появи тсяĠ
смер тьĠ
территори аль
рас ходыĠ
ла нд
Л ав
a lĠ
3 5
сси яĠ
Санкт- ПетербургĠ
зав тра
ве щ
из бежа
я в
лов скойĠ
се ку
пи сы
доро жа
вы лете
С И
за планирова
пусти лиĠ
Моск ве.Ġ
университе таĠ
от че
со пер
за ло
Подроб ностиĠ
рассмотр ениеĠ
Ч ПĠ
По дĠ
про ходятĠ
пре бы
степен иĠ
М ур
ре ва
фа мили
сс -
мо ря
дей ствоватьĠ
п лен
обра щениеĠ
о пе
сожал ению,Ġ
б ре
эле мен
ен ь
бе зу
борь быĠ
А мери
свя зи
пя ти
наста и
бли оте
це мĠ
консу ль
Тур цииĠ
у ника
ти фика
нача тьĠ
У част
то вар
че скимиĠ
Го род
' Бо
поез даĠ
до ставилиĠ
право слав
пад енияĠ
л ',Ġ
следстви яĠ
выя сня
поддерж киĠ
бу ква
' То
отнош ениеĠ
ущер бĠ
пар ков
город уĠ
руб ля.Ġ
дума ю,Ġ
вы сказа
p p
се мей
дете й.Ġ
при ся
ка зыватьĠ
СП бĠ
чита йтеĠ
i on
шен ыĠ
хоте лĠ
обо й
закон уĠ
предложи лиĠ
ведом ства,Ġ
по га
то ромĠ
ти 'Ġ
мене е,Ġ
предлага ютĠ
ми 'Ġ
ль я
На канунеĠ
ту рец
ста миĠ
с бы
в вестиĠ
противо ре
вы год
выпу ск
3 3Ġ
служб уĠ
бы строĠ
Ко не
па ри
режи мĠ
посел кеĠ
Вто ройĠ
собра нияĠ
след ственногоĠ
на -
Ко ло
воен ныеĠ
премьер- министрĠ
догово раĠ
ва ти
носи тьĠ
департа ментаĠ
с ногоĠ
ен оĠ
три бу
од номуĠ
абсолю тноĠ
сило ви
нача ласьĠ
Ба ра
протя женииĠ
зависи мостиĠ
финан совĠ
спу т
деся тьĠ
кто раĠ
га яĠ
М но
Да ге
сче томĠ
но ваяĠ
регла мен
от де
Й ор
ответ ству
дополнитель ныеĠ
при былиĠ
дома .Ġ
Д аль
цион наяĠ
харак тер
фир мыĠ
на х,Ġ
сторо ны,Ġ
филь мĠ
напра вленоĠ
кризи саĠ
об суди
е теĠ
бизне саĠ
оп ти
програм маĠ
петербург скийĠ
' Бу
ки наĠ
Украи ны.Ġ
Об ъ
На де
т но-
полицей ски
3 7
Э таĠ
нача льноĠ
га ра
тури сти
жа .Ġ
по втор
вы ста
кило грам
использо ваниеĠ
тер мина
санк цииĠ
на вер
горо да
ж наяĠ
матери аль
долла ров,Ġ
ин стру
S t
P res
та ми.Ġ
религи оз
жиль яĠ
оружи яĠ
комму ника
e ,Ġ
н нымĠ
Возмож но,Ġ
ко смо
ва 'Ġ
Фи ли
от ли
му со
де лега
бе .Ġ
Ка н
с веденияĠ
поз дра
кла сси
воен но-
чис ли
ма миĠ
и ныхĠ
о скор
вы бра
социаль ныхĠ
выступи лĠ
рова .Ġ
У ВДĠ
Мо ло
щи кĠ
Г ра
сотрудни камĠ
обнаружен оĠ
боль шаяĠ
ну жда
мо еĠ
деся тиĠ
дани еĠ
переда чиĠ
ла гер
ту юĠ
подчер ки
автомоби ле
Ка ды
1 'Ġ
распростра ня
о па
н гель
на силь
работа лиĠ
появи лсяĠ
- 2
ст скойĠ
ско м
с к.Ġ
' Ли
семь иĠ
коло н
Со ответству
де ло.Ġ
все ,Ġ
на н
прода жеĠ
концер тĠ
Ре й
получа тьĠ
ение м.Ġ
Примор скогоĠ
ски ,Ġ
проек товĠ
журнали стовĠ
но ',Ġ
приня тияĠ
по й
сут киĠ
оконча нияĠ
уро жен
ж ениемĠ
чен ко,Ġ
фа са
судеб ныхĠ
само стоя
раз обра
рассказа л,Ġ
предприяти йĠ
по ис
неф тиĠ
обра щенияĠ
ны ',Ġ
Г руп
Игор яĠ
И са
сво е
ми '.Ġ
орга нахĠ
лы мĠ
це ло
' неĠ
Моск ве,Ġ
э кра
бе се
наруш енийĠ
други миĠ
ста мĠ
раз доĠ
международ ныхĠ
медицин скойĠ
Воз бу
я :Ġ
гума нитар
ст ры
голосо ванияĠ
г ло
сто льĠ
ства хĠ
Г ар
r an
мони то
e мĠ
эк спо
предо ставитьĠ
пред стоя
ни лаĠ
П ор
Го ро
совер ша
ка д
те п
ран ен
говори лиĠ
ведом ствоĠ
напра вленыĠ
ди к
н наяĠ
вы чай
владе лецĠ
Лебе де
3 8
тер на
пусти тьĠ
с кла
основ нойĠ
жи лойĠ
Ар ша
при сво
занима етсяĠ
'П и
голу бы
кварта леĠ
ви ч,Ġ
уч ени
прош лойĠ
район уĠ
приз валĠ
мо га
взя тьĠ
ки '.Ġ
сло в
реш ениюĠ
международ ногоĠ
ки ев
со ли
Санкт-Петербург уĠ
Ж у
предъя вленоĠ
воспо льзо
e .Ġ
' Ле
п ры
поме щенияĠ
зву ча
Все во
с вет
ка кихĠ
гра н
во всеĠ
жиз нен
Эр мита
су да.Ġ
нача лисьĠ
с ныеĠ
мо гуĠ
ча ется,Ġ
должност ныхĠ
коро т
| С
е сть,Ġ
бо га
меха низ
бе ль
с к,Ġ
отмеча етсяĠ
Р С
ва ет,Ġ
провер каĠ
се йĠ
пози цииĠ
та м.Ġ
проис ходи
Никола яĠ
жерт вĠ
ММВ БĠ
Во ло
существу етĠ
требо ванийĠ
м скĠ
ан глий
разме щенияĠ
Ло моно
да ютĠ
гла войĠ
Гру зи
си бир
об аĠ
сай таĠ
ко -
ст ю
ме раĠ
Л ДП
от правля
о пол
установлен о,Ġ
й скогоĠ
Дон ба
ника когоĠ
бо к
еха лиĠ
сред ств,Ġ
оз ву
Р уĠ
3 6Ġ
i aĠ
проек ти
претен зи
зы ,Ġ
на хо
тель ,Ġ
теле вид
попа лиĠ
пре пода
потен циаль
Х е
о нов.Ġ
отнош енийĠ
У правленияĠ
Ро манĠ
пунк тĠ
подоб ныхĠ
Представи телиĠ
штра фĠ
ск е,Ġ
емы мĠ
вз ор
ре фор
Н .Ġ
юще муĠ
Глав ныйĠ
Калини н
дет скихĠ
подряд чи
перспек тив
энерге ти
с сеĠ
вырази лĠ
О ПĠ
сче таĠ
Ар битра
4 2Ġ
эп изо
по про
ни будьĠ
Ла тви
поль зу
то вари
. )Ġ
те лаĠ
большо еĠ
'С и
предусматри ваетĠ
напад енияĠ
день ги,Ġ
поз жеĠ
Депута тыĠ
судеб ногоĠ
последстви иĠ
00 .Ġ
х ар
сокра ти
об осно
чрез вычай
мо стаĠ
во 'Ġ
со зданииĠ
c eĠ
спу стяĠ
больниц ыĠ
та куюĠ
К .Ġ
тяже ломĠ
д ю
Нев скийĠ
Вади мĠ
ем сяĠ
жен ныхĠ
Т ор
энер ги
провер ка.Ġ
от пра
основ ныхĠ
жи ву
' ,
ц ар
ж ,Ġ
г е.Ġ
Финлян ди
ко ри
e dĠ
согла шенияĠ
за пла
а ген
по кол
ниц уĠ
те о
ито гиĠ
чи тĠ
кра си
г 'Ġ
но мина
мо то
ж етĠ
щи киĠ
назна ченĠ
компани й,Ġ
за вери
би блиоте
неожи дан
н 'Ġ
пресс- конференцииĠ
Куз не
10 -
исключи тельноĠ
экспе ри
собствен ностиĠ
верну тьсяĠ
Да ,Ġ
Арша ви
ро ванииĠ
обнаружен ыĠ
2 50Ġ
ско рост
праз дно
ну ко
возра стеĠ
руб ля,Ġ
получи тĠ
и дутĠ
вой ныĠ
Е еĠ
ш киĠ
ста ра
подтверди лĠ
ки |
политиче скихĠ
меня тьĠ
ь е,Ġ
хо вĠ
у доб
музе яĠ
ль но-
догово рен
щен оĠ
планиру ютĠ
е сте
в правеĠ
з бе
ин дек
води тьĠ
России ',Ġ
го раздоĠ
b oo
ис следова
аук ци
Lenta .ruĠ
премьер аĠ
каки х
Ж е
иг ры
го спо
кате го
стоимо стьюĠ
жо мĠ
ак циюĠ
политиче скойĠ
глав нымĠ
'Ох таĠ
СМИ :Ġ
об жало
ни ки.Ġ
задержа нныхĠ
О лимпий
Ко ро
л ков
клю че
оказа лосьĠ
Б ,Ġ
3 9
.co m
ка сса
с сажи
сель хо
рован ныеĠ
де фици
'А н
ми |
призна нĠ
ря деĠ
я с
э пи
систе меĠ
про б
ку 'Ġ
ко пей
в неĠ
Во -
пересе ченииĠ
л га
оператив но-
ма я.Ġ
'Еди наяĠ
ча сов.Ġ
вз рос
'Т ран
хо домĠ
удо стовер
по мимоĠ
пре крас
жа ,Ġ
до ле
подготов кеĠ
a nĠ
200 3Ġ
ул .,Ġ
се йча
издани еĠ
достав ленĠ
Сове тĠ
' Ра
группи ров
Ш ве
Нью- Йор
у полномочен
круп номĠ
ди тельĠ
рова наĠ
но :Ġ
све то
Украи ны,Ġ
та х,Ġ
не е.Ġ
ма я,Ġ
t aĠ
л ло
ле ги
станови тсяĠ
ла яĠ
мед лен
доказа тель
част ьюĠ
привле чьĠ
бо кĠ
ны 'Ġ
вопро с,Ġ
хо тьĠ
петербург скиеĠ
Наталь яĠ
с форми
по пы
Лен области,Ġ
'Интерфак су
ть '.Ġ
тив ныеĠ
ск е.Ġ
ны неĠ
нача лоĠ
воспи та
цион нуюĠ
ис ла
ого ньĠ
вед енииĠ
ма тер
e d
проспек те,Ġ
транспор тныхĠ
организа ции,Ġ
по влия
пар тияĠ
до м.Ġ
ба нд
рекомен до
Ф АĠ
сум мыĠ
ка ли
рас счита
i v
ц ы.Ġ
надзо рĠ
3 .Ġ
став киĠ
пол номĠ
стра ли
3 7Ġ
Лу ган
увеличи тьĠ
под ъез
ч ения,Ġ
хва та
обстоятель стваĠ
бы ть,Ġ
сред не
С Н
полу чениеĠ
под ъ
метра хĠ
Великобрита нииĠ
нача лсяĠ
пре дела
Мини стрĠ
Евро сою
Мужчи наĠ
ребен окĠ
материа ловĠ
Росси ейĠ
пы .Ġ
гря з
года хĠ
5 .Ġ
чи ватьĠ
сентя бря.Ġ
О Б
занима етĠ
полу ченныхĠ
8 00Ġ
дека бря,Ġ
смо траĠ
президен туĠ
Смо льномĠ
h t
стви емĠ
раз решенияĠ
пе с
по вто
бюдже тныхĠ
В ен
Т ер
Д жа
Д ваĠ
ace boo
7 00Ġ
неф тя
испол ненияĠ
' Ш
дека бря.Ġ
ход яĠ
случа йĠ
рабо ты.Ġ
ня ,Ġ
мо дер
19 6
'З аĠ
мени тьĠ
Каза х
зем летряс
сла м
подоб ныеĠ
ча щеĠ
Пе тер
филь маĠ
ком фор
ка феĠ
шен ныхĠ
и '.Ġ
друго гоĠ
газе тыĠ
очеред иĠ
ни какĠ
маль чи
Евг енияĠ
случа евĠ
М ер
клу бо
фрак цииĠ
т нымиĠ
о графи
ти мĠ
че ре
с прави
ос обы
ства миĠ
строитель нойĠ
же мĠ
ще муĠ
А ,Ġ
пар кеĠ
кана лаĠ
Оле гаĠ
отды ха
4 .Ġ
повре жд
культур ногоĠ
количе стваĠ
защит никĠ
ви ль
н ноеĠ
лю ,Ġ
эконо м
до льщи
ч .
из гото
воз ника
маши нĠ
бело -
от кро
а ф
ско ройĠ
при остано
вы яви
Ф КĠ
т вра
Возбу жденоĠ
федера льныйĠ
на '.Ġ
жи да
ени ю.Ġ
Даге ста
шта баĠ
кла ссаĠ
Д аĠ
массо выхĠ
в ходя
переда тьĠ
монито рин
и сточник
у жĠ
столкну лисьĠ
пресс- служ
Г он
С тре
Пулко воĠ
Анто нĠ
ре ль
ну тсяĠ
машин уĠ
СМИ .Ġ
Кол пи
из дели
до пу
эк спор
ра х,Ġ
фестива ляĠ
случа яхĠ
ки н.Ġ
Ки р
сцен а
ш уĠ
парти й
е кĠ
Фото :Ġ
.co mĠ
интере сыĠ
па тру
носи тĠ
хо телиĠ
режи маĠ
реги оновĠ
заво дĠ
в сяĠ
Ин форма
заяви ла,Ġ
Пред седа
И ,Ġ
руководи телейĠ
прави ло,Ġ
про вин
похи тилиĠ
мар та.Ġ
F aceboo
20 00Ġ
ра ст
измен енийĠ
дет скогоĠ
Спа ллет
И р
сопрово жда
рабо ты,Ġ
к ер
пере ез
й скойĠ
нк уĠ
ща етĠ
ша лаĠ
ре волю
ска ,Ġ
действу ющейĠ
У збе
об стре
мужчи нĠ
при вестиĠ
де ло,Ġ
розы скаĠ
пода лĠ
о ч
це ляхĠ
сво емуĠ
приня лаĠ
выз валиĠ
Фе до
a il
ство м,Ġ
защи туĠ
рекла м
имуще ствоĠ
ве дутĠ
в печат
состоя ниюĠ
К О
те нĠ
ректо рĠ
на х.Ġ
д ныхĠ
Я ро
ван ногоĠ
ь 'Ġ
с про
Т ру
Москов скийĠ
пере ул
части чноĠ
окру гаĠ
на |
заме ти
щен аĠ
ни наĠ
ид тиĠ
тро вĠ
предлага етсяĠ
п уĠ
П я
М неĠ
кон стру
де ть
предо твра
мер уĠ
a d
3 4Ġ
та комĠ
пел ля
Санкт- Петербурга.Ġ
верну лсяĠ
рай оновĠ
вре даĠ
част ныхĠ
вой скĠ
Б .Ġ
( поĠ
рабочи хĠ
перегово ровĠ
ци ю
дела мĠ
во ин
N E
прокуро раĠ
Т Э
Ма т
В ар
ро ли
прав ленĠ
не лега
Ленин гра
К У
про ка
Ре шениеĠ
тру даĠ
транспор тногоĠ
строитель ныхĠ
оста лсяĠ
бр ен
архитек тур
со ваĠ
кварти р
в 'Ġ
Х ар
Ф И
Та киеĠ
Кон так
пу темĠ
подтверди лиĠ
ат мо
со держи
прода жуĠ
ди лаĠ
э ли
превы шаетĠ
бю ллет
С во
сни жениеĠ
ка ко
наличи еĠ
л да
государствен ныйĠ
рован ныйĠ
провод ятĠ
ФС И
Украи наĠ
ю сяĠ
аль терна
Р я
Ми ло
рован нойĠ
ме траĠ
конц уĠ
встре чуĠ
то ло
ер -
банк рот
Жен щи
преми иĠ
in g
на стро
имен о
Моск вуĠ
пала тыĠ
наказа нияĠ
крупней шихĠ
еди нен
По до
орга намиĠ
образо вани
корре к
се ме
Все мир
финанси рованияĠ
тре тийĠ
на ко
ши тьĠ
д 'Ġ
в рядĠ
уди ви
о пятьĠ
им пор
бан ковĠ
бере ж
наб люд
администра цияĠ
20 -
сто р
правл ениеĠ
парламен тари
магази наĠ
зи ру
же цĠ
Бори саĠ
К с
Викто раĠ
раз де
НАТ ОĠ
Те а
Проек тĠ
Да жеĠ
мо в,Ġ
ком аĠ
бело- голубы
ОМ О
по са
бу ль
i g
a g
продолжа ютĠ
Верхов ныйĠ
тради цион
с праведли
ин дексĠ
сред нейĠ
вла сти,Ġ
Ка ра
( наĠ
Чи та
Депута тĠ
ре спонден
оста льныеĠ
мор скогоĠ
е маяĠ
у бы
ро м
на пи
ку рор
служб еĠ
ка |
хули ган
раз бой
объясни лĠ
А мерикан
учре жденияĠ
F or
по дар
представля етĠ
то ра
пол тораĠ
ад жи
дол гоĠ
реа били
отве ти
октя бря.Ġ
пыта ютсяĠ
психо логи
пре пара
пос ла
мили ции.Ġ
мо глаĠ
зво н
сот ниĠ
рас хо
компью тер
А кадеми
ся тсяĠ
спо ко
Санкт- Петербурга,Ġ
федера льныхĠ
участ ковĠ
ству .Ġ
услови йĠ
теле фо
июня ,Ġ
задержа нияĠ
групп еĠ
201 7Ġ
суд яĠ
сдела лиĠ
пунк таĠ
вы бира
Ти хо
Не м
х ле
получа тĠ
в ри
бе жен
Из вест
у ва
' Ку
доба вля
3 8Ġ
стар то
то .Ġ
процес суаль
тирова лиĠ
представи телямиĠ
пострада вши
полови ныĠ
пер ваяĠ
може мĠ
РТ СĠ
й бу
Ок тябрь
прово ка
ство м.Ġ
групп уĠ
Петер го
ша х
пробле маĠ
о гла
квали фици
каки е-тоĠ
Лю д
чи сле
ло житьĠ
кур си
в щи
ф ан
работо да
прокурату ры,Ġ
мест е.Ġ
границ ыĠ
автомоби ли
Дворцо войĠ
б ,Ġ
З десьĠ
суд ,Ġ
рей сĠ
за слу
Ча й
сне го
ен ноĠ
ради остан
офор м
ж ениюĠ
я м.Ġ
тури стовĠ
выде ля
бес плат
поддерж кеĠ
оста ютсяĠ
Гру зииĠ
процентов ),Ġ
пообеща лĠ
пеше ход
объ един
е те,Ġ
буква льноĠ
совершен оĠ
собы тийĠ
про сятĠ
вре за
s o
я х
не многоĠ
буду щемĠ
подозрева емогоĠ
Н у
7 5Ġ
по грани
опы тĠ
дис ци
санк циони
ремон таĠ
строитель ствеĠ
завер шен
сегодня ,Ġ
осно ва
су ме
согла с
следу ющемĠ
окру жа
сро каĠ
предло жен
люде й.Ġ
Н ,Ġ
неизвест ныйĠ
му суль
Ма н
тре во
ограни ченияĠ
ло ва,Ġ
ка к
Ка м
цер ков
соответству ющиеĠ
вше мĠ
ряд уĠ
наз ватьĠ
де та
пер вых,Ġ
Х и
чис ля
содержа ниеĠ
0 .Ġ
которы й,Ġ
6 ,Ġ
модер ни
она ,Ġ
зер бай
бо рĠ
подозрева емыхĠ
но м.Ġ
ни ч
не цĠ
зербай джа
в каз
управл енииĠ
зи роватьĠ
гово р
харак тери
т скиеĠ
проте стаĠ
называ ютĠ
комму ни
причи ныĠ
Путин .Ġ
от бы
о нов,Ġ
действи тель
одно временноĠ
ва й
щ ениюĠ
ствен номĠ
ко 'Ġ
про долж
мене дже
куль те
группо йĠ
суд наĠ
сс ыĠ
кон ста
анти моно
с проси
у креп
академи иĠ
авгу ста.Ġ
3 4
ожида етсяĠ
дани яĠ
Ж а
про пу
суб си
до сто
гото ваĠ
при мутĠ
У МВДĠ
Бы вшийĠ
стади онаĠ
ноя бря.Ġ
приме тĠ
ию ля,Ġ
наза д,Ġ
различ ныеĠ
при останови
пози циюĠ
не котороеĠ
зо о
дру з
город скиеĠ
Сою заĠ
До л
ре йĠ
вы пуска
С вя
июня .Ġ
го вари
процес сеĠ
коне цĠ
г да,Ġ
автобу сĠ
o m
8 ,Ġ
ст рен
ман да
ию ля.Ġ
Лю бо
процентов ).Ġ
ни ко
си ст
обще стваĠ
стоя тĠ
ста нутĠ
связа нныхĠ
ли нĠ
ж дутĠ
ро даĠ
реги онаĠ
москов скомуĠ
Премь ер-
сте нĠ
при былĠ
арми иĠ
участи иĠ
ли зацииĠ
реша етсяĠ
пос чита
та |
фа культе
ор ке
до про
вну триĠ
ИТАР- ТАСС.Ġ
пре о
ны й'Ġ
наза д.Ġ
Всево лож
украин скихĠ
Ка мен
финансо выхĠ
н бур
вез лиĠ
ме сти
доста вленыĠ
самостоя тельноĠ
перевоз чи
сер д
мен аĠ
вы ска
си не-
преступл енийĠ
отказа тьсяĠ
исто рияĠ
Васильев скомĠ
непосред ственноĠ
л ени
соору ж
види мо,Ġ
П лю
ы хĠ
к мĠ
железно дорож
прокурату реĠ
адре су
Цен тро
Со чиĠ
у дар
тон не
рова тьсяĠ
рус скогоĠ
прове детĠ
обяза тельноĠ
объя вленĠ
Хо дор
потре бу
е цĠ
'О б
собира ютсяĠ
глав уĠ
бе ,Ġ
цо ваĠ
футбо луĠ
сентя бря,Ġ
се миĠ
рас се
по иско
сам ми
владель цевĠ
Донец койĠ
'И слам
культу реĠ
Ходор ков
Узбе киста
м лад
выну жденыĠ
л лан
по хоро
вско реĠ
во домĠ
ви ру
ад рес
все миĠ
на шемĠ
веден ыĠ
лле йбу
ле ж
Пе трĠ
сосе д
россий скомĠ
мили ции,Ġ
сро комĠ
больниц еĠ
бе д
воро таĠ
М А
зи тьĠ
за ба
Финлян дииĠ
У Е
ность ю.Ġ
пол ныйĠ
финансо войĠ
нега тив
находи тьсяĠ
А ле
повы шениеĠ
по дорожа
министер стваĠ
дене жныхĠ
i k
официаль ногоĠ
маши наĠ
Коне чно,Ġ
пр .,Ġ
заклю чен
Иль яĠ
стра нахĠ
за просĠ
Вели койĠ
чита тельĠ
поступи лаĠ
до войĠ
устра и
темпера тураĠ
телекана лĠ
поступи лĠ
n ew
та рииĠ
з рева
u s
суще ственноĠ
Д ви
ша етсяĠ
тра к
отмети ть,Ġ
расче тамиĠ
отличи еĠ
наз ваниеĠ
ль скойĠ
какой -тоĠ
ин форми
Во ро
C h
о ф
мэ раĠ
причи нĠ
' Се
за п
стату сĠ
оста лосьĠ
опла тыĠ
се тĠ
ли ф
до пуска
веде тсяĠ
уголов нойĠ
реш енийĠ
ме тĠ
кло н
Петербург скийĠ
свобо ды.Ġ
пенси он
ино мар
лиде ровĠ
конфлик тĠ
жи .Ġ
полови неĠ
полномочи йĠ
клиен товĠ
за каза
Па ра
ю сь,Ġ
американ скихĠ
пе да
объек тыĠ
ко т
заявл енииĠ
действу етĠ
ба зыĠ
последни мĠ
долла ров
'А эро
отдел ениеĠ
объек таĠ
отказа лисьĠ
грози тĠ
га л
те сьĠ
ра б
ви нуĠ
бы ло,Ġ
времени .Ġ
', -Ġ
со м
Ро ма
уголов ныхĠ
ения х,Ġ
ч енийĠ
ссы ла
те б
Бе ль
муниципа льныхĠ
докумен ты,Ġ
попа стьĠ
ла бо
Кры маĠ
соответству етĠ
кра т
С ы
ь ю.Ġ
не дав
'Фонтанка ',Ġ
бу ты
ску ль
компенса цииĠ
Люд ми
пиш утĠ
зе .Ġ
ч ка
спи керĠ
Дени сĠ
у худ
ли тьĠ
диа ло
КП РФĠ
а де
та ко
м -тоĠ
Генна дийĠ
с горе
Светла наĠ
ре киĠ
октя бря,Ġ
напад ениеĠ
се рииĠ
п л
га тьĠ
эк замен
T im
террористи ческойĠ
про гре
кре пи
бар ди
Ли го
'Га зе
попыта лсяĠ
Б рази
телекана лаĠ
организа циюĠ
э мо
при вати
у мерĠ
стро я
ни х,Ġ
мон та
которы е,Ġ
постав киĠ
по следу
э се
ро лиĠ
'Газета.Ru '.Ġ
e лĠ
на ми,Ġ
жиз ни.Ġ
сте рĠ
ноя бря,Ġ
мар та,Ġ
ль ни
Ш о
Санкт-Петербург скогоĠ
сту юĠ
скуль п
вы ходаĠ
' Север
' Вы
тиче скиеĠ
ос на
за бы
вы мога
Поро шенкоĠ
ши лиĠ
с х
ствен нуюĠ
административ ныхĠ
A pp
'Ф ор
хо че
связа нныеĠ
полу чен
рас ска
раз решениеĠ
обнару женĠ
га ре
бое при
3 1
стой чи
э й
ж .Ġ
Законодатель ногоĠ
заклю чениеĠ
вспо мни
ть :Ġ
послед негоĠ
Федера льногоĠ
Де й
пото му,Ġ
авгу ста,Ġ
З у
недо воль
Во сточ
ва ющиеĠ
4 4Ġ
жалоб уĠ
Ко ре
К ресто
ю сьĠ
контрак таĠ
оста нетсяĠ
Медведе ваĠ
ле ст
выступл енияĠ
Министер стваĠ
реш ениемĠ
районе ,Ġ
отнош ениюĠ
десят ковĠ
'С пар
Т Р
S p
ло м
й )Ġ
до ляĠ
финансо вогоĠ
утвержда ет,Ġ
места хĠ
пла не
каже тся,Ġ
выпла тыĠ
бло ка
ин стан
Ин дексĠ
даль шеĠ
стран ,Ġ
спи р
специали стовĠ
утвер жден
пад ениеĠ
вне стиĠ
ство валиĠ
пере ченьĠ
доро геĠ
памят никĠ
1 20Ġ
рассказыва етĠ
о пер
а 'Ġ
сине- бело-голубы
до вери
памят никаĠ
организа торыĠ
ка ра
Цен трĠ
О пера
москов скогоĠ
апре ля.Ġ
АЖУ Ра
спи скеĠ
про з
при мерĠ
NE W
ции '.Ġ
полити кеĠ
сказа тьĠ
обви нитель
коммер ческихĠ
техниче скогоĠ
избира тельнойĠ
4 8Ġ
ры ваĠ
- нибудьĠ
с фаль
у регули
ло жи
плю сĠ
ла у
с вер
груп па
'С парта
'Интерфаксу 'Ġ
от казĠ
не рĠ
собствен нойĠ
ори те
дисци пли
верто ле
Госду муĠ
те леĠ
Р оди
т. д.Ġ
ба ш
ру киĠ
ро вани
побе дуĠ
любо мĠ
зо йĠ
до ж
Чер но
рубле й|
Юли яĠ
СИ З
жела ниеĠ
Ку бкаĠ
торгов лиĠ
провод ятсяĠ
Ново сибир
6 5Ġ
продук товĠ
про писа
кол лега
жа н
ло ща
7 7
ча тĠ
A ir
россий скаяĠ
дополнитель ныхĠ
д я
Республи киĠ
эксплуата циюĠ
ма лы
ки :Ġ
из бран
деся ткиĠ
встре чаĠ
эк стрен
транс ля
об ходи
институ таĠ
зон уĠ
серьез ныеĠ
под вод
губернатор уĠ
вы па
не по
я )Ġ
сообщи ла,Ġ
на шимĠ
стра ш
раз ныеĠ
по дели
ар мей
ль па
з р
американ скойĠ
След ствиеĠ
Ви це-
про игра
прав да,Ġ
отве тилĠ
мужчи нуĠ
юще йсяĠ
пятниц у,Ġ
сохра ня
ма логоĠ
выне сĠ
л каĠ
за блоки
боль шуюĠ
Мин фи
се веро-
та х.Ġ
петербург скомĠ
а пелля
ци к
у веря
поло жениеĠ
горя чейĠ
безопас ности.Ġ
проду кто
Чи нов
ша ютĠ
соб ор
да ватьĠ
треть емĠ
организа ции.Ġ
раз .Ġ
п чи
находя щи
' Евро
ту ро
стави тĠ
г мен
ве с
ССС РĠ
увиде тьĠ
су довĠ
сси в
ра х.Ġ
пострада л.Ġ
жалоб ыĠ
государ ствоĠ
про гу
откры тияĠ
га ли
Нор ве
Васили йĠ
B o
свя зыва
г лоб
ком пози
T wit
гру зин
част ностиĠ
реши лаĠ
ра стор
при говорилĠ
Оба маĠ
сти ',Ġ
ту 'Ġ
превы си
зи нĠ
торго выхĠ
су пер
ки ноĠ
здани юĠ
Г лу
про сты
Москвы ,Ġ
проек тыĠ
мо ск
това ровĠ
Б ор
обще жи
международ нойĠ
бра лĠ
лич ногоĠ
извест ногоĠ
боль шиеĠ
Бан кĠ
жиз н
выступа етĠ
не прия
намер енаĠ
лю .Ġ
прош ло
прокурату руĠ
организа ций,Ġ
ликвида цииĠ
СЗ Ф
пре зен
организа то
сторо неĠ
содержа нияĠ
со мо
та -
суд ноĠ
се й
офи це
полу ченииĠ
ны х'Ġ
каж дойĠ
рез коĠ
чемпиона теĠ
помещ енийĠ
обы чноĠ
дву мĠ
го стейĠ
Ста ни
ходи лиĠ
здоров ьяĠ
ско го
опти ми
вра чиĠ
поли го
Ш вей
Г А
об ер
за пол
Ли гиĠ
теа трĠ
ска .Ġ
' Ц
поки нутьĠ
пла н
Спе циали
по верх
издани я,Ġ
вши миĠ
возмож ныхĠ
подозрева емыйĠ
ли ',Ġ
про доволь
мо в.Ġ
за держ
вы стре
до ч
ссе й
щи миĠ
региона хĠ
про ходитьĠ
пол нойĠ
по нен
откры тьĠ
шо уĠ
тив ныйĠ
бю роĠ
И ванĠ
ст раĠ
сохра ни
ме ч
тен ден
лиц а
бое выхĠ
Председа тельĠ
профи ла
вече раĠ
государ ства.Ġ
води теляĠ
сете йĠ
роди телиĠ
' Санкт-Петербург
ка ме
жа ютĠ
не которымĠ
Ф ор
Ж К
' |ВĠ
он ыĠ
ис прав
день ,Ġ
вы ходĠ
Адвока а
тро ллейбу
прода в
не выез
площад кеĠ
незакон ноĠ
инфраструкту рыĠ
Красно дар
тель скихĠ
нау киĠ
компани юĠ
ф ра
в ходятĠ
На род
Мур ман
сы нĠ
про чи
американ скогоĠ
Представи тельĠ
т ря
стоя ниеĠ
я |
о писа
пе ,Ġ
оппози цииĠ
ж ин
Г раждан
ство 'Ġ
и -
женщи нĠ
емо мĠ
телефон уĠ
од нако,Ġ
глу бо
С тра
ж детĠ
России '.Ġ
Во сто
зависи тĠ
боро тьсяĠ
су ,Ġ
ме мо
ти юĠ
учре ди
повы шенияĠ
Мно гиеĠ
4 9
разме сти
ми :Ġ
С пор
o v
х ин
се лĠ
числе ,Ġ
свидетель ствуютĠ
педа го
Отме чается,Ġ
ли дер
хоро шо
заказ чи
з ени
е войĠ
чи ва
3 ,5Ġ
лен ныеĠ
ле вĠ
го гоĠ
взя т
инциден таĠ
i P
тиче скийĠ
отмети лаĠ
ма ри
с :Ġ
препода ва
зы .Ġ
реб я
пла ныĠ
подозре ваютĠ
день ги.Ġ
владель цаĠ
дво й
С пи
обеща ютĠ
девя тьĠ
Сте па
Мо ги
ры но
ри и,Ġ
вод ствоĠ
oo g
со мн
приобре стиĠ
петербурж цыĠ
Жи телиĠ
ма мĠ
Государ ственнойĠ
' |Ġ
приеха лĠ
болельщи ковĠ
б .Ġ
'Спар так
рован ногоĠ
нача лосьĠ
квали фика
ри те
поста нов
поня тно,Ġ
н нуюĠ
дипло ма
Ти мо
0 ,Ġ
р ныеĠ
предупре жда
сы но
наш аĠ
л '.Ġ
ули цĠ
милли онĠ
ло ва
европей скихĠ
Стро и
te rĠ
уведо мл
Ко А
получа ютĠ
от ста
за держи
МВ Д.Ġ
тру бо
тран зи
избежа тьĠ
вла сти.Ġ
боль нице
Ин ститу
тив нойĠ
доро жнойĠ
Поли цей
оп ьян
Ж КĠ
свя щен
ше кĠ
утвержда ют,Ġ
ку бо
при ну
к стати,Ġ
директо ромĠ
ги б
ба лан
К ра
Екатери нбур
ш каĠ
февра ля,Ġ
устано вленыĠ
10 5Ġ
напра влен
с ли
все муĠ
en tĠ
мест нойĠ
ве лаĠ
января .Ġ
февра ля.Ġ
сторо наĠ
результа тĠ
друго мĠ
кандида таĠ
Казах ста
ство валĠ
проек туĠ
О бу
ты 'Ġ
ски .Ġ
апре ля,Ġ
цен еĠ
4 3Ġ
телеф онĠ
оцени ваетсяĠ
истори юĠ
вме ша
санк цийĠ
де б
район ногоĠ
о штрафо
вы зо
'В Контак
шен нойĠ
рас преде
призна лиĠ
Владими руĠ
Брази ли
процен та.Ġ
у ти
-лет нююĠ
электри че
да влениеĠ
В .
3 9Ġ
наз ваниемĠ
д ве
чен о,Ġ
тор гиĠ
демон стра
буде т.Ġ
жд ениюĠ
со ч
да ',Ġ
сохра нитьĠ
правитель ства,Ġ
аре стĠ
Леони дĠ
B l
со вест
р нойĠ
совеща нииĠ
работа лаĠ
буду ще
использо ваниемĠ
рас писа
ка ни
ения '.Ġ
Предполага ется,Ġ
вариан тĠ
глав нойĠ
агент ства.Ġ
четвер оĠ
управл ениемĠ
и :Ġ
' ОбĠ
проис ходя
попы ткиĠ
Со в
Цен траĠ
3 процентовĠ
обществен нойĠ
журнали ст
г -
Федера ции,Ġ
направи лĠ
мор скойĠ
р скойĠ
исклю ча
не стиĠ
не прави
мер т
состоя нии.Ġ
ради ка
си пе
к '.Ġ
за лĠ
до жд
выска зы
р 'Ġ
а том
4 7Ġ
требу ютĠ
ро ваниюĠ
процентов )Ġ
м об
каже тсяĠ
при орите
напомина етĠ
Те ле
Отече ственнойĠ
фон до
ст .
оборудо ванияĠ
Р Ж
по ш
юриди ческихĠ
продол жи
По томуĠ
И К
пар кĠ
И мĠ
на ми.Ġ
заме тилĠ
4 1Ġ
G oog
шин г
прове ритьĠ
Матвиен ко.Ġ
обвиня ютĠ
2 процентовĠ
смотри тĠ
ле ген
Северо-Запад ногоĠ
ту руĠ
мину тыĠ
го в,Ġ
бизне сĠ
Тю льпа
увелич ениеĠ
люд ь
горо дахĠ
Россий скогоĠ
Органи за
ча .Ġ
связ ьĠ
потребо валĠ
молодо гоĠ
мень ше,Ġ
докумен тов,Ġ
Петербур гу.Ġ
За ха
предприяти еĠ
i d
ща етсяĠ
АЖУРа ,Ġ
з де
гла за
вс кры
Васильев скогоĠ
мага зин
o fĠ
201 8Ġ
ства ',Ġ
лич ныеĠ
вато рииĠ
пла ка
ведом ственнойĠ
Выборг скогоĠ
ся .Ġ
измени тьĠ
NEW S
устанавли ва
проспек тĠ
преступ нойĠ
пожа реĠ
д ногоĠ
второ еĠ
об щуюĠ
ми рĠ
ЛДП РĠ
жи ,Ġ
вид уĠ
вз но
'П ра
застрой киĠ
ющи йсяĠ
так же,Ġ
улиц аĠ
направл енииĠ
пов лек
церемо нииĠ
са ',Ġ
корре кти
за кан
фестива льĠ
под нима
дет скойĠ
режи меĠ
из ви
при парко
молоды еĠ
кур саĠ
с на
серьез ноĠ
два дца
уда рĠ
вс пы
у стран
пусти лĠ
похи щен
пла сти
бра ть
х ну
си яĠ
поз днееĠ
ми ра.Ġ
А ли
на груз
источ никиĠ
добро совест
граждан .Ġ
Ин циден
дне й.Ġ
решен оĠ
прош лоĠ
жи телямĠ
Глав ногоĠ
федера льномĠ
з ,Ġ
Ни ж
на сколькоĠ
Да ни
заво е
Белору ссииĠ
ту рĠ
понедель ник,Ġ
осен ьюĠ
Ви ш
января ,Ġ
ра ми,Ġ
Выборг скомĠ
трав мыĠ
Э ду
Сбер банкаĠ
Не которыеĠ
полицей скихĠ
стра хов
опа са
су .Ġ
ности ',Ġ
зна ко
Т рам
: 30Ġ
у шелĠ
преступл ения.Ġ
отмеча ют,Ġ
глав ныхĠ
Пере дĠ
ры 'Ġ
эта жеĠ
т но.Ġ
реш ение,Ġ
ок наĠ
избира тельныхĠ
ча т
пре имуще
луч шихĠ
два ждыĠ
вопро суĠ
Поз жеĠ
об у
мужчи на,Ġ
и гру
требо ваниемĠ
буду щегоĠ
откры лĠ
в ша
Т аджи
Кер жа
Боль шин
'Г ор
в во
чи лаĠ
фотографи иĠ
сы наĠ
стави лаĠ
л ениюĠ
' Ру
Япо нииĠ
тель ницаĠ
следо ванияĠ
лич ныхĠ
Дви жениеĠ
пред писа
насле ди
По чемуĠ
За ко
х еĠ
изъя лиĠ
Россий скаяĠ
сбо рĠ
ника койĠ
Эду ар
показа нияĠ
от кудаĠ
и стре
19 .00Ġ
ре ч
па кетĠ
ль 'Ġ
ль скогоĠ
коллек ти
з мĠ
тер еĠ
информа цион
он лай
инстру мен
лет нийĠ
вопро саĠ
охра неĠ
ка м.Ġ
заявл ениемĠ
больниц у.Ġ
Ба й
ти паĠ
пострада лĠ
мо в
вы шлаĠ
Олимпи ад
Ан наĠ
как -тоĠ
лиц оĠ
ди ску
Мо ро
экипа жаĠ
жа яĠ
Вос ста
счита етсяĠ
про возгла
ис пы
выне сен
обяза ныĠ
Эк с-
Про хо
подраздел енияĠ
ен коĠ
Причи нойĠ
сексуаль ногоĠ
от каз
любо в
столкнов енияĠ
живо т
Премьер- министрĠ
t heĠ
об ма
массо войĠ
ду етĠ
деся ти
кре по
во ло
Ш ев
Госду маĠ
финанси рованиеĠ
декла ра
Ч ис
У ни
си ,Ġ
магази нĠ
еди ницĠ
ги м
фигу ри
те муĠ
запи сиĠ
закры тияĠ
ди зай
вя н
ви довĠ
Е ди
4 6Ġ
тив ыĠ
претен зииĠ
пользова телейĠ
доби тьсяĠ
' Ва
профе ссо
П КĠ
ч но.Ġ
э ска
де вело
проек теĠ
у по
лен о
зем лиĠ
гу ля
па ль
ть юĠ
с прав
лу юĠ
желез нойĠ
де йĠ
взя лĠ
мест е,Ġ
По ч
ри тĠ
поме щениеĠ
ма гни
Экспер тыĠ
10 00Ġ
1 процентовĠ
твор че
сня тьĠ
оста вля
из уч
вы ше
ц у
роз ни
правитель ства.Ġ
ва ли,Ġ
С -
выде леноĠ
5 6Ġ
тер я
ж ени
международ ныйĠ
присоеди ни
за ка
Од но
ю |
кри мина
город скомĠ
c t
лиц а,Ġ
прода жĠ
прекра титьĠ
жи теляĠ
граждан скойĠ
по степен
ва ют,Ġ
До кумен
отдель ныхĠ
ви иĠ
сред негоĠ
дво реĠ
Э К
роди телейĠ
ин нова
докумен таĠ
О Р
А са
я вноĠ
то к.Ġ
не уда
го довĠ
активи стыĠ
уда ст
кра со
биле тыĠ
авто рĠ
Г КĠ
необходи мостьĠ
виде оĠ
a y
право защит
угро зыĠ
многочислен ныеĠ
вя за
КА ДĠ
( сĠ
м скойĠ
ки н,Ġ
e н
суббо ту,Ġ
Т ри
стади онеĠ
за ложен
рав но
вше еĠ
бан киĠ
счита тьĠ
пи ке
ЦИ КĠ
огне стре
из уча
' по
се риа
под ви
груп пы,Ġ
5 2Ġ
основ ныеĠ
безопас ности,Ġ
р скогоĠ
тен ан
социаль ногоĠ
' Че
шос се,Ġ
при ро
претен ден
пред выбор
го -тоĠ
Я нуко
це лиĠ
пожар нойĠ
каче ствоĠ
з доро
Швей ца
t h
авто но
МВ Д,Ġ
ме т
ино гдаĠ
с мени
рекомен да
митин гĠ
уда лось.Ġ
ре дни
ность ю,Ġ
матиче скогоĠ
горожа нĠ
Х у
поме щенииĠ
пло хоĠ
на я.Ġ
лич нойĠ
вось миĠ
Евро пеĠ
л ком
праздни кĠ
п ья
испы ты
Моск ва
строитель ногоĠ
все му,Ġ
ва сто
получа етĠ
Д воеĠ
зна ю,Ġ
специаль ныеĠ
оскор б
ле тияĠ
жиль еĠ
дня .Ġ
А х
Под москов
стра не.Ġ
место ,Ġ
кана лĠ
необ ы
мо глоĠ
маши неĠ
ком би
бы то
' Пулко
прокуро рĠ
кон сер
га етĠ
Пе траĠ
заклю чилĠ
зада чаĠ
За щи
об наро
кварта лаĠ
дальней шемĠ
границ еĠ
ение ',Ġ
ходатай ствоĠ
повы си
и ныеĠ
вело сипе
ю '.Ġ
принима ютĠ
ции 'Ġ
сцен еĠ
став каĠ
4 6
ля бин
ко :Ġ
поя сня
убе ди
ста циона
официаль ныхĠ
зав траĠ
ва ющийĠ
Та лли
Большин ствоĠ
ку по
ь я,Ġ
украин скойĠ
подчи нен
ЕГ ЭĠ
Б ур
пере крест
Москвы 'Ġ
ДН РĠ
ны |
напомни л,Ġ
д ныеĠ
вызыва етĠ
T o
200 2Ġ
показа тельĠ
м скогоĠ
ло сь
иска тьĠ
иг руĠ
вопро совĠ
о хот
коман до
катего рииĠ
тя ну
ли сь
времени ,Ġ
ИТАР- ТАССĠ
о во
зло употреб
в последствииĠ
Мос гор
чт енииĠ
предпринима тель
объяви лиĠ
му ж
кора бле
вооружен ныхĠ
официаль нымĠ
дан ноеĠ
ходи лĠ
призна тьĠ
следова телиĠ
се зон
ра диĠ
испол нениеĠ
' СĠ
извест ныеĠ
а сфаль
' НеĠ
появи лосьĠ
горо довĠ
Олимпи а
проез дĠ
Пре сс-
ско й.Ġ
Хе ль
В .Ġ
со нĠ
о ставилĠ
ги дро
ВВ СĠ
сло вĠ
отмети ли,Ġ
нач нетĠ
исследо ванияĠ
зна яĠ
уголов номуĠ
собы тияĠ
возмож ноĠ
ю р
назна ченияĠ
име лĠ
Петро двор
КГИ ОПĠ
рас смотретьĠ
прово даĠ
вши мсяĠ
ва емĠ
За тоĠ
ти емĠ
мл н.Ġ
выход ныеĠ
выпол ненияĠ
большо гоĠ
подгото ви
ения м,Ġ
НИ ИĠ
1 .
рас смотре
отмени тьĠ
е т
А зербайджа
'Динамо 'Ġ
по ставитьĠ
ле рĠ
Кур сĠ
Иса а
Владими ромĠ
пу тьĠ
подготов куĠ
в киĠ
АЖУ Р,Ġ
из -
ения :Ġ
ба зо
Ан гли
'Ме га
ч но
о в,Ġ
кило метровĠ
дру гу
Инциден тĠ
круп ныеĠ
e nĠ
мета лли
дет скийĠ
бр ьĠ
ю биле
ру кахĠ
нес лаĠ
лов скогоĠ
выро слиĠ
вла стьĠ
террори з
до ходыĠ
Ва шинг
проце ссаĠ
шко леĠ
ри нов
рас ходовĠ
причаст ностиĠ
ди ск
На и
ю вели
режиссе рĠ
ции |
правитель ствеĠ
наз валиĠ
л куĠ
пыта етсяĠ
парламен тĠ
Т вер
Воен но-
му зейĠ
офи сĠ
жерт во
Ав страли
en t
приме ру,Ġ
бы вшихĠ
Пу лков
попроси лиĠ
коман ду
каж домĠ
за платитьĠ
адресу :Ġ
О х
'О т
ра ми.Ġ
относи тсяĠ
нен ыĠ
государствен ныеĠ
высоко поста
дома хĠ
Аф гани
'Л око
с ныйĠ
не далекоĠ
F ran
вырос лаĠ
со проти
пресс-служб уĠ
за ра
ве цĠ
Москвы .Ġ
отмеча ет,Ġ
вы стрели
возбу жден
сре ду,Ġ
интере су
Мар шалаĠ
правитель ствомĠ
мо реĠ
жа лĠ
' наĠ
треть егоĠ
задержа н
постано вленияĠ
па виль
ком 'Ġ
'Газпро м'Ġ
боль шимĠ
учрежд енийĠ
у кло
стра наĠ
я бло
та ре
пере жи
коммен тиру
Оче вид
каче стваĠ
аппара таĠ
Уголов ноеĠ
нео сторож
коне ц,Ġ
из ы
Ра ди
К Г
состави тьĠ
прода тьĠ
попыт кеĠ
визи таĠ
u t
экспер тов,Ġ
чен ныйĠ
струк тур
орга нов,Ġ
адвока таĠ
Фон даĠ
па ро
неизвест ныеĠ
группи ровкиĠ
посел каĠ
м ян
до стой
ситуа ции,Ġ
ру '.Ġ
оз ер
му ль
в пло
девуш каĠ
вну три
дела етĠ
ни кеĠ
инспе кто
Киров скогоĠ
мо стĠ
бан ка,Ġ
i nĠ
до че
Ку рор
Гри го
Ад министра
требовани ямĠ
с н
говори тся,Ġ
А виа
200 1Ġ
га зĠ
Белору сси
те ровĠ
ги на
де фек
ход уĠ
резо нан
мест номуĠ
за действо
досто ин
оборо тĠ
Ма ла
4 9Ġ
студен товĠ
объек тĠ
туро пера
топ -
сами хĠ
'А вто
футболь ногоĠ
пере ме
парт нер
откры лиĠ
роди лсяĠ
реа нима
ново стейĠ
невозмож ноĠ
из ве
жа лиĠ
Не сколькоĠ
приня тыĠ
по чита
об ез
министро мĠ
5 7
ш ениемĠ
тре з
со м,Ġ
о х
о форми
евро ,Ġ
Ши ро
О жида
Ц СКАĠ
сти 'Ġ
по жела
ка кимĠ
выпол нениеĠ
Ма ра
предоста вленияĠ
че скомуĠ
у про
тель скогоĠ
ны '.Ġ
Петербург скиеĠ
'Б и
'Аэро фло
со стоитĠ
россия неĠ
памя тиĠ
воен ныйĠ
бы стро
Доб ави
гражда намĠ
газе теĠ
времен емĠ
мо ваĠ
ка дро
административ нойĠ
за лож
дол гĠ
И г
край нейĠ
из- подĠ
по право
до пин
3 0-
экспери мен
церк виĠ
украин скогоĠ
я -
пунк та.Ġ
ни ж
па в
жи га
ения х.Ġ
ш -
результа товĠ
поясни лиĠ
кризи сĠ
Ре чьĠ
Пер во
8 .Ġ
по что
авари яĠ
' Кон
щи каĠ
су хо
Ж ур
по береж
о ставитьĠ
ение 'Ġ
та щи
нов енияĠ
А гент
психи а
обвиня емогоĠ
военнослужа щихĠ
Об вод
' Бал
ча сов,Ġ
ту реĠ
по бы
ди рек
в нойĠ
СК ПĠ
пе ви
ве каĠ
Мин эконом
э м
успеш ноĠ
территори и,Ġ
ра т
начина етсяĠ
ты миĠ
тор говойĠ
су токĠ
иници и
глоб аль
Ли т
5 1Ġ
участ ко
посмо третьĠ
в до
аэропор тĠ
установ ленĠ
се ссииĠ
про ник
преступл ений,Ġ
в веденияĠ
15 -
Р О
Ар ха
спи скаĠ
ги нĠ
выпол нитьĠ
ве ж
техниче скихĠ
трамва й
стан цийĠ
поги бли
Кс енияĠ
ство ва
пре дĠ
Эк с
Бан каĠ
Б рю
фору маĠ
официаль нойĠ
кру шенияĠ
дина ми
владель цыĠ
уверен ,Ġ
плат фор
генера л-
ог няĠ
на до
М ен
тыся ч.Ġ
административ ногоĠ
а ги
связа ныĠ
раз ли
пись маĠ
здравоохран енияĠ
губернато ромĠ
Таджи киста
судь иĠ
следствен ныеĠ
обвиня етсяĠ
ль скийĠ
жды йĠ
вторы х,Ġ
Е муĠ
сообща лосьĠ
приш лаĠ
клу беĠ
С вер
переда чеĠ
в пере
бу дуĠ
'А д
эпи деми
стра нуĠ
наличи иĠ
Са в
К ли
В О
иде яĠ
прово ци
в лек
стар шийĠ
ма ни
интере сĠ
ro u
e тсяĠ
приня тĠ
петербур жен
l in
9 ,Ġ
э т
состави лиĠ
раз да
само стоятель
ступл ениеĠ
со м.Ġ
лен ногоĠ
вице- губернатораĠ
ра ',Ġ
появи тьсяĠ
пользо ватьсяĠ
'Ве домо
сбор наяĠ
отправи лиĠ
ба га
сист емĠ
необходи мо
кварта лĠ
по мĠ
день .Ġ
воздуш ногоĠ
архите кто
Х ри
про демонстри
пунк та,Ġ
Само летĠ
стро гогоĠ
пунк товĠ
наде ж
ки р
д ятĠ
по стаĠ
коор дина
то м'Ġ
стаби ль
Я ку
Об щаяĠ
ста ры
снизи лсяĠ
руководи телиĠ
площа ди.Ġ
переда ныĠ
пар уĠ
ко али
Фон дĠ
глав ноеĠ
В ене
террито рияĠ
ста били
еха лаĠ
це льĠ
согласи лсяĠ
раз верну
оста льныхĠ
ви ч
Ли тви
t p
региона льныхĠ
разы ски
пору чилĠ
бизнесмен аĠ
2 .
оцен киĠ
не доста
мо на
в :Ġ
Е дин
Reuter s.Ġ
сто йĠ
меся ц.Ġ
ежегод ноĠ
госпитализирова нĠ
би лиĠ
С мир
О соб
.ru ,Ġ
ска н
опол чен
ущер баĠ
от реаги
ди у
Руко водствоĠ
подоз ри
пода тьĠ
лау реа
влен ногоĠ
М СĠ
ско й'Ġ
отмети ла,Ġ
максима льноĠ
во льноĠ
служ бĠ
откры тиеĠ
от делеĠ
на в
лет негоĠ
из начальноĠ
Специали стыĠ
ь ев
примен енияĠ
и щу
дости гну
ре ме
ос ла
о м
регуляр ноĠ
Т СĠ
успе лĠ
у те
тив ногоĠ
выз валĠ
Участ никиĠ
торго вл
чи киĠ
ото з
Петро пав
т ща
строй киĠ
но п
бла года
арен да
Bo e
ведом стве.Ġ
Се васто
b er
поки нулĠ
Матвиен ко,Ġ
сред ств.Ġ
по служи
Александ ров
ww w
фор мули
за то
ения 'Ġ
Сле дова
Л ь
' чер
реш енииĠ
представи тьĠ
насле дияĠ
вне д
Ста ро
лоща дьĠ
оказа нияĠ
не санкциони
С оĠ
Лу ж
ри со
ве снойĠ
бе ра
эска ла
ш пи
без рабо
организо ватьĠ
в ',Ġ
У ГИБДДĠ
ци кло
техниче скойĠ
запре титьĠ
вы пи
М ут
i cĠ
ши наĠ
чу юĠ
сдела ноĠ
нач нутĠ
З С
утвержда етĠ
тель ностьĠ
сегодняш негоĠ
реша тьĠ
не при
извест ныхĠ
закон ,Ġ
до ватьĠ
ть ?Ġ
по стуĠ
перен ос
военнослужа щи
бли зо
Чис лоĠ
i at
'С у
но го.Ġ
Слу ж
прове лаĠ
' Ни
да '.Ġ
пери од
охра ня
миро вогоĠ
раз рабаты
еже меся
россий скимиĠ
не большойĠ
лком серви
оте цĠ
обо ихĠ
моб илиĠ
конкур сеĠ
во лон
ф ар
стан цияĠ
сезо наĠ
по пол
оста навли
ж ноеĠ
га нд
На доĠ
'П ар
но ри
агент ствуĠ
следстви е,Ġ
реги онеĠ
взя лиĠ
Зак СĠ
лла нд
Петербурга '.Ġ
федера льнойĠ
сер тифика
площад киĠ
следу ющегоĠ
пе ти
кампани иĠ
до ход
предусмотрен ногоĠ
откры тииĠ
Р аĠ
30 ,Ġ
тель нымиĠ
Ка рели
4 процентовĠ
публика цииĠ
арен дыĠ
ru .comĠ
мину сĠ
за плани
жиз ни,Ġ
ФСИ НĠ
постано вл
пос ы
люд ямĠ
дни еĠ
Ку дри
В И
a k
ты ',Ġ
ви га
ван номĠ
в меня
охра ни
шен ныйĠ
поддержа тьĠ
отно сятсяĠ
из раи
втор ник,Ġ
би тьĠ
ак три
истори ческогоĠ
гово рĠ
Ф Р
Итали иĠ
Та и
действи яхĠ
ы ',Ġ
предста влениеĠ
г не
площа ди,Ġ
нор мыĠ
взя ткиĠ
созда наĠ
тро и
переда лĠ
меся цев.Ġ
полков никĠ
назна чилĠ
ле ваĠ
сни женияĠ
о нов
бло геĠ
ба бу
5 3Ġ
хо чуĠ
расположен ногоĠ
продук тыĠ
ку |
кар ьер
за ду
голо совĠ
Ку пчи
лю датьĠ
бы вшиеĠ
организа торовĠ
дости г
Медведе в.Ġ
' Ви
че ски
Ни дер
Кирил лĠ
строй 'Ġ
ново сте
домо в,Ġ
'Рос неф
ко ва
ауди то
Т -
Кол пин
А .
1 :
за хоро
бу к
у слыша
находя щихсяĠ
ht tp
д обра
2 'Ġ
распоря жениеĠ
пребы ванияĠ
но '.Ġ
макси му
ги яĠ
патри ар
ко стю
трен ераĠ
стра ницеĠ
инициатив еĠ
безопас ностьĠ
торгово гоĠ
субъек товĠ
ст ы.Ġ
режи ма.Ġ
проведен аĠ
подозре ваетсяĠ
воскресен ье,Ġ
' Из
председа телемĠ
теа треĠ
жден аĠ
Пожа рĠ
КоА ПĠ
парти и,Ġ
лабо рато
говоря ,Ġ
рабо т,Ġ
необходи мыхĠ
ду хов
б рас
ры нк
а э
зу н
а ссоциацииĠ
стать яĠ
подроб ностиĠ
х уĠ
улиц ахĠ
совер шенияĠ
под ру
Петербур ж
7 ,Ġ
ь евĠ
е т:Ġ
го стиĠ
У ра
s p
сле дĠ
времен ногоĠ
Фили п
формиро ванияĠ
счита ю,Ġ
пе в
детя мĠ
ю тся
попа лаĠ
по ляĠ
пи аль
е дваĠ
вице- премьерĠ
наруш енииĠ
ди и,Ġ
состоя лсяĠ
кла сса
добро воль
авто рите
я влениеĠ
фло таĠ
принима етĠ
ин фек
приобре та
игро ковĠ
заба стов
за горе
аде ква
произ вед
обви нениюĠ
м нойĠ
да лаĠ
счаст ли
г ры
ба ссей
ри и.Ġ
долла рĠ
По томĠ
следу ющейĠ
работ киĠ
мета л
каких -либоĠ
Арбитра жныйĠ
ак туаль
эксплуата цииĠ
угро зойĠ
трен ер
сти '.Ġ
специаль ныхĠ
пу ль
по год
о жо
веду щихĠ
Г ИĠ
h on
отмеча ется,Ġ
Вале рияĠ
тер пе
по следова
л кеĠ
з е,Ġ
гово гоĠ
бе ру
Т ВĠ
Моги лев
ста ро
но 'Ġ
го домĠ
О ни
от вер
сло воĠ
мину теĠ
м ск
Ти мошен
момен т,Ġ
законопроек т,Ġ
Арха нгель
тер ыĠ
стра и
ствен нымиĠ
медицин скихĠ
из ба
Лу ка
погиб ши
по ставля
зна д
аль бо
Т ран
ти лоĠ
ст ве
ков уĠ
жи ветĠ
премьер- министраĠ
пе до
мину т.Ġ
Большо гоĠ
те ',Ġ
кни гиĠ
Су м
ж нуюĠ
проси лĠ
обой детсяĠ
не сен
де мĠ
готов ностиĠ
Стои тĠ
Вол го
помощ никĠ
обру ши
н номĠ
гра бе
В ра
'Коммерсан т
трен е
ви ч.Ġ
бизнес менĠ
эта пеĠ
сни жа
програм мĠ
вша ясяĠ
С началаĠ
Кры мĠ
ши нĠ
ски д
рус скойĠ
удовлет во
водо снаб
К тоĠ
не медлен
ка зомĠ
за пас
Че лябин
P u
6 процентовĠ
по можетĠ
но е.Ġ
не пода
ба нкеĠ
Пер ваяĠ
соответ ствен
и ст
ген директорĠ
бу х
член аĠ
ста дииĠ
ри лаĠ
команд уĠ
издани яĠ
ча стуюĠ
тель номуĠ
оказа лось,Ġ
взры вĠ
A ss
ци р
ре ак
электро ннойĠ
с праши
попыта лисьĠ
пар кин
на вод
атмо сфер
'Новости 'Ġ
жд енийĠ
выпла титьĠ
ш тур
отстав куĠ
Фрунзен скогоĠ
Побе дыĠ
00 ,Ġ
множе ствоĠ
и нĠ
Свер д
'В сеĠ
ран енияĠ
работ никиĠ
матер иĠ
до га
боеви ковĠ
ю т:Ġ
сотрудниче стваĠ
неожидан ноĠ
Подо зрева
памя тьĠ
оружи еĠ
на противĠ
кро ви
Федера ции.Ġ
Бри тан
'Во докана
раз ,Ġ
источник .Ġ
г де
тель .Ġ
раз влека
причи неĠ
н це
Ок са
у сыно
реали зу
пла нахĠ
нало говойĠ
вы ле
оператив никиĠ
ново муĠ
арен дуĠ
5 4Ġ
Хель син
e tĠ
6 0
провин цииĠ
ви наĠ
Рос сельхо
эк стра
ц кийĠ
Ми ли
шу юсяĠ
ст 'Ġ
сред ства,Ġ
пла таĠ
очевид цев,Ġ
от стра
Су дяĠ
Ма лойĠ
Добави м,Ġ
млр д.Ġ
законо проектаĠ
доро ги
воору ж
аре стаĠ
ш вед
поло жи
боепри па
трас сыĠ
рейтин гĠ
про м
истре би
выступи лиĠ
- 15
на шелĠ
Р од
спе т
оцен кеĠ
до чьĠ
Исаа киев
ш вилиĠ
ез дĠ
авто р
Афгани ста
у ра
р ногоĠ
предполага етĠ
не бо
ми сяĠ
компани й.Ġ
Я ков
Ка и
Вяче славаĠ
ю сти
х ри
оборудо ваниеĠ
ни й,Ġ
медицин скогоĠ
диа гно
8 процентовĠ
пози цияĠ
Во ору
Адвока тĠ
экстреми ст
эксперти зыĠ
х ло
сум меĠ
р ье
лока лизо
г реб
Та койĠ
9 1Ġ
' Балтий
ту етĠ
суде .Ġ
зо в,Ġ
у йтиĠ
та лан
муниципа льногоĠ
А ЭСĠ
состоя нияĠ
про яви
ос по
ь ков
у помина
р ениеĠ
пере пи
коми тьсяĠ
здани я,Ġ
5 8Ġ
'Справедли войĠ
'Рос бал
памят никовĠ
катастро фыĠ
гу ше
уве ли
начина етĠ
же й.Ġ
Петроград скогоĠ
требу етсяĠ
съ ем
президен та,Ġ
погиб шегоĠ
дол ьĠ
Че мпи
Зак Са
чита телиĠ
слов но,Ġ
писа лаĠ
ма лиĠ
ис правитель
че б
финансо выеĠ
пу стьĠ
пресс- рели
поясни л,Ġ
потеря лĠ
ле чениеĠ
де сан
Ро стов
Крас ноя
соревно вани
происшестви я.Ġ
ки на,Ġ
озна ча
поез дĠ
номе раĠ
за ранееĠ
ГУ В
В з
щ аĠ
ш ту
рас смотритĠ
при мени
пла туĠ
на рядĠ
биле товĠ
арти лле
Ф ина
реконструк циюĠ
пла тель
не й,Ġ
Га тчи
ю но
уда рилĠ
ска хĠ
кодек саĠ
'М ор
по соби
обеспе чениюĠ
нуж денĠ
Tele 2Ġ
фон та
со то
по вест
перево зо
12 .
навер ное,Ġ
иг реĠ
задержа нииĠ
ва ется,Ġ
Мин ю
стоя тьĠ
3 3
уда раĠ
В А
х ак
состоя лосьĠ
горе лаĠ
Во дительĠ
заби лĠ
Мари наĠ
Б он
6 .Ġ
шко лĠ
зна кĠ
заня лĠ
дела ютĠ
Калини нскогоĠ
ще госяĠ
си ламиĠ
рабо чейĠ
ло женияĠ
Го ло
ку х
д рав
в ведениеĠ
ар гу
Ча стьĠ
' РоссияĠ
харак те
ре зиден
ка бе
е -
до ходовĠ
до ви
д ныйĠ
Д э
ar d
фа бри
са маяĠ
национа льногоĠ
на м.Ġ
лай не
Мо жноĠ
кило метрахĠ
границ уĠ
экономи ческихĠ
су тĠ
состоя ласьĠ
право мĠ
полномочи яĠ
Од наĠ
держа тьĠ
www .
то ров,Ġ
распростра нен
доро гуĠ
це лыйĠ
выгля дитĠ
созда нĠ
СПб ГУĠ
став ленĠ
ра м,Ġ
пробле муĠ
причи наĠ
пода лиĠ
начи наяĠ
К С
по лез
неизвест но.Ġ
колле гиĠ
бы ше
собра тьĠ
снизи тьĠ
исклю чено,Ġ
Петербург скогоĠ
Ка на
ответствен ности.Ġ
осуществля етсяĠ
пассажи рыĠ
иде юĠ
A n
та ми
но го
напи т
М -
рассматри ватьĠ
энер го'Ġ
т никĠ
ло зун
законодатель ствуĠ
вы нужденĠ
участ никамиĠ
политиче скогоĠ
Спаллет тиĠ
Киров скомĠ
ре цĠ
нало гаĠ
веду тсяĠ
Со обща
спортив ныхĠ
п лы
на зем
ме да
граждан скогоĠ
После днийĠ
стать юĠ
прод ю
закан чи
3 2
сдел киĠ
с бежа
па тро
женщи нуĠ
Б ра
устрой стваĠ
при велĠ
ор би
ни яхĠ
наркоти ковĠ
буд тоĠ
Эсто нииĠ
Б ли
App leĠ
ров каĠ
посети телейĠ
миро выхĠ
У и
'Со ю
ь я.Ġ
ча р
зи м
аэ род
судеб ныеĠ
располо женĠ
призна ныĠ
Фонтанка. РуĠ
Па ссажи
Лен области.Ġ
oc iat
ре вĠ
ул .
си де
лич ныйĠ
г рес
И спо
Боль шеĠ
транспор теĠ
при емĠ
и нойĠ
види мо
ров кеĠ
един ственныйĠ
до чер
дня хĠ
КУ ГИĠ
секретар яĠ
до не
Т риĠ
Ка ждыйĠ
экс курси
про ходя
об щаяĠ
выступл ениеĠ
ти тьсяĠ
копе екĠ
приеха лиĠ
кон тей
зна ча
М он
R io
N e
' СейчасĠ
оке а
на помним,Ġ
Со л
К НД
'Справедли ваяĠ
четвер г,Ġ
участ киĠ
президен тыĠ
на столькоĠ
опас ныхĠ
об щийĠ
р ныхĠ
пон рави
Бар су
Адмиралтей скогоĠ
за ем
жа лу
до ходĠ
большин ствеĠ
С ар
М э
К лин
5 7Ġ
потреби телейĠ
поня ть,Ġ
поло женияĠ
пожа ло
деятель ности.Ġ
авто рыĠ
Ро го
Ass ociat
со бĠ
прео доле
но сятĠ
жен ныйĠ
авиа цииĠ
став ыĠ
оконча тельноĠ
бро н
бан ди
принци пиаль
выпол нятьĠ
предвари тельногоĠ
моби льныйĠ
ла ',Ġ
комите томĠ
зам главыĠ
алкого льногоĠ
тор мо
т ли
секу н
а л
ш тей
писа тьĠ
аресто ванĠ
устрой ствоĠ
стра не,Ġ
следствен ныхĠ
реш ение.Ġ
премь е
под лежа
обстоятель ствĠ
н рави
з .Ġ
готови тсяĠ
вещ иĠ
К ру
e m
оказа тьĠ
о пусти
к ви
ди спет
вклю ча
Вы с
замести телемĠ
грани це
государ ства,Ġ
гаран ти
шестви еĠ
спо собĠ
прину ди
полу го
ка я
испол ненииĠ
ж у.Ġ
Комите таĠ
под дель
ни х.Ġ
России |
ющи мсяĠ
п -
'Коммерсант ъ
энерге тикиĠ
ма ',Ġ
добави лиĠ
ме ре,Ġ
ло жилĠ
Влади славĠ
ня тĠ
жилищ ногоĠ
обеспе чениеĠ
ка фе
гра ф
u l
проце сс
полно цен
пол годаĠ
ви даĠ
ано ни
не |
к гĠ
иг раĠ
з лиĠ
визи он
or t
упа лаĠ
т кеĠ
заяв куĠ
установи лиĠ
стан циюĠ
зи диу
зарпла тыĠ
Ф ур
референду маĠ
други е.Ġ
осно ванияĠ
обнаро до
ы 'Ġ
во ров
Сер дю
извест ныĠ
че раĠ
суди тьĠ
находя сьĠ
му -тоĠ
магази новĠ
ко й'Ġ
по дума
незакон номĠ
выдви ну
Ар те
. ).Ġ
фи ло
д жер
выступа яĠ
симво ли
мероприяти я,Ġ
вы ве
уточни л,Ġ
ства '.Ġ
грам маĠ
Го ри
туа цияĠ
сто лице
организа ция
ма ю,Ġ
впло тьĠ
влен о,Ġ
Аб ха
место .Ġ
взгля д,Ġ
важ ноĠ
бал ло
авто мобилиĠ
О баĠ
тек стĠ
сокра титьĠ
служ бы.Ġ
ско роĠ
с ненияĠ
о чист
не достаточ
цо в,Ġ
участво валиĠ
о си
нуж ныĠ
коне чнойĠ
задержа лаĠ
види тĠ
ветера новĠ
Уни версите
ВВ ПĠ
ре пута
поя вятсяĠ
боль ше
' ?Ġ
та кимиĠ
т номуĠ
ля етĠ
возду хаĠ
Шо й
По по
an dĠ
прие маĠ
ка мен
При м.Ġ
с мар
резо лю
пенсионе р
ш ка
подвер г
отказа ласьĠ
ори гина
высо койĠ
ща ютĠ
рабочи еĠ
в .
Ви де
отсут ствияĠ
ми ра,Ġ
ле до
Э ль
лен ныйĠ
Н иĠ
энер гииĠ
уг луĠ
пропа ганд
объяви лаĠ
at ion
'М ер
' АĠ
фак т,Ġ
у ку
поез довĠ
мер ноĠ
дене г,Ġ
ген директораĠ
составля ютĠ
прода ватьĠ
нало гĠ
бо ли
Лю диĠ
Верхов ногоĠ
ст каĠ
проходи лĠ
пожар ныеĠ
жела ющихĠ
в дольĠ
А т
я пон
уверен ы,Ġ
следстви емĠ
раз ъя
автомоби леĠ
Ш та
' СегодняĠ
соответству ющееĠ
другу юĠ
Пла ни
! '.Ġ
н ениемĠ
ва л,Ġ
Гре цииĠ
рабо ту.Ġ
коммер ческойĠ
запи сьĠ
жи еĠ
де ву
вы сказыва
возгла вилĠ
бан ка.Ġ
Федера льнаяĠ
П А
10 ,
специаль ныйĠ
соответству ющихĠ
скоро стьĠ
внима нияĠ
З на
А ста
5 .
перспек ти
парти и.Ġ
ник 'Ġ
выдели тьĠ
буде т,Ġ
8 5Ġ
на оборо
иг рĠ
ступ ятĠ
ров куĠ
кра яĠ
Макси маĠ
образова тельныхĠ
назна ченоĠ
е го,Ġ
доро го
комби на
ожи дани
находи лосьĠ
активи стовĠ
'Интерфак с',Ġ
устрои лиĠ
полити каĠ
пита нияĠ
ве щи
вз ве
благо прия
Тро и
Бу ха
та ба
орга нов.Ġ
земе льныхĠ
ви т
не значи
г ',Ġ
серьез ныхĠ
бере мен
эта пĠ
находи ласьĠ
едино ро
Р им
Нев скомуĠ
a p
я ),Ġ
слож ноĠ
разгово реĠ
приве лоĠ
пресс- конферен
кори до
ке 'Ġ
категори ческиĠ
вы се
Г Б
уче таĠ
самоле товĠ
процеду рыĠ
предста вленыĠ
й скийĠ
зако на,Ġ
преступл ениеĠ
a c
Pu ss
'З оло
требо ваниеĠ
рей саĠ
проспек те.Ġ
мину вшейĠ
вреза лсяĠ
'Те пло
ч нымиĠ
т ностиĠ
семь еĠ
ма те
ля миĠ
Калини нскомĠ
Б ен
проголосо валиĠ
И сточ
то к,Ġ
сти хи
пя тер
заверши тьĠ
вре менĠ
транспор туĠ
побе дыĠ
отли ча
ку ',Ġ
d o
удаст сяĠ
во шелĠ
рас предел
друго еĠ
30 .Ġ
12 -
ти нен
си .Ġ
на ступи
ло го
ин кри
А наста
север еĠ
потерпе вше
народ нойĠ
занима ютсяĠ
Т КĠ
Международ ногоĠ
удовлет вор
ства 'Ġ
инкри мини
D e
1, 2Ġ
ц когоĠ
причи нениеĠ
поддержа лиĠ
у ско
рабо ту,Ġ
прогно зĠ
от датьĠ
обла стьĠ
инвести цийĠ
15 9Ġ
соответству ющийĠ
ра нее,Ġ
не установлен
ев уĠ
вероят но,Ġ
ве рĠ
член амиĠ
сро ковĠ
ко гда
ведом ствеĠ
ва я,Ġ
при кры
организо ваннойĠ
опублико валĠ
Бо лга
ства мĠ
обществен ныйĠ
лек уĠ
ван нымĠ
Бы лоĠ
наш уĠ
напа лиĠ
на ц
боль шейĠ
АЖУ РаĠ
че ,Ġ
нов уĠ
ва вĠ
Петербург ,Ġ
Goog leĠ
су точ
ос пари
на правленĠ
изби лиĠ
'Газпро ма'Ġ
пре дель
Во просĠ
ска же
ребен ка,Ġ
меся ца.Ġ
законодатель ствоĠ
горя чи
Ки е
Associat edĠ
предложи лаĠ
Смо ль
поддержа лĠ
мо й,Ġ
бро са
МЧ С.Ġ
Puss yĠ
-лет немуĠ
со ци
ро к-
пе тен
живу тĠ
вы ватьĠ
Ин гуше
территори йĠ
Ир ку
щ ениемĠ
оста тьсяĠ
до но
выбо рĠ
удо воль
Ни ктоĠ
ру ютсяĠ
направи тьĠ
за стрели
обраща тьсяĠ
Во- первых,Ġ
'С пор
сейча с,Ġ
'Ислам скоеĠ
рей дер
ре порта
во в,Ġ
мероприяти еĠ
част ногоĠ
со войĠ
оди но
ности '.Ġ
народ ногоĠ
комисси юĠ
изъя тоĠ
Са ха
Ар ка
5 9Ġ
прибли зи
журнали стыĠ
при лега
праздни каĠ
последстви йĠ
име лиĠ
бюллет ен
1 30Ġ
разобра тьсяĠ
рабо т.Ġ
мест ныйĠ
коор ди
B r
'М ар
бе сс
Аф ри
ще ,Ġ
улиц уĠ
у стойчи
посоль стваĠ
по жизнен
ДП СĠ
3 .
. ру'Ġ
кар то
институ тĠ
ба таль
смо глаĠ
не исправ
в веденĠ
10 0
се реб
покуп куĠ
не про
дел .Ġ
юще госяĠ
харак тераĠ
О де
тив ноеĠ
рус скийĠ
ру р
произо шлиĠ
осуще стви
но жомĠ
кандида тĠ
воспи тан
Жи ринов
Александ руĠ
федера цииĠ
подписа лиĠ
переда лиĠ
осно вани
М ек
'Новости ',Ġ
сторон никовĠ
э ста
функ циони
стро рец
мето ди
ения ми.Ġ
автобу саĠ
учены еĠ
испыта нияĠ
ж нымĠ
ения ми,Ġ
об я
Мариин скогоĠ
ситуа ции.Ġ
ен о
де раĠ
Поч тиĠ
Д ы
an d
заво деĠ
вне ведомственнойĠ
ш вей
обра тноĠ
вы дел
Та й
Ка д
ос ве
ос ад
МЧ С,Ġ
дене г.Ġ
Р У
Колпи ноĠ
u sĠ
хи щенииĠ
ла :Ġ
ен ныхĠ
м п
ло ша
Россельхо знад
Ра й
удовлетвори лĠ
М Э
9 процентовĠ
связа наĠ
пропа ган
доступ аĠ
вылете лĠ
экспер товĠ
опера цияĠ
лич ностьĠ
е муюĠ
вспо мина
вра чĠ
нане сĠ
любы еĠ
движ ения,Ġ
сом не
проте сту
поку шенииĠ
опера циюĠ
бур г
Груп паĠ
ти нĠ
пу га
полицей скогоĠ
ме л
ла р
и ден
дру гаяĠ
Ре зульта
успе лиĠ
проис хо
пла наĠ
ли |
Ва х
отправи тьĠ
обяза нĠ
наш лаĠ
за креп
ва йтеĠ
И сто
' на
указа нныхĠ
стать ямĠ
ребен ка.Ġ
ком петен
за гряз
жен ныеĠ
выигра лĠ
в ступленияĠ
Ли тей
g ra
не сĠ
зу ,Ġ
ди и.Ġ
Но ваяĠ
я ).Ġ
писто ле
до н
О Д
гра на
Мер ке
уточ нилĠ
рас смотрен
нали за
мо ейĠ
лег коĠ
копе ек
й ).Ġ
за дани
а ка
тен ни
нен ави
митин гаĠ
доро жныхĠ
Петерго ф
прекра щенииĠ
за рабо
Женщи наĠ
' Россия'Ġ
турни раĠ
предполага етсяĠ
по вед
заявл ениюĠ
проек т,Ġ
недо пусти
Рас следованиеĠ
РФ СĠ
Н Е
при дума
от ремон
м мĠ
завер шенияĠ
' КакĠ
цион нымĠ
но й'Ġ
ви домĠ
Н РĠ
К руп
Екатери наĠ
чемпиона тĠ
ли ми
в другĠ
брига дыĠ
Северо- Запа
шен ныеĠ
чинов ников,Ġ
современ ногоĠ
слуша нияĠ
р ныйĠ
коммуна льныхĠ
На мĠ
предприяти я,Ġ
ми нĠ
коман деĠ
ис ходяĠ
техни ки.Ġ
последстви яĠ
от казаĠ
ни коваĠ
гру н
От кры
Людми лаĠ
право охрани
по йтиĠ
об щи
выстав каĠ
б -
io nĠ
сне гаĠ
ду стри
Смо лен
Faceboo kĠ
'Я н
'Д и
се де
са м,Ġ
процен та,Ġ
компен си
заяв киĠ
да м
А пра
G rou
цион номĠ
та бли
нача ломĠ
маши ны,Ġ
ищу тĠ
дол юĠ
теля м,Ġ
сбор нуюĠ
же ле
дни хĠ
го ст
Пер выеĠ
До мĠ
т скомĠ
соответ ственно,Ġ
ряд ыĠ
напад енииĠ
изве стенĠ
га ле
Пос лед
це ден
жи ломĠ
вы жи
тари фо
проце сса
ожида ется,Ġ
невозмож но.Ġ
на я'Ġ
банков скихĠ
Со фи
Ли дерĠ
ти лсяĠ
ра ш
провер кеĠ
пос редни
интере совĠ
иде иĠ
Фо тоĠ
iP hon
4 .
ю геĠ
щен ныхĠ
ц вет
фо тоĠ
та цияĠ
служ бы,Ġ
отвеча тьĠ
науч но-
Че хи
стре бо
сле дитьĠ
си гаре
рожд ения.Ġ
протоко лĠ
ен .Ġ
Об ви
Д няĠ
ки не
в ступа
Y ou
чу ,Ġ
сигна лĠ
лете лĠ
Рабо тыĠ
социаль ныеĠ
уво ли
технологи иĠ
ра ноĠ
пись мен
ня .Ġ
ну ю,Ġ
власт ямиĠ
ви киĠ
обвиня емыхĠ
за частуюĠ
домо йĠ
До ро
6 2Ġ
сби лĠ
проси лиĠ
заклю ча
со че
спектак льĠ
предме тĠ
на вига
к |
влен нойĠ
Се мен
у гна
радиостан цииĠ
задолжен ностиĠ
заболе вани
7 0
4 ,5Ġ
чи н
ни когоĠ
ведом оĠ
Су -
ност яхĠ
град скойĠ
про би
г ек
За м
уча ноĠ
россиян ,Ġ
ни ю,Ġ
воспользо ватьсяĠ
тиру ютĠ
та :Ġ
ст ныеĠ
с мы
обслужи ванияĠ
ль никĠ
геро и
наруш ениемĠ
) ',Ġ
фир маĠ
ты -
по явля
Шу ва
точ куĠ
ск ныхĠ
мат ча
гра би
Центра льномĠ
Ки евĠ
у то
клу ба.Ġ
Г ро
фа ши
су э
поезд киĠ
на шемуĠ
ди лоĠ
фаль си
предлож ениемĠ
ны :Ġ
на шеĠ
лей тенан
исклю чениемĠ
ВТ БĠ
физи ческихĠ
проек та,Ġ
меди а
ле войĠ
благо полу
цион ноеĠ
смар т
прибы льĠ
при йтиĠ
Ю ри
' Крас
служ ба
россий скоеĠ
вы йдетĠ
вто раяĠ
Интерне теĠ
россий ско-
полага ют,Ġ
ми д
емо еĠ
влия ниеĠ
ван наяĠ
ри аль
обсу жденияĠ
исполнитель нойĠ
вро деĠ
ап те
Ма шаĠ
се рĠ
продол житьĠ
поста вокĠ
офи сеĠ
ка -
е ги
де л,Ġ
гости ниц
у жа
пери оди
нынеш негоĠ
кани ку
к в.
в шуюсяĠ
борь буĠ
ou r
ск вер
по шелĠ
мошенниче ствеĠ
ве личи
бом барди
'Ме тро
реали зациюĠ
парти юĠ
за мĠ
девоч каĠ
фе й
са моĠ
из бе
7 2Ġ
У правлениеĠ
Право охранитель
Ожида ется,Ġ
Л учаноĠ
останови тьĠ
ль но,Ġ
зем ле
гра мо
Жур нали
Бе л
республи кан
пода чиĠ
10 процентовĠ
инве сторо
дан наяĠ
Мала фе
Во докана
традицион ноĠ
со зданиюĠ
ж даĠ
рова яĠ
пользо ванияĠ
оператив ноĠ
я вл
зо в.Ġ
де -
государ ствĠ
ве нĠ
пу сты
постав куĠ
метра .Ġ
бере гуĠ
Красногвардей скомĠ
Кир г
сбо раĠ
ред коĠ
полицей скийĠ
ли дера
заявл енийĠ
ф онĠ
оказа тьсяĠ
настоя щемуĠ
з 'Ġ
вы бро
в ногоĠ
бир жиĠ
20 20Ġ
те '.Ġ
петербур жецĠ
незакон ноеĠ
выз валоĠ
Ми тро
Георги яĠ
филиа лаĠ
сове то
са р
горо ду,Ġ
Могилев ская,Ġ
Валенти ныĠ
3 0,
стреля лиĠ
анали ти
' Воз
продолжа ется.Ġ
обе споко
ни й.Ġ
сезо нĠ
порта лĠ
по шлиĠ
метрополитен аĠ
до хода
бир жеĠ
Росси я',Ġ
e р
' Глав
по строи
ло жениеĠ
исследо ванийĠ
заме нĠ
благоустрой ствуĠ
| ПоĠ
4 8
строитель ныеĠ
связа нĠ
о хва
Пав лаĠ
умень ши
т скаяĠ
колле гииĠ
вступи лĠ
воз награ
Г К-
претензи йĠ
дол гаĠ
6 4Ġ
та комуĠ
столиц ы.Ġ
поддержи ваетĠ
отды хаĠ
верси яĠ
r i
собствен ныхĠ
поку шениеĠ
Т И
Киев еĠ
V I
участ никамĠ
при вет
по жертво
законо да
бо рыĠ
Ма я
. ),Ġ
раз дели
ми сси
дене жныеĠ
голов уĠ
вокза лаĠ
в прочем,Ġ
То л
развити я,Ġ
ориен ти
м )Ġ
большин стваĠ
раз реша
постепен ноĠ
кварти ры,Ġ
пи ще
злоумышлен никиĠ
Рос ста
то ваĠ
пе .Ġ
патри о
отправи лсяĠ
непода лекуĠ
намер енииĠ
ка комĠ
впечат л
ак терĠ
хран ениеĠ
предпринима телейĠ
област нойĠ
Таи лан
СПб 'Ġ
убе жи
процеду руĠ
предполо житель
пись меĠ
Про водитсяĠ
Би р
эвакуи ровалиĠ
че й,Ġ
до ваĠ
X I
20 .
сокра щениеĠ
пре цеден
ор г
определи тьĠ
лиц .Ġ
возмож ныеĠ
Кры муĠ
i ta
ха ,Ġ
позво нилĠ
неизвест ныхĠ
ла в
к во
га стро
незакон ногоĠ
корпора цииĠ
за лаĠ
ви нова
3 50Ġ
суд ыĠ
ско в.Ġ
ко рей
й быше
4 5
цен зу
опера тораĠ
жда яĠ
дня ,Ġ
д ко
Ве тера
по э
закры тьĠ
девуш киĠ
глу би
основ нымĠ
'Г раждан
стра жейĠ
про й
поли кли
колле гĠ
город скимĠ
ви тĠ
американ скийĠ
1 1,
чу кĠ
та ки
обви нилиĠ
ин струк
жен оĠ
вне зап
вз ло
уни вер
промышлен нойĠ
дру гаĠ
боль шихĠ
9 5Ġ
сооб раз
прове дутĠ
С У
Испани иĠ
А зи
фу нда
у ши
тя ги
соб ран
ребен ок
действи я,Ġ
вод ы.Ġ
За й
собра ниеĠ
поправо кĠ
подраздел енийĠ
действи юĠ
благо дар
Се строрец
e нĠ
'С трой
'С трои
о по
здани я.Ġ
еди нойĠ
К ос
стран .Ġ
рассматри ваетĠ
ност ямиĠ
дет скиеĠ
Литви нен
Го ллан
хо мĠ
х ен
товари ще
президен та.Ġ
послед нейĠ
мл юĠ
ги пер
ва ли.Ġ
Гори збир
опера то
ков скогоĠ
информа циейĠ
Ха ба
упо мя
семь яĠ
ры ',Ġ
произошед шегоĠ
живо тныхĠ
гла вĠ
Ц ар
ВМ ФĠ
ят но,Ġ
ту шилиĠ
теа тр
рей совĠ
редак циюĠ
право войĠ
к ераĠ
е вре
ва ль
бюдже та.Ġ
Роспотреб надзораĠ
http :
техни ки,Ġ
родствен никовĠ
дополнитель ноĠ
ва кан
УЕ ФАĠ
12 ,
услу г,Ġ
освобо дитьĠ
на ла
моск ви
узна тьĠ
корруп цииĠ
бан кома
ри ка
пере ходĠ
о позна
корпу саĠ
во стребо
административ номĠ
Кресто вскомĠ
от зы
зарегистри рованоĠ
аль -
Оста льныеĠ
эта жаĠ
чинов никĠ
тари ф
си г
нало говĠ
дне вноĠ
чен ногоĠ
физи ческойĠ
со мни
пода лаĠ
го в.Ġ
'Спартак 'Ġ
'Ар сена
' поĠ
штраф аĠ
проз ра
оста ласьĠ
обеща етĠ
продолжа етсяĠ
не работа
го лланд
воен нуюĠ
Ми лле
Б ю
7 процентовĠ
це ля
техниче скиеĠ
сред няяĠ
мни сти
В СĠ
11 .
'Зени та'.Ġ
моби льныхĠ
занима лсяĠ
район ныхĠ
продолжа тьĠ
об еĠ
води телиĠ
чь иĠ
редак цииĠ
ны е'Ġ
жи лыеĠ
o t
9 00Ġ
'Петро вско
ше ствен
тыся чуĠ
помощи .Ġ
отмен еĠ
обра щенииĠ
ня етĠ
лов скийĠ
вой скаĠ
води телейĠ
Н уĠ
ч ение.Ġ
расположен ныхĠ
повы ситьĠ
оцен камĠ
за чемĠ
бух гал
О ноĠ
Н К
a z
сетя хĠ
окру геĠ
без дом
Ме ди
нача луĠ
х ро
убий ство
про р
лы миĠ
чен нойĠ
секу нд
пригово ренĠ
пре сса
пор тре
па ле
но стей,Ġ
жа хĠ
го ль
вы сказалĠ
воро тĠ
Спе ц
шта бĠ
ра за.Ġ
ника хĠ
по йдетĠ
избира телейĠ
жи мĠ
американ скиеĠ
| ГлаваĠ
2 :
ра сту
кру г
кине мато
искус стваĠ
восстанови тьĠ
вод ы,Ġ
ОБ С
ДТ П,Ġ
пред почита
посад куĠ
обо ш
деятель ности,Ġ
Конститу ционныйĠ
на считы
ф иĠ
ству ющихĠ
министер ствоĠ
зво ни
долго сро
О п
продли тсяĠ
не т
м би
каждо муĠ
из учи
иг нори
а нĠ
потребо валиĠ
объеди ненияĠ
добави в,Ġ
Ф ер
Ново сти,Ġ
А рави
'Д ру
отече ствен
недвижи мостьĠ
'М ак
под сче
москов скомĠ
S u
эти миĠ
че чен
пере числен
мень шейĠ
журнали стаĠ
Д жо
199 8Ġ
- на-
те йĠ
сообщи лоĠ
ри ,Ġ
расположен нойĠ
ина чеĠ
и х,Ġ
бли жеĠ
СИЗ ОĠ
С пу
пси холо
зарубе жныхĠ
фа й
собствен ногоĠ
си лиĠ
пор таĠ
ва ',Ġ
розы скĠ
проез даĠ
про смотраĠ
на нес
во в.Ġ
утвержда ютĠ
продол житĠ
креди тĠ
дело войĠ
близ иĠ
здани емĠ
защит никаĠ
Правоохранитель ныеĠ
Пен си
необ осно
на кану
ги ган
Петербург .Ġ
Ива новĠ
у де
насили яĠ
Ру сла
Л уч
ю н
рус скихĠ
президен тскихĠ
действу ющегоĠ
город скуюĠ
вопро сы,Ġ
агент ства,Ġ
Ро ском
Г ры
es ,Ġ
распростран енияĠ
но у
заклю чи
доро гĠ
возглавля лĠ
а ссоциа
социаль но-
подпи сейĠ
психиа три
поя вленияĠ
обе ихĠ
Вар ша
Боль ше
функ циона
у тро
правитель ствуĠ
за ведомоĠ
Ц и
Санкт-Петербурга 'Ġ
4 4
10 .
зо нĠ
заклю чаетсяĠ
Путин ,Ġ
процеду раĠ
при останов
от ров
направи лиĠ
зна чениеĠ
докумен теĠ
R uĠ
участ никĠ
са '.Ġ
Кирг изи
со во
полага етĠ
интер на
вид ятĠ
199 9Ġ
моно поли
мигран товĠ
дипло матиче
Брю ссе
201 0-
си льныйĠ
рекла мыĠ
но стей.Ġ
на копи
комисси и,Ġ
зи мни
горо де,Ġ
Са н
С 'Ġ
Мек си
полови нуĠ
оцен куĠ
отвеча етĠ
ня каĠ
но же
мили цей
ме ль
ля нд
Серге юĠ
А Г
тро ихĠ
рейтин геĠ
про звуча
по чув
дво ихĠ
хвата етĠ
транспор та.Ġ
с датьĠ
да нĠ
М аль
И но
состоя тьсяĠ
соответствен но.Ġ
попыт каĠ
двер ьĠ
ве сĠ
рублей ).Ġ
пись юĠ
м ?Ġ
Ку йбыше
Красногвардей скогоĠ
Ка в
э сто
сол не
рожд ения,Ġ
кар тыĠ
движ ения.Ġ
Москвы '.Ġ
К ре
федера льнымĠ
вы х.Ġ
С ин
Пи отров
ха чка
отдель ныеĠ
име ющихĠ
банков скойĠ
с просĠ
объек тов,Ġ
зафикси рованоĠ
груп пĠ
вез тиĠ
По гиб
Минэконом развитияĠ
В местоĠ
A S
ф из
тель ностиĠ
сан ти
обслужи ваниеĠ
констру и
га че
антимоно по
Та каяĠ
Ди ректорĠ
не ',Ġ
ви р
Б И
ша гĠ
тви т
приве детĠ
от прав
лети юĠ
исследо вани
за тро
журнали стĠ
треть ейĠ
раке тыĠ
пи ро
пассажи ров,Ġ
насе ленныхĠ
мона сты
ме бе
бы стре
та циюĠ
попыт куĠ
имен аĠ
Га га
сезо неĠ
информа цию,Ġ
Серге емĠ
Красноя р
госпи та
а мнисти
Май к
Ве че
са даĠ
маршру тĠ
магази неĠ
ле тыĠ
кораб льĠ
инициатив уĠ
здоров ьюĠ
задержа нногоĠ
вод ятĠ
ха м
установ киĠ
де пози
произошед ше
пред поч
по ставилиĠ
о зе
на :Ġ
зо наĠ
вече рĠ
ван .Ġ
Мо л
чере п
труд ноĠ
с верх
причаст ностьĠ
ин вест
8 .
ти ра
отсут ствииĠ
невыез де.Ġ
в |
A r
я по
структу рыĠ
рей сыĠ
предусмотрен ныхĠ
по клон
о номĠ
не т',Ġ
граду совĠ
гим на
в ходĠ
а ван
Ш ар
С )Ġ
Горо дĠ
занима лĠ
е ш
У ФАСĠ
7 .Ġ
спа стиĠ
осуществля тьĠ
му р
договори лисьĠ
ве терĠ
Петербурга 'Ġ
член омĠ
тель ствеĠ
произ веден
пре зидиу
не й.Ġ
запа деĠ
год ы.Ġ
Си м
Ба стры
А й
собра лисьĠ
предположитель но,Ġ
показа лиĠ
вы игры
а так
пе ш
отве титьĠ
в каĠ
Э й
соче та
ни н
кон ча
Ко ман
И ри
собствен ныеĠ
постав щи
нане сен
моде лиĠ
экспе ди
горо домĠ
га 'Ġ
аргу мен
терак таĠ
район нойĠ
раз вяз
нице йĠ
ма -
ис каĠ
догово рыĠ
В стре
8 0
16 0Ġ
судеб ноеĠ
проек та.Ġ
пере ходаĠ
мат чейĠ
M ic
руководи телемĠ
про ститу
муниципа лите
любо гоĠ
з ваниеĠ
выс шегоĠ
Со лов
попроси лаĠ
ка етĠ
избра наĠ
целе сообраз
связи ,Ġ
ру ющихĠ
за мени
губернато ра,Ġ
выстав киĠ
Хо л
Большо мĠ
уби тĠ
стра ха
незакон нойĠ
ль но.Ġ
кораб ляĠ
информа ции.Ġ
Ф ак
7 6Ġ
сю даĠ
пре сти
па ,Ġ
ли бера
Су хо
Па три
чемпи он
пере йтиĠ
карти ныĠ
Boe ingĠ
ти наĠ
под москов
источ никовĠ
да стĠ
возник лиĠ
Информа цияĠ
До лла
Б из
холдин гаĠ
провед ениюĠ
девоч киĠ
двер иĠ
Ц ы
Герма нии,Ġ
юсти цииĠ
шос се.Ġ
ф е,Ġ
Са удов
Латви иĠ
специали стов,Ġ
лез но
кру гло
Сбер банкĠ
Еги пе
20 процентовĠ
распоря женииĠ
ни ю.Ġ
РС НĠ
это му,Ġ
пожар ныхĠ
обяза тельстваĠ
ж у,Ġ
ш ю
ко выхĠ
ви ча,Ġ
Ве ро
э по
о чи
жиз ни
ды 'Ġ
выво ду,Ġ
об следо
многочислен ныхĠ
вести бю
экспо зи
увелич енияĠ
са ди
над оби
ко ля
Та тар
све тĠ
комна тнойĠ
д зеĠ
в зи
ан сам
Зако нĠ
Вашинг то
поя влениеĠ
отмети в,Ġ
жд ения.Ġ
Петродвор цо
'Мер седе
собствен ностьĠ
опера торĠ
об уча
нуж наĠ
без работ
У тромĠ
Бо ро
не поня
функ цииĠ
специаль ногоĠ
приобрет ениеĠ
ва вшихĠ
аль ян
В первыеĠ
'Ян дек
фика цииĠ
соверши тьĠ
с кре
показа тьĠ
Международ ныйĠ
Красносель скомĠ
уве ренĠ
суде ,Ġ
л лю
женщи ны,Ġ
Одно временноĠ
хи рур
ть |
теле визион
столиц уĠ
се ти
журналиста м,Ġ
ж но
Чеч ниĠ
у держи
режи ме.Ġ
не 'Ġ
кир пи
привле ченияĠ
полови наĠ
ви дыĠ
Октябрь скойĠ
Международ нойĠ
А вари
7 .
учеб ныхĠ
т ностьĠ
по каж
культу ры,Ġ
докумен тов.Ġ
Сле ду
Нев еĠ
К э
Европей скогоĠ
ще .Ġ
характери сти
установлен аĠ
производ ствеĠ
политиче скиеĠ
обща тьсяĠ
дисципли нар
у платыĠ
ти м
ро логи
ра '.Ġ
подсуди мыхĠ
отказа лĠ
опро шенныхĠ
ли з
л лек
где -тоĠ
ва |
А ссоциацииĠ
моти ви
Луган скойĠ
тиче скаяĠ
сообща ет,Ġ
совер шениеĠ
отве чаяĠ
министро вĠ
Запад ногоĠ
Ва лу
6 3Ġ
'Ф а
приня тиеĠ
обла сти
един ственнымĠ
on t
i rĠ
ша ,Ġ
т никовĠ
сю же
прогно зи
проводи тьсяĠ
покупа тьĠ
п ленияĠ
в близиĠ
S M
'Ябло ко'Ġ
у жесто
с чe
пожа лу
щен ныеĠ
ш ут
при сла
боль ше.Ġ
Са ака
Р обер
Е го
сцен ыĠ
сту дииĠ
пассажи ров.Ġ
на са
жерт вамиĠ
ж киĠ
Ма гни
Ла ри
Анатоли яĠ
жд ения,Ġ
Олимпий скихĠ
И лиĠ
ше ль
треть еĠ
дне й,Ġ
ди ле
транспор та,Ġ
сче туĠ
предел ыĠ
по стави
ла сь
к лет
бу дет
три лли
тари фыĠ
мене джер
ли '.Ġ
вто руюĠ
вой ны.Ġ
Полицей скиеĠ
пор т
полага ет,Ġ
подоб ногоĠ
пла неĠ
жи хĠ
годо вщи
ру кĠ
превы шениеĠ
организа ций.Ġ
направл енияĠ
концер таĠ
д ре
четыре х
ч ностьĠ
ске т
проведен ыĠ
на многоĠ
н ',Ġ
лич ностиĠ
лицен зииĠ
комплек сеĠ
ак ку
Ф ГУПĠ
Балтий скогоĠ
ь е.Ġ
уда ровĠ
пригово раĠ
ну лаĠ
эта паĠ
по надоби
от чет
оружи я.Ġ
бо я
Европей скийĠ
a v
момен туĠ
корреспонден таĠ
копей киĠ
ж ения.Ġ
ве тери
Г .Ġ
созда ватьĠ
к со
Соб ча
Пути нуĠ
сою з
предела хĠ
зем ля
g en
9 .Ġ
'Зени та',Ġ
об щенияĠ
коммен тироватьĠ
П сков
Кита яĠ
' от
у казĠ
тов ',Ġ
зу .Ġ
выз валаĠ
Оль гиĠ
Ива нов
6 6Ġ
'У ра
ц ки
сме нĠ
зени тов
СК НĠ
С Т
РЖ ДĠ
O p
ша тĠ
Пар ламен
жде ствен
ди ри
выстрели лĠ
вы ходитьĠ
М О
си ро
пор ,Ġ
поз дноĠ
по станови
заня то
се ло
режиссе раĠ
оперативно- разы
мол ча
лу а
горо де.Ġ
ТР КĠ
Долла рĠ
утра .Ġ
й ногоĠ
запре теĠ
аппара тĠ
ч кеĠ
страхо ванияĠ
с наяĠ
прокурату ры.Ġ
про бе
м за
вы братьĠ
региона .Ġ
пре следо
леген дар
демон та
г нутьĠ
Фина н
Фе ми
P e
экипа жĠ
украин скиеĠ
республи ки.Ġ
подо пе
отдел енииĠ
ма '.Ġ
задолжен ностьĠ
арбитра жныйĠ
Причи наĠ
Крем ля.Ġ
шта теĠ
современ нойĠ
ми стро
Василеостро вскогоĠ
парти йĠ
У ВОĠ
Город скойĠ
состави лоĠ
само провозгла
ре конструи
o nĠ
ректо раĠ
производ ствуĠ
тирова тьсяĠ
сня лиĠ
реш ения,Ġ
призна камĠ
не го,Ġ
оформл енияĠ
зна етĠ
А бра
тепло снаб
неде льĠ
не дель
действи иĠ
Благо даряĠ
с дело
возмож номĠ
Л О
ты :Ġ
сказа лиĠ
п ье
остро вĠ
мя чĠ
Хаба ров
Нава льногоĠ
9 .
са м.Ġ
объ ез
Пути на,Ġ
Александ ромĠ
тар ьĠ
судеб номĠ
строитель ныйĠ
сти ческойĠ
ска я',Ġ
печа та
нен а
вне сенĠ
вклю чаетĠ
Ше реме
Вто ро
Мор скойĠ
Мат чĠ
З и
череп но-
фу н
проводи лиĠ
вла д
виде тьĠ
Чинов никиĠ
B B
черепно- моз
следу ютĠ
раз ъ
предста вл
потерпе вши
мужчи ну,Ġ
боле е,Ġ
С тар
чемпи оновĠ
х нулĠ
у ль
специаль нойĠ
ради а
призна нииĠ
предусмотрен оĠ
об щениеĠ
не заме
цо в.Ġ
центра льнойĠ
ме тео
ди наĠ
Осе ти
Миро новĠ
13 ,
топли ваĠ
спокой ноĠ
сда чиĠ
рем яĠ
раз решен
обсуди тьĠ
каза лось,Ġ
Куз ь
о ли
зарабо тнойĠ
ча са.Ġ
тури з
раз говари
при ба
мор скихĠ
лиде ромĠ
стро йĠ
свобо дуĠ
отмен ыĠ
д ',Ġ
г ности
o b
траге дииĠ
сторо нĠ
смыс леĠ
россий скуюĠ
разме щениеĠ
об менĠ
задол гоĠ
Н у,Ġ
Го во
А Э
'Петро в
сказа ли,Ġ
реги оне
ран ения.Ġ
пото кĠ
вкла дĠ
бу .Ġ
беспла тноĠ
ГИБД Д,Ġ
| СегодняĠ
хозяй стваĠ
х )Ġ
тяж когоĠ
спе ш
составля лаĠ
писа лиĠ
веще ствĠ
Рус скаяĠ
5 процентов.Ġ
фина лаĠ
призы в
планирова лосьĠ
о пере
ля ютĠ
домо в.Ġ
К Э
'Лен энерго'Ġ
столич ногоĠ
потер иĠ
поря до
ом буд
на бра
мн енияĠ
милли он
брас ы
тыся ча
рас стоя
пи а
дальней шегоĠ
холо днойĠ
фор вар
не ж
международ номĠ
Санкт-Петербург скийĠ
тр оĠ
само убий
прожи ваетĠ
официаль ныеĠ
Гон ча
уголов ныеĠ
ст ныхĠ
маль чикаĠ
действу ютĠ
выя вленыĠ
Су деб
Кад да
' НевскийĠ
са до
рее стрĠ
пере ч
ков 'Ġ
бу ,Ġ
6 .
фору меĠ
рын ка,Ġ
разме ромĠ
проходи лиĠ
ко меди
вче раш
'Газпро мĠ
принима лиĠ
кот те
конкре тныхĠ
адрес уĠ
Пи ска
Б К
'ВКонтак те'Ġ
ю :Ġ
противоре чи
по йдутĠ
объе меĠ
мо стуĠ
Украи не.Ġ
поступи лиĠ
мероприяти й,Ġ
кти ви
издани юĠ
журна лаĠ
ано н
Го сти
'А ль-
тро туа
покуп киĠ
вод ятсяĠ
барре ль.Ġ
а ',Ġ
Эдуар дĠ
соответ ствиеĠ
сило выхĠ
пес ниĠ
неосторож ностиĠ
е го.Ġ
ак ци
а стро
У лья
экстра ди
ч номуĠ
технологи йĠ
стои тьĠ
скоро стиĠ
объясни лиĠ
кон фи
деятель ностьюĠ
буду чиĠ
Нидер лан
es .Ġ
S e
шта таĠ
ска я.Ġ
обвиня емыйĠ
кри тери
же й,Ġ
хи щ
ра чи
опера цийĠ
Виш нев
с провоци
производи телейĠ
пре сси
освобо ди
нарко тическихĠ
Кон ю
Ком му
сотрудниче ствоĠ
со седни
ры бо
показа телиĠ
до верен
власт ямĠ
199 1Ġ
следова тельĠ
от кров
метро мĠ
У ПКĠ
Север ногоĠ
ik i
D ail
примен ениемĠ
предоста вленииĠ
подгото витьĠ
пере ло
милиционе рыĠ
еги пе
двор цаĠ
Су д
Моск ве
сто гоĠ
сти мули
руковод ствуĠ
раз бо
публи ку
объясня етĠ
н номуĠ
Конститу цииĠ
сцена ри
ск ром
осно ванийĠ
же л
Пе сковĠ
Егип таĠ
ста навли
продол житель
о кра
запре таĠ
Дж ор
' 0
шки наĠ
угро зуĠ
начина ютĠ
истори ческихĠ
ис па
ж деĠ
Fran ce
ы |
ска я'.Ġ
ра я,Ġ
посе титьĠ
ком у
за работ
за рабаты
б лу
u m
электро нныхĠ
реги он
м бер
коль це
кви тан
' у
' Ж
тен си
сами мĠ
личе ствоĠ
за ставля
Росси ю.Ġ
Н ур
Докумен тĠ
свед енийĠ
мо й.Ġ
ме трĠ
ме га
действу ющимĠ
го лĠ
Ф ут
соверши лиĠ
постро енĠ
отве таĠ
же лиĠ
Г ,Ġ
Боль шаяĠ
петербург скимĠ
о рĠ
вне сĠ
У даль
29 ,
Дру гиеĠ
приня лоĠ
ис киĠ
гек та
воздуш ныхĠ
Ме та
5 0-
на ци
инспек цииĠ
инвесто ровĠ
ж ения,Ġ
теля ми,Ġ
са дĠ
предпринима теляĠ
показа лĠ
орга нĠ
ли ныĠ
использу ютĠ
ду ютĠ
д наяĠ
Э КĠ
M ar
человек |
со тенĠ
игра етĠ
С Б
Медведе ва,Ġ
современ ныхĠ
организа циейĠ
мат чиĠ
креди тныхĠ
ка лен
действу ющихĠ
го ваяĠ
би ологи
'З вез
учеб ногоĠ
привле ченыĠ
помощ ь.Ġ
подпи сиĠ
женщи на,Ġ
де ломĠ
при город
потребу етсяĠ
оконча нииĠ
лет нейĠ
защи ща
диск вали
университе тĠ
т- Экс
отмени лĠ
диа гности
шки нĠ
писто летĠ
мы миĠ
инте ллек
Бе зĠ
' НоĠ
об а
много квартир
зелен ы
верси юĠ
Нев ыĠ
фан та
ден аĠ
ва емыхĠ
ф ру
т никиĠ
се ми
работа ющихĠ
поче му-тоĠ
L e
примен ениеĠ
оп понен
емо стиĠ
б люд
Ne wĠ
6 8Ġ
про явля
ке |
ение :Ġ
во ссо
обсу ждениеĠ
ле со
крити ко
владель цемĠ
Сер би
С разуĠ
Ро манаĠ
Интер нетĠ
сообще стваĠ
па .Ġ
ос лож
обще еĠ
мусуль ман
Ф Н
Стани славĠ
тру быĠ
обществен ныеĠ
ну женĠ
кур сан
Э туĠ
НЕ СК
част ныеĠ
част нойĠ
цен уĠ
тор ,Ġ
поддержи ватьĠ
може т,Ġ
ис к
ю ща
усло вноĠ
по ставилĠ
на ра
да -
Про бле
Верхов нойĠ
s t
19 .
я щи
сы ла
оцени тьĠ
е шьĠ
ЗакС еĠ
ки -
за менитьĠ
вер дик
в вед
бор тĠ
Руко водительĠ
5 0процентовĠ
' Да
с су
ности 'Ġ
запре ща
жда етĠ
вы нес
авто ровĠ
Д КĠ
А Т
провер ка,Ġ
девя тиĠ
ат те
От вет
Ду маю,Ġ
следу ющимĠ
подписа нĠ
мо ги
е сть.Ġ
тов |
сте ре
по ст
зем ли
П он
Осе тииĠ
a ,Ġ
прекра щенияĠ
пред две
офи цер
Ю НЕСК
ти ваĠ
преддве рииĠ
обще ствоĠ
жало бĠ
ги наĠ
То ,Ġ
объе маĠ
жи йĠ
диа метромĠ
го мо
го ',Ġ
бы вшейĠ
Ин тере
' Ки
т e
реш ения.Ġ
защит никиĠ
заклю ченииĠ
в клад
СК РĠ
швей цар
сре до
отказ еĠ
Хо ро
Евро пы.Ġ
d e
'О к
'На род
при ставыĠ
по совето
п лек
журнали стов,Ġ
Смо третьĠ
Р ад
Е лиза
ф она
найден ыĠ
мо л,Ġ
кварти раĠ
до ль
вет раĠ
Т вит
А ктиви
образо ваниеĠ
ис пан
защи титьĠ
Mic ro
ь ',Ġ
ме ло
актив ныхĠ
Цен аĠ
Ар темĠ
Pres s
18 0Ġ
ябло ч
объя вленоĠ
луч шиеĠ
ва ющейĠ
Вене суэ
хран енияĠ
ска миĠ
напря муюĠ
мер ,Ġ
емо муĠ
высо кийĠ
возмож нымĠ
Г роз
Г ера
Спу стяĠ
приро до
поряд ке.Ġ
въез дĠ
у лы
полови нойĠ
ла м
Д ень
ши ,Ġ
ту ра
расположен номĠ
под ва
не восточ
л ениемĠ
об мен
капита нĠ
голо саĠ
Про све
so f
хо тимĠ
территори и.Ġ
оружи я,Ġ
ву зовĠ
Э нер
П от
Е ль
( 8
ш ви
приш лоĠ
при казĠ
наблюда етсяĠ
жиль цовĠ
вы ходитĠ
ак ции,Ġ
Бара кĠ
ча сыĠ
приве лиĠ
пере ходеĠ
обуч енияĠ
маль чикĠ
ения |
требо ватьĠ
акти вовĠ
т во
си но
проек томĠ
но |
ми ссииĠ
й скихĠ
es t
у ступи
ра ско
промышлен ностиĠ
поли т
покуп кеĠ
подтверди л,Ġ
выда чиĠ
валю тыĠ
От ве
К ро
хра маĠ
ть яĠ
от цаĠ
м бо
лен нойĠ
комментари евĠ
ка ун
з ю
еди ногоĠ
допусти тьĠ
Вах мистро
спаса телиĠ
сало неĠ
регистра циюĠ
зи наĠ
ба зуĠ
Сверд ловскойĠ
случай ноĠ
с право
они ,Ġ
ин тенси
воз рос
во обще
бое войĠ
Но выеĠ
i sĠ
управл ениюĠ
ст ря
назна ченииĠ
за бралиĠ
еже дневноĠ
Глав ноеĠ
'Д ляĠ
теку щемĠ
се дь
прове рокĠ
образ и
закры лиĠ
ра ни
переда ноĠ
деть миĠ
безрабо ти
автобу совĠ
товар ыĠ
проез жейĠ
Ха л
Но вогоĠ
Ку ли
! ',Ġ
им пера
Организа торыĠ
Объ единен
Мо й
I I
представи лĠ
контроли роватьĠ
игра лĠ
дефици тĠ
У чены
Константи наĠ
Ка ли
47 new
утвер дилĠ
регу ля
незакон нымĠ
круп ныйĠ
катастро ф
ение '.Ġ
ва ется.Ġ
ты |
совершен ноеĠ
перекрест кеĠ
анони м
Ники таĠ
Len taĠ
про ми
по го
отрас лиĠ
отме ткиĠ
но го'Ġ
молоде ж
ле ченияĠ
зако неĠ
автомобиле й,Ġ
Га й
s ru.comĠ
трубо прово
то ро
согласи яĠ
самоле тыĠ
подряд чикĠ
му жĠ
ТАСС ,Ġ
Извест но,Ġ
Академи иĠ
цен о
распоря ди
напря жен
ван ноеĠ
Я н
Гор ба
тель но.Ġ
случи вше
позволя ютĠ
откры тоĠ
окружа ющейĠ
но тари
тирова лаĠ
про ли
предъ явля
магистра лиĠ
ла '.Ġ
ени ем
Полтав ченко.Ġ
Ви ди
e з
экономи кеĠ
счаст ью,Ġ
соответству ющегоĠ
ск ло
са дуĠ
по сто
ни комуĠ
выступи тĠ
вице- президентĠ
С ту
Осе ев
при держи
й ныйĠ
бизне са,Ġ
7 0-
'Рус скаяĠ
ции :Ġ
ле й,Ġ
здани й,Ġ
алкого ляĠ
хри сти
фина лĠ
став куĠ
ми ри
ло жилиĠ
госпитали зирован
Micro sof
справедли во
опла туĠ
задержа нныйĠ
. Ru
ро вокĠ
пони зи
на учи
массо выеĠ
суде йĠ
ри су
прокурату ройĠ
под ро
означа ет,Ġ
ство ',Ġ
специали зирован
над пи
мэ рĠ
ма ра
в ени
электро энерги
причи намĠ
онлай н-
зри телейĠ
е вичĠ
o p
увеличи лосьĠ
раз реши
под ры
печа тиĠ
но вымиĠ
культур нойĠ
город ,Ġ
бизне са.Ġ
Ж ан
In ter
'Ро сте
финанси ро
случа иĠ
проспек т,Ġ
призна лаĠ
кварти ры.Ġ
Санкт-Петербург е.Ġ
хоте лосьĠ
прися жныхĠ
предоста влениеĠ
ок неĠ
луч шийĠ
житель стваĠ
С обра
7 7Ġ
ст рииĠ
пове дни
из датель
возвра щенияĠ
Фрунзен скомĠ
Те лоĠ
Нава льныйĠ
су да
принадлежа тĠ
S -
тор уĠ
вырос лоĠ
Справ каĠ
предоставля тьĠ
москов скихĠ
ха .Ġ
упа лиĠ
стади онĠ
распростран ениеĠ
потен циа
насел ения.Ġ
дере вя
Ма хачка
подвер га
о стави
и щ
д нуюĠ
вре дĠ
Сум маĠ
шен аĠ
финансо выйĠ
уточ нилиĠ
тор гахĠ
очевид цы,Ġ
ме ча
возбу дилиĠ
беспо ко
РФ ).Ġ
со отечествен
несовершеннолет нихĠ
ФИ ФАĠ
Ком пани
пре р
образо вания,Ġ
не трез
луч шимĠ
земе льногоĠ
запрещен оĠ
зай метĠ
зада чиĠ
ва ющегоĠ
в ку
'Жи гу
ч ение,Ġ
ти ка
ка пи
вы двига
ак ва
Петербург е|
Обвод ногоĠ
Газета. RuĠ
тяже ло
призна киĠ
похи тилĠ
полу тораĠ
и гор
выступа лĠ
воз ь
ба скет
25 -
эста фе
удар ыĠ
спро саĠ
со рат
ра |
по иска
ли ней
кон тр
измен ениеĠ
зна ет,Ġ
бы ло
Б уда
Апра кси
ки ну
й скомĠ
да таĠ
Са довойĠ
s ta
1 10Ġ
с ноеĠ
разме ре
о м,Ġ
ков |
информа ция,Ġ
тра ги
с номĠ
про сро
по во
кило метр
возглавля етĠ
С тали
х -
се лаĠ
разви тииĠ
разби лсяĠ
похо же,Ġ
ло войĠ
би т
со ва,Ġ
ре чиĠ
рассматри ваетсяĠ
предположи тельноĠ
о ставилиĠ
называ етсяĠ
н e
ме тсяĠ
граждан скихĠ
вл ю
ак каун
14 .
може теĠ
землетряс енияĠ
возра стаĠ
Соответству ющееĠ
П ан
И сла
'Из вести
фак тыĠ
нару ша
з драв
год ы,Ġ
говори т,Ġ
восстано влениеĠ
ва к
у став
россий скомуĠ
подозрева емы
ми ло
использу етсяĠ
з яĠ
до стовер
Сири и,Ġ
Вече ромĠ
устано вленияĠ
разгово рĠ
подтверди ли,Ġ
но ма
доро гахĠ
вы те
И .Ġ
W iki
сою зĠ
депута томĠ
гости ницыĠ
голо дов
9 9Ġ
6 7Ġ
шестви яĠ
раз нымĠ
практи кеĠ
позна коми
объек тив
най денĠ
Санкт-Петербург скойĠ
С ноу
судь баĠ
наоборо т,Ġ
на бира
мо иĠ
жд ениемĠ
Ц СК
Бо й
по кон
команд ы.Ġ
й ),Ġ
возмож нойĠ
Во- вторых,Ġ
строитель ства,Ġ
север нойĠ
пря та
комите та,Ġ
Спа са
Пор ту
: 0
центра льногоĠ
при земли
предела миĠ
обра зĠ
губернатор .Ġ
Григо рийĠ
уча ствуютĠ
следствен наяĠ
ко ти
Украин уĠ
шта тĠ
рын ка.Ġ
реализо ватьĠ
оби та
норма ти
запре тилиĠ
Я цен
i f
те пла
ру лемĠ
прави льноĠ
ограни чениеĠ
еди ныйĠ
В с
фина леĠ
сообща ется,Ġ
ше сти
тер ми
т ки,Ġ
за веденияĠ
Дмитри юĠ
14 ,
уби ра
зарпла таĠ
виде лиĠ
Сири и.Ġ
Камен но
школь никовĠ
цо мĠ
способ ностиĠ
потра титьĠ
полити куĠ
от рази
обнаружи лĠ
н скаяĠ
ке ',Ġ
е )Ġ
времен нойĠ
бло ге
а да
КГИ ОП
пря мойĠ
п ени
опровер гĠ
о созна
КЭ РП
З ло
До моде
Госду меĠ
1, 3Ġ
'П я
' ПриĠ
ст етĠ
писто летаĠ
оператив ногоĠ
област ногоĠ
кон ди
й |ВĠ
Чемпи она
СС ПĠ
' КĠ
церемо нияĠ
у ходаĠ
принад леж
име етсяĠ
В ан
ть е
сх емуĠ
руб ля
рован наяĠ
ри .Ġ
не м
лиц омĠ
контей не
Сла вян
По водомĠ
В чераĠ
1 -гоĠ
убе жден
рубе жо
продук ции,Ġ
моби льногоĠ
международ нымĠ
ко дексĠ
зна ютĠ
догово ровĠ
бы вшимĠ
Щ е
Ско рееĠ
СЗФ ОĠ
КНД РĠ
' про
хоро шийĠ
ты '.Ġ
сер де
дела миĠ
В ско
'Во ди
экономи ческийĠ
че к,Ġ
супру гаĠ
ри кан
право мер
зна ченияĠ
документа цииĠ
госпитализирова ныĠ
автомобиле й.Ġ
Ди рек
iPhon eĠ
фор мыĠ
так сиĠ
пере шелĠ
мужчи ны,Ġ
дости гĠ
ТС ЖĠ
Стре ль
Официаль ныйĠ
5 8
середи ныĠ
предприяти я.Ġ
о держа
дале е.Ġ
Санкт-Петербург е,Ġ
расхо до
профессиона льногоĠ
при уро
но жо
музы киĠ
заявля л,Ġ
ва ться,Ġ
Т ек
S k
сегодняш немĠ
официаль ноеĠ
откро етсяĠ
напра вленныеĠ
мину вшуюĠ
авто матиче
Е р
сконча ласьĠ
ра д
при ви
оз доро
информа ционныхĠ
Институ таĠ
циф рыĠ
по кĠ
обви нилĠ
мили циюĠ
ис куĠ
европей скойĠ
Ко личествоĠ
АЖУ РĠ
m e
14 0Ġ
( аĠ
стра ниц
разбира тель
исла ми
жиз нь
бюдже тныеĠ
бюдже та,Ġ
О Г
Ива наĠ
тари фа
сообща лаĠ
ру ',Ġ
нен ныйĠ
задержа наĠ
за моро
года |
возгора нияĠ
ско го'Ġ
насел ения,Ġ
народ ныхĠ
грам мовĠ
га х,Ġ
30 процентовĠ
откры тĠ
года ',Ġ
Яцен ю
трав мĠ
столкну лсяĠ
ско м.Ġ
с мяг
представи тель
ме ша
ку '.Ġ
креди товĠ
интере сахĠ
Ну жноĠ
юриди ческойĠ
щен ко,Ġ
центра 'Ġ
ство '.Ġ
се ти.Ġ
рас ход
пол ногоĠ
лек тро
воз держа
Э нгель
прохо жденияĠ
количе ствеĠ
уча сто
прото кол
пор туĠ
мо гу
больнице .Ġ
Путин :Ġ
шан сыĠ
фак тамĠ
преми юĠ
м бу
ко вымĠ
КЭРП Пи
соб люда
паспор таĠ
оста ватьсяĠ
до хо
да рĠ
Тимошен коĠ
числен ностьĠ
си иĠ
ро стомĠ
освобо жденияĠ
ника ми,Ġ
маши ны.Ġ
По доб
' Пе
ло ва.Ġ
купи лĠ
защи таĠ
ва л.Ġ
тов 'Ġ
покупа телейĠ
выну жден
внесен ыĠ
би лĠ
' Кры
чe мĠ
посмо тре
ва цииĠ
Ста вро
Бер ли
'Го род
щен ко.Ġ
сти лиĠ
со един
ров |
предыду щегоĠ
повре жденияĠ
пере числи
пе рĠ
кров иĠ
воз никĠ
П Д
Д ар
ство валаĠ
рен ыĠ
предприяти й,Ġ
пере имено
массо вогоĠ
ансам б
Ки мĠ
Faceboo k
( околоĠ
паспор тĠ
капита льногоĠ
'Э к
'М у
теля ми.Ġ
контроли ру
готови тĠ
готов ностьĠ
с клады
предлож енийĠ
пара лле
нор веж
Пав лов
A l
' Нев
ти ту
ря тĠ
проти в,Ġ
обуч ениеĠ
город скаяĠ
владе етĠ
бан ки
пострада вшимĠ
Писка рев
Вско реĠ
Ви теб
у пла
стро яĠ
регули ру
расположен ыĠ
произо йдетĠ
по жи
объе мыĠ
внес енииĠ
важ но,Ġ
школ уĠ
ти фици
стар шегоĠ
профила кти
национа льныхĠ
атте ста
Петербур гомĠ
Мо жетĠ
случи лосьĠ
се ти,Ġ
петербурж цаĠ
орга наĠ
ниче скогоĠ
выз ватьĠ
ва ться.Ġ
Бо ло
'Па ссажи
урожен ецĠ
рас пи
перевоз киĠ
основ ногоĠ
кладби щеĠ
взя лаĠ
Государ ственногоĠ
ш ор
те сти
при бо
многи мĠ
Ru ss
10 ,Ġ
опас ностиĠ
меди киĠ
заня тьĠ
Мо лда
Кита йĠ
участво валĠ
судеб нойĠ
совеща ниеĠ
пре киĠ
за купо
государствен нымĠ
во к,Ġ
О бы
состоя нии,Ġ
пор но
одоб рилĠ
иск рен
государствен нуюĠ
тре мĠ
рова лоĠ
неде ли.Ġ
изъя тыĠ
е детĠ
Москвы ',Ġ
За хар
Ги дро
2 -йĠ
'Бо ин
э льĠ
то ра.Ġ
стату саĠ
связи .Ġ
пря момĠ
пробле мы,Ġ
ото бралиĠ
оказа ниеĠ
не добросовест
ки на.Ġ
зи ровалиĠ
в ныхĠ
согласо ванияĠ
под лин
на дея
меся цев,Ġ
кандида туруĠ
к ня
бо вĠ
Ж ер
T ub
следу ющиеĠ
пер вы
немедлен ноĠ
москов скойĠ
коло ни
заказ уĠ
б лю
Пути на.Ġ
З ы
Dail yĠ
шен оĠ
чет коĠ
право порядкаĠ
порта леĠ
мили цияĠ
ман ,Ġ
инвесто рĠ
Во й
А га
ш ,Ġ
со сла
оператив нойĠ
минист руĠ
ма ро
лет нихĠ
ду ше
видимо сти,Ġ
Росси ю,Ġ
Дж онĠ
ть ев
созда лиĠ
подпи сы
Петроград скойĠ
Генера льныйĠ
7 8Ġ
рас тĠ
комите туĠ
затра тыĠ
все мир
Фонта нкеĠ
семе йĠ
ря до
разви ватьĠ
за миĠ
государ ство'Ġ
высо кихĠ
все х,Ġ
вид но,Ġ
Фур сен
Ра мза
ча с.Ġ
специали стĠ
ситуа цию,Ġ
ры йĠ
проспек ту.Ġ
при шед
зая вокĠ
в скомуĠ
Е ли
'А ль
чи вĠ
ф ля
спи кераĠ
потерпе вшегоĠ
взыска тьĠ
в ьĠ
я й
тель скийĠ
привлека тьĠ
объ явля
за мы
ди юĠ
вла стя
пол нуюĠ
ника м,Ġ
мужчи на.Ġ
минист р.Ġ
маршру туĠ
количе ствуĠ
капита лаĠ
ва ясьĠ
бюдже теĠ
административ ныйĠ
Са й
Lenta .ru.Ġ
содержи тсяĠ
иностран ныеĠ
гражда намиĠ
бри фин
Лондо неĠ
C N
формиро ваниеĠ
сотрудниче ствеĠ
мо ре
косми ческойĠ
и .
друго муĠ
Цен ыĠ
Twit terĠ
сокра щенияĠ
молоде жиĠ
метро .Ġ
лар мо
кры м
израи ль
б рази
Смольно го,Ġ
М 'Ġ
A gen
му 'Ġ
ми ре.Ġ
за 'Ġ
взрыв ча
близо стиĠ
Фран ции,Ġ
Украи не,Ġ
Поль шиĠ
Ломоно сов
Источ никĠ
Вы со
сыгра етĠ
составля тьĠ
сообщ ениюĠ
по деше
по ведениеĠ
одно зна
гуманитар нойĠ
в '.Ġ
После дниеĠ
че й.Ġ
ра м.Ġ
проси тьĠ
по меня
места миĠ
выступа ютĠ
времен ноеĠ
ближай шихĠ
Фин скогоĠ
Р яза
Пер воеĠ
Авто моби
14 -
станов ятсяĠ
располага етсяĠ
л ка
ка и
схе маĠ
по интересо
отправи лĠ
о гоĠ
мо м,Ġ
ищ етĠ
игро киĠ
вы водуĠ
Ту ри
М .Ġ
NEWS ru
яс но,Ġ
цен тре
по искĠ
за вы
Строи тельствоĠ
'А вро
президен т.Ġ
предложи тьĠ
беру тĠ
Росси я'.Ġ
Ро сто
Про стоĠ
филь меĠ
фаль ши
противо прав
остро ве.Ġ
зелен ыхĠ
безу словно,Ġ
Т ар
3 1,
чемпи онĠ
ча сти,Ġ
то -
пере мен
пе тро
определен ныеĠ
корабле йĠ
ж нымиĠ
дол гиĠ
дви ну
высо киеĠ
Федера льнымĠ
11 -
пресс-служ бе.Ġ
ме ста,Ġ
за бро
ем ся,Ġ
диску сси
Твер скойĠ
Ар ген
эта жногоĠ
строитель ства.Ġ
само муĠ
рань ше,Ġ
ника ми.Ġ
заклю ченĠ
восстано вленияĠ
валю тныхĠ
ва лен
противо стоя
н нымиĠ
Ф ЗĠ
Поз днееĠ
Ки се
Каменно остро
И то
че вĠ
раз работатьĠ
пассажи рĠ
на с,Ġ
ме че
за бра
ве чер
Twit ter
9 0-
'Зени том'Ġ
т койĠ
запланирова ноĠ
влен нымĠ
До маĠ
ро бо
продук циюĠ
вы ходеĠ
банд ыĠ
хов скойĠ
поис киĠ
лини юĠ
ла -
двор цеĠ
ба ра
аф рикан
18 .
фра гмен
мо не
име ющиеĠ
взры веĠ
бо л
Кады ровĠ
' ОнĠ
сса н
о -
катастро феĠ
бан комĠ
Спа си
О Н
Але п
il l
са л
небо скре
мо яĠ
кон тинен
глав каĠ
беспоряд ковĠ
( отĠ
хорошо ,Ġ
про чита
но вы
ни на,Ġ
за о
е му,Ġ
гру зĠ
Ф Б
П И
са эро
рас цени
прось беĠ
ле й.Ġ
кото рая,Ġ
Д веĠ
тради цииĠ
тив наяĠ
су ти,Ġ
о крест
лидер ыĠ
выступи тьĠ
Ка пел
За мести
све таĠ
раз во
прожи ванияĠ
помога тьĠ
по пе
л лаĠ
источ никаĠ
закон нуюĠ
ен ногоĠ
вы тащи
' Ч
ви ковĠ
О ченьĠ
ia nĠ
щи есяĠ
ству ющиеĠ
компани я,Ġ
во времяĠ
П С
Ни какихĠ
France -
6 1Ġ
ющи х,Ġ
ста яĠ
раз решитьĠ
пуска тьĠ
принима лĠ
оцени лĠ
ман .Ġ
зе млюĠ
ва '.Ġ
Пи тер
то й,Ġ
сва дь
с хо
рекор дĠ
при гото
обязатель ствĠ
мину вшиеĠ
лев скойĠ
закры тĠ
задержа тьĠ
добавля етĠ
горе лĠ
Тро еĠ
Ми -
Ки еваĠ
сы па
спортсмен овĠ
составля лĠ
согласи еĠ
пред ставленĠ
руб .,Ġ
ли ди
вла стей,Ġ
Т ра
Bl oo
199 2Ġ
' сĠ
ресур совĠ
прове денĠ
от тудаĠ
н рав
н енийĠ
клады ватьĠ
до муĠ
И ГĠ
т ?Ġ
ро жден
послед немĠ
Аршави нĠ
'Тран саэро
совет скихĠ
родствен никиĠ
очеред ногоĠ
ен ныеĠ
еже днев
Испо л
неу доб
не малоĠ
на став
ло ч
за писа
вра ча
больниц у,Ġ
Во роб
коми сса
коман дойĠ
зи лиĠ
за купа
ген е
взрос лы
ар би
'Ябло ка'Ġ
'П ла
шан сĠ
созда лĠ
пол ноеĠ
пограни ч
ка к,Ġ
гори тĠ
выступа тьĠ
винов нымиĠ
бе га
ат ло
агре ссив
попро стуĠ
ж ение,Ġ
администра ции,Ġ
Петроград скомĠ
Ко ра
А налоги
You Tub
тра фи
тарифо вĠ
ро войĠ
рабо тойĠ
о казыватьĠ
долго еĠ
ва ет.Ġ
ак ваторииĠ
участ никаĠ
сро чноĠ
срав ни
кры шиĠ
ка над
й |Ġ
банк ро
антимоно поль
Не обходи
Бе резо
раз го
од ниĠ
ни н,Ġ
настоя щегоĠ
мыш койĠ
и тьĠ
ен ,Ġ
докумен т,Ġ
выбо ров,Ġ
ата киĠ
Му зе
4 3
цо ва,Ġ
тре мяĠ
сред ыĠ
помощи ,Ġ
коман дĠ
за га
вой ны,Ġ
Причи ныĠ
France- Press
штраф ыĠ
представля ютĠ
обнаружен аĠ
имуще ства,Ġ
иде ологи
грип паĠ
Х ан
Сав ченкоĠ
Л я
Бы стро
требо валиĠ
подготов каĠ
очевид но,Ġ
осу жденĠ
нельз я.Ġ
компенса циюĠ
взры во
веду щийĠ
ва жныхĠ
На у
фунда мен
ры '.Ġ
по сту
по благода
оборо таĠ
наме ре
ван нуюĠ
Кова ль
Ан ю
Администра цияĠ
семь и,Ġ
перене стиĠ
от меня
до лиĠ
У ФСБĠ
Ли ви
Израи ляĠ
фор муĠ
связ ейĠ
оди нако
компани ямĠ
кни теĠ
ки сло
Ка вказ
ю риĠ
хо ти
кор ми
граду сов.Ġ
сохран енияĠ
сово куп
со средо
следу ет,Ġ
просто йĠ
от ы
налого выхĠ
мо ли
выпуск никовĠ
вы ку
Ар м
i lĠ
ро дĠ
ниче скийĠ
на ступа
международ ныеĠ
груп пы.Ġ
ге й-
пользова телиĠ
мину т,Ġ
запад ныхĠ
графи кĠ
Ше й
Р 'Ġ
Д ю
Бо а
13 .
зна ют,Ġ
заня лаĠ
бо ло
da yĠ
6 9Ġ
5 процентов,Ġ
це .Ġ
фи к
реаль ноĠ
предста вленияĠ
пла ти
направи лаĠ
кон гре
до ве
ви нĠ
в ныеĠ
в веденииĠ
Ель ци
Agen ceĠ
ч ре
фе ро
улиц а
суд уĠ
простран ствоĠ
преступ никиĠ
понима ю,Ġ
пенси иĠ
кли книтеĠ
каж у
й скиеĠ
и ран
бро не
В ин
участ кахĠ
тр уĠ
под контро
пере хва
мно го,Ġ
круп нойĠ
и лĠ
ж уюĠ
боль шееĠ
Ви лла
... 'Ġ
существу ютĠ
ссыла ясьĠ
си му
получи вĠ
осуществля тьсяĠ
житель ницаĠ
аре стеĠ
тыся ч,Ġ
нынеш нийĠ
на град
мужчи н,Ġ
мо ва,Ġ
за тоĠ
жиль я.Ġ
действу ющемуĠ
д -
Адвокаа тĠ
'Зени т
теле м,Ġ
себ я,Ġ
рассказа ли,Ġ
подписа тьĠ
зарпла туĠ
жда лиĠ
сообщ енийĠ
соблюд енияĠ
реда кторĠ
кли ма
ди ви
Росси я,Ġ
Р УВДĠ
Ак цияĠ
to m
у пра
сю р
собствен номуĠ
слу хиĠ
ски х,Ġ
по ройĠ
замети л,Ġ
СПб ГУ
Д немĠ
Волго гра
сложи вшейсяĠ
предпринима тельĠ
клубо вĠ
дво раĠ
гла си
Ген прокуратураĠ
харак терĠ
управл ения,Ġ
раз ум
при влек
огра б
обма ну
о писы
ма ш
л обо
ер ыĠ
выво дĠ
Федера льныйĠ
С ур
По сколькуĠ
цен а
ти каĠ
су ток.Ġ
продол жилĠ
образо ваниюĠ
написа лаĠ
мемо риаль
возник лаĠ
артилле рий
П лощадьĠ
Ев ту
эффектив ностиĠ
ча сов
центра ,Ġ
от сро
ма сте
избра нииĠ
жерт войĠ
дру же
действу ющийĠ
15 .
чу жо
поли цию.Ġ
подня лсяĠ
мо м.Ġ
кафе д
за мини
выпла тĠ
внима тельноĠ
На ры
сало наĠ
расположен ныйĠ
любо еĠ
вы ше,Ġ
бы вшемуĠ
1 -йĠ
'С во
эмо циона
электро снаб
хо ва,Ġ
стрель буĠ
реабили та
рас ста
повто ря
остро ва.Ġ
о в
лю ка
како е-тоĠ
за прав
декла ри
взрыв ноеĠ
Нов городскойĠ
сле жи
поста ра
опублико ванĠ
не пре
на имено
м бле
ка ль
зам министраĠ
то гда,Ġ
пере вестиĠ
килограм мовĠ
законодатель ства.Ġ
буду щихĠ
администра ции.Ġ
Узбекиста наĠ
Об щийĠ
'Л уч
явля лсяĠ
чи тьсяĠ
ци ви
те лĠ
ста лки
ре га
пу ,Ġ
Особ енноĠ
Дже й
7 4Ġ
сообща лиĠ
собствен никовĠ
са ми,Ġ
под жо
осмо траĠ
обжало ватьĠ
за дума
говори л,Ġ
а ссо
О боро
15 ,
ци я'Ġ
факульте таĠ
строи телейĠ
способ ностьĠ
ров ',Ġ
разработ киĠ
призна лсяĠ
отправи лисьĠ
оста нутсяĠ
опера торовĠ
обще мĠ
га х.Ġ
администра циюĠ
ту ',Ġ
ти на,Ġ
со зы
разме ща
нач нутсяĠ
мно го.Ġ
встрети тьсяĠ
О си
Елиза ве
Бе ля
E x
9 0
чи сты
ться ',Ġ
тру пĠ
тиче скимĠ
ско пи
под рядĠ
по бу
ожида етĠ
зи мойĠ
голосо ваниеĠ
Фин лянд
Смольно го.Ġ
y ,Ġ
шко лаĠ
соответству ющейĠ
пользу ютсяĠ
получа лиĠ
на мы
лю дей
ды ха
Ту -15
Ре жи
Бы лиĠ
Бель ги
'Тран с
футболь ныхĠ
федера льномуĠ
ма не
жа етсяĠ
есте ственно,Ġ
горожа неĠ
тор еĠ
порт фе
перене сен
пе ц
ков :Ġ
Наде ждаĠ
Евро союзаĠ
част ейĠ
то наĠ
сло ма
пере стре
не го.Ġ
мо тив
ли нияĠ
бю ро
би летĠ
Че ты
Наи болееĠ
Воору женныхĠ
Види мо,Ġ
А страха
А Н
хули га
рассмотр енииĠ
пунк тыĠ
кубо метровĠ
информа ционнойĠ
избра нĠ
зам предĠ
д ноеĠ
вы ставля
а зи
тыся ч
ста вĠ
от ка
наро дĠ
б 'Ġ
З ,Ġ
Вице- губернаторĠ
упомя ну
погиб лаĠ
маршру таĠ
вво зĠ
би о
Шве цииĠ
Роспотреб надзо
Биз нес
'М неĠ
рассчиты ватьĠ
полу ченныеĠ
директо руĠ
О бра
Ки п
В Д
t .Ġ
' заĠ
сре днийĠ
она блюд
ма хи
гото вятсяĠ
Вы ясни
our n
199 6Ġ
с сер
право суди
посе ща
плате жейĠ
обеща лĠ
кило метров.Ġ
запрещен аĠ
Витали яĠ
16 .
экстреми з
цен тровĠ
с гово
е вымĠ
ге ографи
Суд ьяĠ
Лав ровĠ
Влади восто
'Петербург скийĠ
че го,Ġ
филь мовĠ
тек стеĠ
сс уĠ
департа мен
во м,Ġ
Бе ре
усили яĠ
у строитьĠ
у мĠ
профила к
пере верну
ос -
а раб
Ф .Ġ
щен ныйĠ
тиче скомĠ
спец на
мы 'Ġ
жа тĠ
га ши
о в.Ġ
мл н
использо валиĠ
в ход
банк ,Ġ
Центра льнойĠ
p h
'С та
' Пер
у год
ро п
проспек ту,Ġ
ле чеб
Ма тери
ЗС ДĠ
Га линаĠ
Адмиралтей скомĠ
то ра,Ġ
по бо
ли лиĠ
внеш не
бума гиĠ
борь баĠ
ба лко
Объ емĠ
обы гра
инициати ваĠ
Х ид
Буха ре
'Ан жи
си льногоĠ
раст етĠ
разработ кеĠ
ра вто
пре мон
офи саĠ
Ма не
транспор ти
процен тĠ
недо во
мест .Ġ
комите та.Ġ
за хĠ
бор наяĠ
Мерке льĠ
теля м.Ġ
по кой
новосте й'Ġ
наркоти ков.Ġ
договори тьсяĠ
д нымĠ
Евро пы,Ġ
Гу д
Ан ти
is s
шко лахĠ
част ныйĠ
по водомĠ
моде льĠ
второ муĠ
во ',Ġ
Санкт-Петербург ,Ġ
Про вер
e e
8 6Ġ
ью чер
ст нойĠ
се гмен
свобо ды,Ġ
поступа тьĠ
полков никаĠ
об лег
м ).Ġ
использо ванииĠ
ак тĠ
Нача льникĠ
8 2Ġ
сне гĠ
разме ститьĠ
раз ор
обосно ван
до ставля
веро я
10 .Ġ
участ никомĠ
пода ватьĠ
парламен та.Ġ
метро ,Ġ
застройщи кĠ
а лле
Роспотреб надзорĠ
Мут коĠ
Красносель скогоĠ
y o
10 0-
'О р
уч енияĠ
те |
спи скиĠ
ско смо
прекрас ноĠ
ох ла
комментиру яĠ
закончи лсяĠ
У люка
Л О,Ġ
И знача
a .Ġ
4 50Ġ
хоче тсяĠ
призна л,Ġ
инфля цияĠ
за кро
жела нииĠ
горо ду.Ġ
высо когоĠ
времен аĠ
Си туацияĠ
Порту гали
Ар хи
'Лен филь
ы '.Ġ
щ ения,Ġ
сла бо
пятер оĠ
пыта ласьĠ
представля тьĠ
откры лсяĠ
не кийĠ
ка вказ
й ?Ġ
аналоги чныйĠ
Щ ер
И де
ча со
распростра ни
призна ковĠ
пра вахĠ
к :Ġ
испыта нийĠ
доказа тьĠ
в ходаĠ
б ь
арти стĠ
адвока товĠ
Жи лищ
республи кеĠ
но с
ниц ы,Ġ
да вл
возмож ногоĠ
9 2Ġ
ти я,Ġ
повре жден
мора льногоĠ
лов скомĠ
большо мĠ
Че твер
ру куĠ
предме товĠ
предлага лиĠ
практи каĠ
много мĠ
материа лĠ
культу ры.Ġ
кри ча
за труд
а ку
сыгра тьĠ
состоя тсяĠ
ситуа циейĠ
оли гар
кар ье
к емĠ
А му
устано вленоĠ
сообща ется.Ġ
р ',Ġ
Н П
' Пре
сред ствамиĠ
сообщи тьĠ
серви саĠ
ожида ютĠ
молоде жнойĠ
креди тнойĠ
вклю ченыĠ
Ре шаетсяĠ
Купчи ноĠ
Герма ни
8 4Ġ
'О ниĠ
посе щенияĠ
оке ан
Ры ба
К ин
.com .Ġ
эвакуа цииĠ
раз решилиĠ
прогре ме
ня етсяĠ
м ла
ли ви
выступи лаĠ
высо тыĠ
аги та
Б ру
цен тромĠ
цен тро
свое образ
оцени ваютĠ
недвижимо сть
изви ни
за ва
ен ныйĠ
дости женияĠ
взыска нииĠ
Ме ж
Вади маĠ
Br entĠ
ш куĠ
фигуран товĠ
стоя лĠ
напа лĠ
креди таĠ
коммен тарииĠ
доказа тельстваĠ
Ку д
страхо войĠ
ради оĠ
ба на
По ло
свед ениямĠ
разработ куĠ
по гру
из да
за мо
Окса наĠ
О стро
'Спарта ка'Ġ
' Раз
ша й
происшестви я,Ġ
куп ю
ения м.Ġ
ду мыĠ
горя чуюĠ
ар хе
ш ар
рабо чегоĠ
пыт но,Ġ
обстанов каĠ
кри ми
заня тияĠ
законодатель ствомĠ
доче риĠ
вы водыĠ
О м
На ру
ция х,Ġ
ро ма
поло сыĠ
о ча
механиз мĠ
ла х,Ġ
зафикси ровалиĠ
заме тилиĠ
з да
з -
депута тов,Ġ
ве се
Следова телиĠ
чув ству
фана товĠ
само лe
ново стиĠ
круп ногоĠ
буль ва
энер гос
эксплу а
ы :Ġ
сооруж енийĠ
смен ыĠ
сказа ноĠ
рован ноеĠ
прием ле
православ нойĠ
не хва
место нахо
кар тĠ
Ба бу
' ЧтоĠ
хоро шиеĠ
федера льныеĠ
меся ц,Ġ
вл еĠ
ве сен
Т иму
Леони даĠ
Ка пита
р -
ко роб
экономи ческиеĠ
сереб ря
мн ение,Ġ
жи телей,Ġ
говор яĠ
Тимо щу
Оче ред
Ку ль
К об
1, 6Ġ
студен тыĠ
прави тьĠ
ограни читьĠ
налого платель
меч та
зако ну,Ġ
голов ногоĠ
Пресс- секретарьĠ
' КогдаĠ
ше лсяĠ
ти з
сро к.Ġ
ско в,Ġ
с му
про вали
приступи лиĠ
праз д
основ наяĠ
много еĠ
инте гра
бель ги
Жер т
Ди кĠ
собор аĠ
ру ется,Ġ
региона льнойĠ
прошед шиеĠ
отправи тсяĠ
ме ры,Ġ
концеп цииĠ
конкре тныеĠ
запад нойĠ
болельщи киĠ
СК .Ġ
Калинин гра
А м
Bloo m
13 -
руб льĠ
ров :Ġ
пер вен
п .
корреспонден томĠ
кон тен
к ен
и стин
ется ',Ġ
Яков ле
Е же
c hĠ
9 6Ġ
'Бал т
спи со
ски м,Ġ
р e
поки нулиĠ
перио даĠ
на конец,Ġ
луч ше,Ġ
ло тере
име яĠ
вопро с:Ġ
Сообща ется,Ġ
5 5
увиде лĠ
тяже стиĠ
сла ви
ограни ченийĠ
ков ',Ġ
ко выеĠ
ада п
Поро шен
Й е
Дмитри емĠ
хи щениеĠ
трудо войĠ
призна наĠ
началь никомĠ
ко го-тоĠ
ка премон
за казаĠ
гото вятĠ
государствен номĠ
времен ныеĠ
7 3Ġ
смо тря
питер скогоĠ
пер ви
намер еноĠ
ма маĠ
ди зе
возгора ниеĠ
брон зо
че .Ġ
то ров.Ġ
отнош енияхĠ
ок ла
мастер -
возобно ви
вза им
4 0-
про вай
приобре лĠ
поле тыĠ
ор аĠ
гар ни
Д жи
ф ур
ски й'.Ġ
пассажи раĠ
лете тьĠ
клу ба,Ġ
десят каĠ
При меча
экс пресса
штра фа
серьез ныйĠ
рабочи йĠ
приве лаĠ
лиц еĠ
ен ко,Ġ
буль вар
бра тĠ
Бо га
те маĠ
противоре читĠ
органи зу
обращ енийĠ
ль ',Ġ
крат ко
дан нуюĠ
возбу жденыĠ
Э то,Ġ
Му зы
Анаста сияĠ
it yĠ
ша .Ġ
ш- Боа
уров немĠ
уби лĠ
се леĠ
процентов |
проведен ныхĠ
при ча
представи телямĠ
мл ениеĠ
мероприяти я.Ġ
кажды мĠ
дву сторон
внутрен нейĠ
вак ци
Подроб нееĠ
К БĠ
тер ,Ġ
секто раĠ
раз илиĠ
пу скĠ
призыва етĠ
помога етĠ
повлек шееĠ
вер нетсяĠ
ба хĠ
Минфи нĠ
Ма лы
Законо проектĠ
18 -
-на- Дон
устано влениеĠ
торго выеĠ
пла новĠ
оди н
о забо
за служи
д .
га раж
выигра лаĠ
виде лĠ
аналоги чнымĠ
проведен ногоĠ
приста вовĠ
лай зи
У стано
Мака ровĠ
Bloom ber
тури стов,Ġ
техниче скийĠ
смер т
обязан ностейĠ
госпо динĠ
судеб ныйĠ
прине сĠ
нен ныхĠ
лет чи
вы ехалиĠ
ар т-
Центро банкĠ
Та ра
Ра сс
Плю щенкоĠ
Му ра
Ге ро
199 4Ġ
тя тсяĠ
спортив нойĠ
сомо ль
санитар но-
рован нымĠ
популяр ныхĠ
не определен
май орĠ
ма сси
вы шед
t ,Ġ
футболи стовĠ
услови ямĠ
т ка
пострада ли.Ġ
под ведом
пов стан
от правленĠ
обсужда тьĠ
и ллю
визи тĠ
ви ,Ġ
взаимо действияĠ
центра .Ġ
ры мĠ
по стоя
ниче скойĠ
й де
де кора
глав наяĠ
али мен
Ва мĠ
20 ,Ġ
эксперти заĠ
установлен ныхĠ
угрожа яĠ
у строен
пострада вшиеĠ
по следо
каких -тоĠ
задержа лĠ
докумен ты.Ġ
во к.Ġ
Норве ги
Вилла ш-Боа
S h
9 0-хĠ
пси хот
отстав киĠ
обще м,Ġ
народ ныйĠ
жд ение.Ġ
виде онаблюд
Л ин
( доĠ
транс ли
прияти еĠ
приобре тен
предъяви тьĠ
оформи тьĠ
маши но
кра жеĠ
заверши лсяĠ
за веду
глаза хĠ
ва вшийĠ
Уголов ногоĠ
О га
'Пассажи равто
эк зем
ф ьючер
структу рĠ
публи чноĠ
кон вер
заклю читьĠ
ви ныĠ
У Б
К )Ġ
установлен ныйĠ
с бро
нау кĠ
нару шаетĠ
ми яĠ
коммуна льнойĠ
вир туаль
би й
акционе ровĠ
Ди а
язы кĠ
сни м
свидетель ствуетĠ
пра й
пер ь,Ġ
напомни лĠ
мен дан
кана леĠ
жду юĠ
действи тельно,Ġ
вы р
ве сомĠ
Т били
a b
ь '.Ġ
фе тами
ува жа
сотрудни ков,Ġ
совеща нияĠ
рынк е.Ġ
ров ноĠ
пробле мы.Ġ
насиль ственныеĠ
зо рĠ
фило со
способ ствоватьĠ
сосредо то
со товойĠ
ров 'Ġ
прошло год
погибли ,Ġ
ла м,Ġ
зако на.Ġ
би ографи
Чита телиĠ
Кан дида
поступа ло.Ġ
о се
называ етĠ
задержа н.Ġ
верну лисьĠ
Замести тельĠ
З ю
це ,Ġ
тиче скоеĠ
напра вленаĠ
защит никовĠ
демон стран
верси и,Ġ
абонен товĠ
Ростов скойĠ
Рабо таĠ
экс пресс
тор .Ġ
материа лахĠ
кон центра
ву заĠ
Те х
Ки че
Ан ге
'Б ан
яр мар
транспор тĠ
те ро
строитель наяĠ
соответству ютĠ
сове та,Ġ
силови киĠ
рестора наĠ
парламен теĠ
насе лениеĠ
вокза леĠ
Сен а
ДТ П.Ġ
Гри гор
Бо гда
рез ю
поясня етĠ
пере ры
откры томĠ
обра титьĠ
нар кома
машин .Ġ
конструк цийĠ
кар тин
ка п
годо в.Ġ
воен номĠ
Со единен
Д ер
шко лы,Ġ
член амĠ
улиц ы.Ġ
тяж кихĠ
соб ак
потерпе вшихĠ
нор мĠ
но ви
и ногоĠ
е -либоĠ
анали зĠ
З о
p er
реконструк цияĠ
милли она
магази нахĠ
кре й
косми ческогоĠ
Коми ссияĠ
8 8Ġ
17 0Ġ
( например,Ġ
отстав кеĠ
му сяĠ
кварти рахĠ
ка мерыĠ
исклю читьĠ
емо вĠ
ба яĠ
Петропав ловскойĠ
Нача лоĠ
ГУВ Д,Ġ
7 1Ġ
услу г.Ġ
та )Ġ
сдело кĠ
пропа лĠ
осуществ ленияĠ
менедже рĠ
машин ,Ġ
все .Ġ
На вер
Ка та
Inter n
совершен ство
се раĠ
пресс-рели зеĠ
м скийĠ
Ле й
Ком плек
уведо ми
си лу.Ġ
ремон туĠ
обществен но-
ме дĠ
май да
ль ко,Ġ
ку ли
констру кто
выпол ни
выда ватьĠ
бр ю
Н ар
Авари яĠ
'Би лай
чи йĠ
привле ченииĠ
пор ту
олимпий скогоĠ
национа ль
нане слиĠ
ма ли
использу яĠ
женщи на.Ġ
до зна
вос станавли
Са маĠ
С рокĠ
Л ГБ
ч ени
разъ ясни
предъя вленыĠ
мир ныхĠ
кандида томĠ
иностран нымĠ
доро ги,Ġ
Хельсин киĠ
уполномочен ногоĠ
би атло
Агент ствоĠ
Pres s.Ġ
1, 8Ġ
' завтра
ющи х.Ġ
уку си
ска з
сине-бело-голубы хĠ
поддержи ваютĠ
площад куĠ
номина цииĠ
ници а
не слиĠ
науч ныхĠ
лли ву
Ин ди
ЖК ХĠ
ш .Ġ
х ру
футбо лаĠ
ск ри
свиде телейĠ
ид eтĠ
С че
Изнача льноĠ
' Чер
управля ющейĠ
ту ры,Ġ
то логи
столиц ы,Ġ
потенциаль ныхĠ
основ уĠ
га ми.Ġ
Х ор
Ва сĠ
уточня ется.Ġ
ски й',Ġ
рассказа тьĠ
пострада вшийĠ
ность ',Ġ
ми наĠ
П Р
Крас нойĠ
эвакуи рованыĠ
уголов нымĠ
схе мыĠ
соревно ванийĠ
се риюĠ
па ру
п ,Ġ
догово руĠ
На помни
Е лен
экзем пля
тель скойĠ
ски е,Ġ
сво й
ни н.Ġ
м ныхĠ
лова ки
й ныхĠ
жи дко
г '.Ġ
взи ма
ветери нар
С .
По нома
Гри бое
связ ямĠ
рен о
предложен оĠ
орга нах,Ġ
объя сн
о та
ме те
лон до
клиен тамĠ
ино маркиĠ
ди сло
'Зени ту'Ġ
у сĠ
ти ',Ġ
стоя лиĠ
систе мы,Ġ
реставра цииĠ
пообеща лиĠ
не ко
километр еĠ
ин станцииĠ
го выйĠ
Кор респонден
Е С,Ġ
теб яĠ
следова теляĠ
иде аль
журналиста миĠ
дра киĠ
воз растĠ
Де вуш
увиде лиĠ
спортив ныеĠ
соревно ванияĠ
сна ря
обы скиĠ
неизвест но,Ġ
написа тьĠ
ко опера
вра чейĠ
Ф ри
Зло умышлен
16 ,
ье т
ф то
тра кто
спортив ногоĠ
присут ствииĠ
предупре ди
му же
действи й,Ġ
вылете тьĠ
Ж Д
экономи каĠ
указа нногоĠ
собствен ныйĠ
профессиона льныхĠ
е дутĠ
вы би
З ин
Ви т
сало нĠ
с хва
рас су
при ходятĠ
похи щенииĠ
п л.Ġ
обла даетĠ
мо да
ла ми,Ġ
коммуна льныеĠ
Су воров
Национа льногоĠ
10 0процентовĠ
тури змаĠ
сотрудни комĠ
поле таĠ
вен ти
ван да
административ ныеĠ
Ленинград скогоĠ
199 3Ġ
стрель быĠ
найден оĠ
мест ,Ġ
з иĠ
Соб я
П МЭ
Ла дож
Макси ма
1, 7Ġ
юриди ческогоĠ
проводи лисьĠ
пассажир скогоĠ
обвиня емы
ми тро
жен нойĠ
Александ ро
N or
ха ла
лич нымĠ
зарегистри рованныхĠ
за поведни
ван ,Ġ
бежен цевĠ
б иĠ
Киров скийĠ
9 8Ġ
'Води телеĠ
у братьĠ
столкнов ениеĠ
ре ше
комплек совĠ
колле ги
защи щатьĠ
вери тьĠ
d p
15 ,Ġ
у ходитĠ
тов '.Ġ
свето фо
пропаганд ыĠ
превы силĠ
похи ти
перво нача
доро гаĠ
У И
Пред вари
Д ву
Б род
'Рус скийĠ
' Пере
при везлиĠ
пада етĠ
компью те
в ныйĠ
бере тĠ
Ми р
ссе .Ġ
согласи лисьĠ
она ль
бере говĠ
УЕ ФА
установлен ныеĠ
сель скогоĠ
сдела лаĠ
па раĠ
откры тыхĠ
особо гоĠ
меся ца,Ġ
инициатив ыĠ
заклю ченныхĠ
за ды
взве шенныйĠ
бо раĠ
( М
щ иĠ
привати зацииĠ
подписа нияĠ
незакон ныйĠ
любы хĠ
ли гиĠ
выне сенĠ
авто раĠ
Фа й
199 7Ġ
ч ностиĠ
ст ятĠ
брига даĠ
Вра чиĠ
8 3Ġ
ше вĠ
челове куĠ
собра нииĠ
откры таĠ
обществен ностиĠ
ан ну
Шу ша
Моск ву,Ġ
Да вы
учи ли
увеличи лсяĠ
телеф онаĠ
сфер ыĠ
оцени лиĠ
миллиар дĠ
Со коло
Олимпиад ыĠ
Ло мбер
XI XĠ
эф фици
пунк теĠ
задержа нныеĠ
ж юриĠ
ж 'Ġ
администра циейĠ
Са миĠ
О днимĠ
Ка ла
4 0процентовĠ
'Ф о
ту ар
по ступл
обя зыва
обнаружи лаĠ
о кажетсяĠ
ле раĠ
запу скаĠ
ди стан
дела лиĠ
года х.Ġ
броси лиĠ
Та мож
Ломбер т
ЖК Х
эффици ен
четвер тыйĠ
че м-тоĠ
устрой ствĠ
се сси
постоян нойĠ
по ступленияĠ
останов киĠ
ней тра
законодатель ства,Ġ
грани цĠ
б ре.Ġ
аэрод ро
атом нойĠ
административ ноеĠ
автомоби лемĠ
Г М
| По
an k
'Пулко во'Ġ
талан тли
све ти
провер ки,Ġ
по ры
органи з
кинемато графи
инвали довĠ
выбо ров.Ġ
К БД
це пи
тща тельноĠ
серви сĠ
пу т
пору чениеĠ
неболь шиеĠ
емо стьĠ
благотвори тельныйĠ
Ш ен
Ту тĠ
Да лееĠ
референ дума
отсут ствиемĠ
орга нах.Ġ
карти наĠ
интеллек туаль
во '.Ġ
У р
Татар ста
New s.Ġ
сче товĠ
себ я.Ġ
причи нуĠ
не соглас
кан ц
жизн ь.Ġ
жду ,Ġ
да тыĠ
голо сĠ
бу юĠ
Се м
РА НĠ
y .Ġ
'В ыĠ
се мина
место мĠ
ло м,Ġ
Петербур жецĠ
Олимпиа деĠ
Ки тай
e lĠ
25 процентовĠ
1 ',Ġ
сторо ны.Ġ
пунк тахĠ
при каз
превра ти
п лениеĠ
озна комитьсяĠ
нен аĠ
конструк цииĠ
ка зи
Ско лькоĠ
тру ди
созда етĠ
район номĠ
профессиона льнойĠ
пода рокĠ
оспо ритьĠ
дежур нуюĠ
гипер марке
вступи тĠ
в ста
буду щееĠ
Соответству ющийĠ
эпидеми ологи
футболи стĠ
форма льноĠ
техниче скимĠ
тамож ниĠ
путе йĠ
марке тин
автомоби ля.Ġ
Ма ло
New sĠ
'По ч
тин скойĠ
сса мбле
подписа ноĠ
мета лло
возбу дилаĠ
влен наяĠ
Пути нымĠ
За вер
Доб ро
так :Ġ
структу раĠ
систе мойĠ
рефор мыĠ
кар точ
дости глаĠ
г .
выпу скĠ
16 2Ġ
'Зени т'.Ġ
смо трĠ
ра дыĠ
не желиĠ
ма раĠ
и. о.Ġ
автобу сыĠ
Кова ле
Егип теĠ
16 -
'А л
тре тиĠ
ст еныĠ
предположи ть,Ġ
поряд ке,Ġ
недвижимо сти,Ġ
е ?Ġ
ча сти.Ġ
футболь ныйĠ
украин скийĠ
са х,Ġ
ко ',Ġ
ин касса
задержа ниеĠ
верто летаĠ
в ни
Мин тран
Ла х
S .Ġ
D o
'К ре
це сси
содержи тĠ
прода жаĠ
определ енияĠ
ня ютĠ
нов ен
н ения,Ġ
мошенниче ствоĠ
верну лиĠ
Пушки неĠ
Зы ря
строй куĠ
лиш ениеĠ
личе нĠ
влен о.Ġ
Кон цер
Глу щенкоĠ
Арка дийĠ
'Локо мотив
судь беĠ
сту ,Ġ
по ту
отста и
набереж ной,Ġ
глав ное,Ġ
выез дĠ
вско го,Ġ
Го ли
ГИБД Д.Ġ
хи нĠ
ссе ,Ġ
служеб ныхĠ
сино пти
повлия тьĠ
истори ческойĠ
воен нымĠ
Со ро
Н обе
Де мен
i an
у шлиĠ
три дца
раз гла
програм мы,Ġ
поясни лаĠ
очеред ноеĠ
опла титьĠ
о ре
высо тойĠ
Жи тельĠ
'Са п
ч ьюĠ
помощ ь,Ġ
подпи скуĠ
отдель ноĠ
оне р
обнару женияĠ
кварти р,Ġ
инфля цииĠ
По терпе
Microsof tĠ
3 :
'Б ар
франц у
суме лĠ
ско ромĠ
об лом
не состоя
муль ти
зна комĠ
арен до
ar dĠ
у трен
психот роп
оши бо
опла чи
зна тьĠ
же гоĠ
шо у
уров не.Ġ
т ки.Ġ
продук ции.Ġ
превы ша
контро лемĠ
коно ми
жиль я,Ġ
га ми,Ġ
'Ок тябрь
ще йсяĠ
проходи лаĠ
при су
мигра ционнойĠ
и спор
го ссе
вы ехалĠ
Сим феро
-лет нимĠ
'То й
та бе
ро ман
про ща
кризи са.Ġ
кварти р.Ġ
вторы мĠ
Д нюĠ
H e
4 -гоĠ
'завтра 'Ġ
ф ли
терак товĠ
перево зи
на примерĠ
изба ви
живо пи
дорого стоя
г ли.Ġ
Т уни
Евро пы
А нали
стату сеĠ
соблюд ениеĠ
ред .)Ġ
подо р
петербурж цамĠ
отправи тьсяĠ
лу мби
кругло суточ
зали ваĠ
вероят ностьĠ
Ста мбу
Не т,Ġ
Моск ву.Ġ
Кали фор
ЕГ Э
47new s.Ġ
1, 4Ġ
фамили иĠ
стать ейĠ
скоро стьюĠ
при зĠ
осно ваниемĠ
ло м.Ġ
заяви в,Ġ
зарегистри рованĠ
жд ы,Ġ
е л
Е леныĠ
'П ор
учре ждениеĠ
спон со
се веро
подраз уме
карти нуĠ
К вар
17 .
увеличи ласьĠ
трав муĠ
рост уĠ
при зе
пострада вшегоĠ
оказыва етсяĠ
объек тов.Ġ
называ емыйĠ
кре с
клу б
ис чер
градо началь
Эр дога
сыгра лĠ
случа юĠ
с ну
пра вя
плен ар
необходи мымĠ
докумен та,Ġ
A m
'На мĠ
'Г руп
устрои лĠ
ти я.Ġ
так си
социаль ноĠ
ри кĠ
расследо ваниюĠ
прове ри
призна лся,Ġ
объек тахĠ
мате мати
д чи
гос служа
аресто ваныĠ
актив ноеĠ
Мин здра
'Во л
установи лĠ
тяже лоĠ
тин гĠ
стра жуĠ
следствен номĠ
рован нуюĠ
район ыĠ
при грози
партне ровĠ
музе еĠ
ме сторо
капита лĠ
Владими ро
( какĠ
тель ство
совет никĠ
слуша тьĠ
с экономи
ру ющиеĠ
ров скойĠ
по ва
плани ровалиĠ
обла сть
кре а
до веря
выясни ть,Ġ
Ма го
'Зени т',Ġ
об усло
на пол
лиц амиĠ
Сред не
2 -гоĠ
чер да
публи чныхĠ
па у
ма нев
ля 'Ġ
иностран ногоĠ
за братьĠ
В ЦИ
i e
чен нымĠ
це ваĠ
цве таĠ
служеб ногоĠ
поку шенияĠ
п нев
не от
мен коĠ
ло т
готови тьĠ
Ро скосмо
Аб ду
центр ,Ġ
проис ходятĠ
проверя тьĠ
орга намĠ
избира телей,Ġ
закон ностиĠ
завери лĠ
жен ногоĠ
го еĠ
го '.Ġ
внеш нейĠ
боль ныхĠ
О конча
Герма нии.Ġ
a tĠ
я нĠ
чинов никаĠ
ци фи
раз бор
нор маĠ
ни м,Ġ
мо егоĠ
и ду
договорен ностиĠ
де цĠ
де ле,Ġ
Подозрева емыйĠ
тури стыĠ
то выхĠ
пусти лаĠ
го м.Ġ
автомоби ль,Ġ
Медведе в,Ġ
Любо пытно,Ġ
устанавли ваютĠ
узна лиĠ
тран с'Ġ
спец операцииĠ
сохран ениеĠ
со тĠ
но ра
капита льныйĠ
ка с
к м
из бир
вклю читьĠ
Цен три
Ко ле
И нициа
'Сво бо
угро заĠ
пропа вшегоĠ
посе тилĠ
опро саĠ
да туĠ
влия нияĠ
Василь еваĠ
'Т ЭК
цело м,Ġ
фор маĠ
устра нитьĠ
со ж
подтвер жденияĠ
ка ждуюĠ
голов ыĠ
вой тиĠ
во дойĠ
Фонтан киĠ
Тре ть
Нур гали
Мино бр
День гиĠ
o ,Ġ
ш око
субси ди
проси лаĠ
подрост ковĠ
независи моĠ
москов скийĠ
ме далиĠ
матиче скийĠ
ма три
за страхо
а й
Сотрудни кĠ
Пушки н
Н ТВ
ИК МОĠ
'Газета. ру'.Ġ
' при
соб людатьĠ
кра еĠ
ем ',Ġ
вы 'Ġ
ави али
С В
Основ нойĠ
199 5Ġ
' пере
хо в.Ġ
поли циейĠ
побереж ьяĠ
парламен тарииĠ
осмо тре
ми -
издани е,Ġ
доказатель ствĠ
Выясни лось,Ġ
5 -гоĠ
'Мо ло
торгово -
тель скиеĠ
пред ска
парламен тскихĠ
пала таĠ
отли чаетсяĠ
закончи ласьĠ
добро вольноĠ
дет скомĠ
го ди
Результа тыĠ
Петербурж цыĠ
an g
M er
экономи ки,Ġ
холдин гĠ
съез деĠ
схе меĠ
р ту
противо действияĠ
ото пл
н eмĠ
контра бан
коммер сан
изуч енияĠ
ж e
генера льнымĠ
бан ков,Ġ
Ингуше тииĠ
8 7Ġ
' НевскогоĠ
я т,Ġ
смыс лĠ
с м.Ġ
ран ениеĠ
перспектив еĠ
оформл ениеĠ
обо зна
креди тыĠ
источник ,Ġ
е т',Ġ
возме з
аресто валиĠ
Гера си
обрати лĠ
но м'Ġ
м |ВĠ
ито говĠ
зво нокĠ
На пада
To yo
разме щен
медицин скаяĠ
дер ыĠ
вы вестиĠ
Рез никĠ
Ли вииĠ
Кон сер
I C
стра жу.Ġ
сек су
са ми.Ġ
предполага емогоĠ
подозрева емыеĠ
зада чĠ
за трудни
автомоби ля,Ġ
Проку ро
тюрь мыĠ
подроб ноĠ
опублико ванномĠ
дру зейĠ
вра чаĠ
Не движи
ционе рыĠ
теле м.Ġ
су тиĠ
нов скогоĠ
ников 'Ġ
t oĠ
тирова ныĠ
стар туетĠ
смер ти.Ġ
руковод я
при лож
по в,Ġ
ото пи
ком проми
ке '.Ġ
день ги
Опера тив
сред ства.Ġ
ра :Ġ
поздра вилĠ
победи телемĠ
называ емойĠ
ка ран
действи я.Ġ
де тьĠ
Сегод ня,Ġ
П рак
указа лĠ
следу ющихĠ
под нятьĠ
наз валаĠ
из обре
из вле
высо таĠ
выпла чи
анти кризи
Саака швилиĠ
установлен ногоĠ
указа ноĠ
указа нныеĠ
скорост нойĠ
подели лсяĠ
погиб ,Ġ
от боро
ны м'Ġ
нен ногоĠ
луч ше
доби ватьсяĠ
в следĠ
би у
актив ыĠ
Э н
У правл
экстреми стскойĠ
след ыĠ
результа томĠ
ре ваĠ
рассчиты ваетĠ
прове ро
причи нахĠ
охран уĠ
здани е,Ġ
за гру
демокра ти
ге о
Фе доро
Клин тонĠ
ш ер
ходи лаĠ
таможен ногоĠ
сказа л:Ġ
поле товĠ
откло нилĠ
комисси и.Ġ
извест нойĠ
эксперти зуĠ
чу .Ġ
тив нуюĠ
тех никаĠ
рова ть.Ġ
па тен
максиму мĠ
лю ди.Ġ
л лĠ
команд ы,Ġ
зор аĠ
ез дитьĠ
У читы
Санкт-Петербург 'Ġ
Кудри нĠ
Генна дияĠ
7 9Ġ
струк тури
сегодня .Ġ
ры ба
рейтин гаĠ
р э
исполнитель ныйĠ
домо й.Ġ
возгла витьĠ
бу н
би нĠ
Э д
Республи кеĠ
Р )Ġ
Восточ нойĠ
Вер аĠ
Ав стри
201 1-
се до
самми таĠ
реали зацияĠ
образ у
контро люĠ
име ютсяĠ
д жиĠ
верто летĠ
Виде оĠ
Васили яĠ
17 ,
'О боро
ц ко
устанавли ваетсяĠ
у ез
сс .Ġ
сро к,Ġ
спор та,Ġ
ро воч
рассказа ла,Ġ
ран же
опас ностьĠ
контрак товĠ
ен ко.Ġ
доро гойĠ
до жда
Ч емĠ
Центра льныйĠ
ФС Б,Ġ
ФР ГĠ
Ма рииĠ
Ку бокĠ
БК ЗĠ
цион но-
церков ьĠ
улиц ы,Ġ
та го
солда тĠ
патру ли
называ емыхĠ
заня тьсяĠ
возме щенияĠ
в ъ
П ря
ОО Н,Ġ
30 0-
'А т
энергети кеĠ
эк ви
собира лисьĠ
ну ю.Ġ
мест нымĠ
капита наĠ
ен а
внутрен негоĠ
Но ви
Л евĠ
I P
F in
'До жд
написа лиĠ
мо ну
валю тнойĠ
Ре бен
Ради оĠ
учиты ваяĠ
приня таĠ
преимуще ственноĠ
инспе кторĠ
женщи н,Ġ
действи ямиĠ
З даниеĠ
Буда пеш
s b
as h
умышлен ноеĠ
указа ниеĠ
слу ши
следствен ноеĠ
позволя тĠ
отече ственныхĠ
Ц Р
Феми дыĠ
Примор скийĠ
Ко ма
К лич
К 'Ġ
' ИĠ
утвер жденияĠ
театра .Ġ
стра намиĠ
сторон никиĠ
раз вра
одно сторон
не избе
магни ту
магазин ыĠ
инвести циямĠ
га нĠ
бомбарди ров
Учены еĠ
СН ГĠ
Ле ви
тури ен
тре щи
субъек таĠ
созда ныĠ
со чи
снима тьĠ
серь eз
разгово раĠ
жела ющиеĠ
возбу жденияĠ
би туриен
Авто рыĠ
обли га
м пера
и х.Ġ
Полтав ченко,Ġ
Но войĠ
Зю га
Даль невосточ
Вто раяĠ
20 .Ġ
подо шелĠ
объяви тьĠ
ко эффициен
использу ютсяĠ
дру ж
г де,Ġ
Ш ан
Дж он
'С ко
тив нымĠ
прось буĠ
проведен нойĠ
основ ном,Ġ
объясни тьĠ
накану не,Ġ
ле 'Ġ
зи рованныхĠ
электро энергииĠ
поса до
поврежд енийĠ
клю зи
клиен тыĠ
кабине таĠ
запре тилĠ
го выхĠ
выя вленоĠ
Саудов скойĠ
8 1Ġ
'Локо моти
э р
хо войĠ
устанавли ваетĠ
спектак ляĠ
са |
ру яĠ
развити я.Ġ
профсою зовĠ
предъяви лиĠ
от мы
зде сь.Ġ
заявля етĠ
ауди о
Ф МСĠ
Са мар
И гна
француз скогоĠ
специаль наяĠ
сове теĠ
прош лыйĠ
метра ,Ġ
избира тельногоĠ
во деĠ
бюдже туĠ
То ма
Спе циаль
Л .Ġ
центр 'Ġ
стар бай
сопрово жденииĠ
озна чаетĠ
оди ноч
не '.Ġ
митин гу
зало гĠ
де жу
взрос лыхĠ
ам би
С ловаки
це лейĠ
ры б
перевозо кĠ
отде ломĠ
ни кова,Ġ
м |Ġ
ку ю
ду м
Х удо
Побе ди
Кор не
1 '.Ġ
( Ф
хо ваĠ
совмест нойĠ
G u
5 ,5Ġ
ства ми,Ġ
сда ватьĠ
ры еĠ
продли тьĠ
на зыватьĠ
когда -тоĠ
заболе ванияĠ
домаш нийĠ
де ти,Ġ
да яĠ
важ ней
экви вален
сня лĠ
скорост ногоĠ
рус скомуĠ
про анали
госсе кре
выс шихĠ
Авто бу
18 ,
то вогоĠ
сообща ют,Ġ
проверя ютĠ
применя тьĠ
при ю
прекра ти
откры ваетсяĠ
об ши
назна читьĠ
заявля ют,Ġ
ение |
Де ри
A F
чис ленияĠ
съ емо
супру гиĠ
россиян .Ġ
переда нĠ
запу скĠ
жд ение,Ġ
Ин дииĠ
чест ноĠ
устанавли ватьĠ
тан це
рус скомĠ
р скийĠ
ни ямĠ
над лежа
игро каĠ
го в
вопро сомĠ
воин скойĠ
ве ка.Ġ
По те
ИТАР- ТАСС,Ġ
х и,Ġ
ту ютĠ
снего па
с цени
приходи лосьĠ
праздно ванияĠ
па ти
лич ноеĠ
и скомĠ
земе льныйĠ
за город
Центри збир
Сове теĠ
Р от
Псков скойĠ
'Т ре
цен ныхĠ
установи ли,Ġ
план ше
остро ва,Ġ
опла чиватьĠ
несколь кимиĠ
на ка
модерни зацииĠ
кос ну
заявля лĠ
боеви киĠ
ак те
Со чи.Ġ
у чен
у споко
счита лиĠ
строй кеĠ
истори ческийĠ
интерне теĠ
гото вя
О Ж
200 9
че еĠ
уби лиĠ
сло ву,Ġ
прода лĠ
про игры
материа ламиĠ
заня лиĠ
добави лаĠ
бу кси
Сою зĠ
Встре чаĠ
Grou pĠ
'С бер
щу юсяĠ
тар яĠ
ситуа цию.Ġ
религиоз ныхĠ
расши ря
происходи лоĠ
пи ше
ми руĠ
закон ыĠ
за казĠ
говори ть,Ġ
вариан тыĠ
ОБС ЕĠ
200 8-
то рамиĠ
телеф она
состав ленĠ
предме тыĠ
подтверди лаĠ
но вей
назна ченаĠ
застройщи каĠ
занима лисьĠ
Ин вест
Го ре
ВМ СĠ
B M
6 0-
театра ,Ġ
сту ри
рекоменда цииĠ
н '.Ġ
закон ныхĠ
жа мĠ
голосо ватьĠ
гла заĠ
У ча
Ра ши
W in
) :Ġ
указа но,Ġ
тео ре
смен аĠ
сканда лĠ
с раз
подтвер жден
писа лĠ
знакомы йĠ
ен нойĠ
двига тьсяĠ
дан нымиĠ
внеш нихĠ
венти ля
Ко зло
o .Ġ
существу ющихĠ
ра нее.Ġ
пре ссĠ
получи лоĠ
организо валĠ
объясня ютĠ
аппара теĠ
Н ТВĠ
1 11Ġ
стро гоĠ
слож но.Ġ
ра тор
проце ссо
пробле ма
превы шатьĠ
по являетсяĠ
одно имен
назна чениеĠ
му ля
мене дж
ин вен
ж но-
ву тĠ
возду хĠ
баталь онаĠ
автома тическиĠ
Лени наĠ
Й о
Ан ныĠ
челове ка
футболи стыĠ
турни рĠ
те тĠ
скры лся.Ġ
рен аĠ
про ры
полага ютĠ
митин геĠ
контра фак
использо ватьсяĠ
изы ска
ак тераĠ
Сер ви
Л ы
Е фи
сти ческихĠ
соста вятĠ
с но,Ġ
распространя етсяĠ
по ваĠ
пере рабаты
занима ютĠ
дво рецĠ
арми яĠ
ФС Б.Ġ
По ля
Петро завод
Пе т
ши .Ġ
тю рем
реаль ногоĠ
проводи лĠ
петербурж цев,Ġ
ме три
здоров ьеĠ
важ нымĠ
ба заĠ
Су ще
По стано
Москов скомуĠ
T E
ье в,Ġ
скор пора
ско хозяй
пло хи
ка нализа
говори ли,Ġ
ад мира
Моло дойĠ
установ куĠ
прокурату ре.Ġ
покол енияĠ
по годаĠ
опе ру
нац бо
на вы
зафикси рованĠ
вши сь,Ġ
При мерноĠ
це ли
хозя и
то т,Ġ
с нуюĠ
поле .Ġ
пи тьĠ
обеща лиĠ
незакон ныхĠ
млр д,Ġ
кварти ру,Ġ
изби лĠ
высо теĠ
вы разилиĠ
ва ют.Ġ
С ти
Кон дра
'Т ГК-
транспор тныеĠ
право защи
политиче скийĠ
подряд чикаĠ
по ля
от четĠ
о знаком
ни ки
нен ад
не сетĠ
не ра
наб .Ġ
лен .Ġ
космо нав
дру га
ак ции.Ġ
Ни же
Дру гойĠ
N AS
'Т ор
числен ностиĠ
то к
спас лиĠ
систе мы.Ġ
ре пети
провед ениемĠ
предска зу
ность 'Ġ
гале ре
выда чеĠ
бесе деĠ
Шой гуĠ
То ки
храни ли
ут бу
у |
та ).Ġ
совет скогоĠ
рестора неĠ
поддерж каĠ
под дел
метр ыĠ
люд ям,Ġ
ло гĠ
игра лиĠ
бло каĠ
Про це
Ко за
'Но ваяĠ
чь егоĠ
ст киĠ
проведен оĠ
перво муĠ
паке таĠ
конкур снойĠ
без визо
Тюльпа новĠ
Сто л
Про тивĠ
Обу ховскойĠ
щ ения.Ġ
цен три
ца м,Ġ
он кологи
дан ные,Ġ
влен нуюĠ
Ф ло
ч леж
самопровозгла шеннойĠ
проис шед
отказыва етсяĠ
объеди нениеĠ
кали б
гин .Ġ
Совет скогоĠ
язы каĠ
строи тсяĠ
стратеги ческихĠ
симу ще
напра вленныхĠ
н град
магниту дойĠ
дело вогоĠ
голосо в.Ġ
Са ло
9 3Ġ
тяже лойĠ
рус скиеĠ
попро бо
нов :Ġ
медицин скиеĠ
коммер ческиеĠ
ков скийĠ
кален дар
зафикси рованыĠ
граду сов,Ġ
возника етĠ
О казалось,Ġ
me te
уве злиĠ
совершен ныхĠ
ро вания,Ġ
реб eн
про информи
приез даĠ
потреб ленияĠ
по вез
персона лаĠ
называ емогоĠ
мини -
ко лĠ
ис ь
до лейĠ
вод ныхĠ
ближай шемĠ
Яро сла
М .
четвер тогоĠ
страхо выхĠ
нынеш немĠ
ка каяĠ
же т,Ġ
е юĠ
д рев
Бель гииĠ
хи наĠ
характер .Ġ
прочи хĠ
показа нийĠ
ни м.Ġ
направл ениеĠ
заявля ютĠ
да чиĠ
во прекиĠ
введен ыĠ
Ставро поль
Rio tĠ
' ПослеĠ
' ',Ġ
современ ныеĠ
скры лсяĠ
пассажир скихĠ
от пустилиĠ
надца тьĠ
ла х.Ġ
кон фе
кабине теĠ
к ноп
игро кĠ
возгла витĠ
возбужден ногоĠ
Фе стива
Нава льно
За ме
ци кли
реклам ныхĠ
разви ва
раз уме
от слежи
ново й,Ġ
мы ',Ġ
количе ствомĠ
же кĠ
дирек цииĠ
го м,Ġ
выс шейĠ
бли зĠ
ак креди
Ком мен
Зе лено
В последствииĠ
ш ки,Ġ
супер марке
пере работ
орга ны.Ġ
огром ноеĠ
ограни ч
находящи есяĠ
кру шениеĠ
й нойĠ
и нымĠ
злоумышлен никĠ
жа тьсяĠ
4 2
ребя таĠ
оперативно-разы скныхĠ
объя вленияĠ
нужда етсяĠ
мень ше.Ġ
людь миĠ
да чаĠ
вы бралиĠ
аукци онĠ
анну ли
У став
Кон тро
Арген ти
D A
6 ,5Ġ
су дей
строи телиĠ
ры |
претен доватьĠ
пра войĠ
пересе ченияĠ
обвин ения.Ġ
нача тьсяĠ
муль т
материа ламĠ
кажу тсяĠ
ка ссо
зер жин
за работатьĠ
за работа
го лове
ви кĠ
( И
щ ение,Ġ
поле ,Ġ
опублико ваноĠ
о сторож
ла нĠ
ка когоĠ
вопро сов,Ġ
возник новенияĠ
буду щейĠ
Ар кти
президен теĠ
пар хи
закры тииĠ
британ скогоĠ
Си сте
is mete
шки на,Ġ
преступ никĠ
о цеп
но утбу
на лич
материа лов,Ġ
инициати войĠ
же сточ
ени й',Ġ
ва :Ġ
Бразили иĠ
эксперти зы,Ġ
ста вокĠ
способ омĠ
сель скохозяй
промышлен ногоĠ
отсут ствуетĠ
ля тсяĠ
кан скойĠ
выра стетĠ
воз ведениеĠ
агре сси
Защи таĠ
1 12Ġ
чита телейĠ
центра льныхĠ
са ни
по та
ня лиĠ
ни ямиĠ
ля тĠ
ком понен
ка то
ка ждаяĠ
дополнитель ногоĠ
ведом стве,Ġ
Са мыйĠ
Патри ар
Д во
христи ан
при детĠ
не винов
му ',Ġ
коммен тируетĠ
вопро с.Ġ
Тер рито
Пе сков.Ġ
Кита еĠ
' анти
ш енийĠ
фир мы,Ġ
фи ни
тру п
сообща лĠ
раз вле
нк е,Ġ
находящи йсяĠ
коне чноĠ
зам начальникаĠ
де лу,Ġ
д '.Ġ
ваго новĠ
Энер ге
С чита
О ВДĠ
На конец,Ġ
Гер ги
Бы лĠ
юго- востокеĠ
ч ки,Ġ
сооб раж
след ственнойĠ
с пло
раз ве
ра сти
недоволь ствоĠ
мониторин гаĠ
ка мерĠ
информа цию.Ġ
дела лĠ
встрети лсяĠ
брать евĠ
Пенси он
P os
' яблоч
судь буĠ
рован .Ġ
ро си
ны м',Ġ
ли стĠ
легко вуш
л си
коле ба
дальней шейĠ
Па киста
Ка киеĠ
тр e
сут ки.Ġ
результа тахĠ
рассмотр ениюĠ
поис каĠ
мла ден
возбу дилĠ
ви зу
бе ско
Н ы
Е С.Ġ
12 ,Ġ
'А м
тиче скуюĠ
самы миĠ
рова лисьĠ
производ ства.Ġ
приступи тьĠ
приеха лаĠ
по веденияĠ
периоди ческиĠ
наб людатьĠ
Петербурга |
За в
Герма нияĠ
or kĠ
учрежд енияхĠ
собира тьĠ
ранен ы
протокол ыĠ
пре ссеĠ
плани ровкиĠ
пере шлиĠ
от далĠ
команди рĠ
едино рос
бое выеĠ
Коло мя
юри стĠ
эта жномĠ
тяже лыеĠ
па хĠ
ме ',Ġ
ка фе,Ġ
глуби неĠ
ак тыĠ
Зу б
or ro
Reuter sĠ
7 ,5Ġ
'О пера
ц у,Ġ
сче тчи
рус ско
ри я,Ġ
призна етĠ
петербурж цев.Ġ
ошиб киĠ
лик вид
коллега миĠ
Ф ра
Пен таго
ЗакСа ,Ġ
Анто наĠ
'Фонтан кой'Ġ
'От кры
ц 'Ġ
фир мĠ
ста рей
спе цифи
прися ж
призна нияĠ
политиче скимĠ
особы йĠ
обществен ностьюĠ
мо ле
люби телейĠ
де мо
Двор ко
m ar
- 3
управля ющихĠ
разме раĠ
пя тогоĠ
предприяти иĠ
отпра вленыĠ
мор яĠ
исследо ваниеĠ
закон нымĠ
домо мĠ
в куĠ
Са ву
И .
Га зпро
Б ез
щи ков,Ġ
недвижимо сти.Ġ
милиционе ровĠ
ль д
лей -
ков скойĠ
к рова
выясни тьĠ
ву лка
ви зыĠ
ази ат
Ха й
Ко зы
9 7Ġ
( А
'На фто
фру к
топли воĠ
су гу
ру ж
расши ритьĠ
ра ун
отече ственногоĠ
навер някаĠ
кар ма
дол говĠ
департа ментĠ
вод я
Си би
С к
В АЗ
e v
Tele gra
For b
электро нныеĠ
тран сфер
ситуа ция,Ġ
не eĠ
кредито ванияĠ
измен енииĠ
жа р
дни кĠ
автоно м
а то
Ц ер
Ле до
К Х
200 9-
( Е
хо в,Ġ
уче тĠ
торго выйĠ
тиру етсяĠ
под ходĠ
новогод нихĠ
жд ы.Ġ
биу лли
авиа компанияĠ
Второ еĠ
'Те х
' sĠ
чинов никамĠ
ция х.Ġ
сцен уĠ
спортив ныйĠ
следствен нымĠ
розы скеĠ
профессо рĠ
приостанови тьĠ
откры тымĠ
нахо жденияĠ
материа лы,Ġ
з вен
вол ну
а битуриен
Со ло
З начи
утра ,Ġ
упа ков
ст рыĠ
спек тĠ
реали за
потеря лиĠ
пи се
не сутĠ
вен ад
венад ца
в следствиеĠ
U n
'Ре а
ше б
улиц а,Ġ
смен уĠ
рубле й',Ġ
произ веденияĠ
порту га
освобо жденииĠ
обязан ностьĠ
на ход
ма лыхĠ
воз ро
бере гаĠ
На биулли
G ismete
2- 3Ġ
ши лĠ
част нымĠ
строитель ствомĠ
сло вноĠ
проек тов,Ġ
приня тииĠ
привле чениеĠ
позволи лоĠ
по воро
обсуди лиĠ
не достаточноĠ
мск )Ġ
лищ аĠ
лиц о,Ġ
ла ми.Ġ
журна лĠ
в велиĠ
Примеча тельно,Ġ
П Э
Л ан
Де парта
t wit
( тоĠ
'С тра
у держа
туа ле
собира лсяĠ
про меж
пара днойĠ
ко стиĠ
д eтĠ
выпу скаĠ
выбо рах.Ġ
ви .Ġ
бо го
ата ко
Всемир ногоĠ
'Ад миралтей
уполномочен ныйĠ
совет скойĠ
ров уĠ
рекомендо валĠ
продолж ениеĠ
оче виде
от ходовĠ
образо вания.Ġ
ни я'Ġ
кон чи
зна ем,Ġ
е те
Плани руется,Ġ
Ира наĠ
199 0Ġ
( нарушениеĠ
широ коĠ
ца ми.Ġ
трав матическогоĠ
техниче скоеĠ
тем пыĠ
ра стиĠ
ми ре,Ġ
за работалĠ
дви женииĠ
графи иĠ
высказы ванияĠ
бе спи
актив ногоĠ
Служ быĠ
o rĠ
'Но члеж
регули рованияĠ
прибы тияĠ
председа телюĠ
перспектив ыĠ
оче реди
ня тьсяĠ
ниж нейĠ
необосно ван
леги тим
кни гуĠ
ка кую
вше мсяĠ
Фран ц
УФ ССПĠ
Тимо фе
М ы
Крас ногоĠ
КГ АĠ
' Ша
чен наяĠ
точ ныйĠ
стан ции,Ġ
реаль нойĠ
расположен аĠ
посвящен ныйĠ
ненад лежа
му н
ля етсяĠ
лег койĠ
конститу цион
е мни
депута тамĠ
выне слиĠ
ба летаĠ
| Не
хи щенияĠ
характе ра.Ġ
прекра тилĠ
отклю ченияĠ
железно дорожногоĠ
РП ЦĠ
Де ся
tom orro
i -
f ont
сим фо
семь юĠ
се бе
при говорилиĠ
предлага лĠ
по в.Ġ
пере го
ни вĠ
нару ч
на рядуĠ
ба зи
Про из
Абха зи
футболи стаĠ
у боро
трудо выхĠ
тера пи
производ ства,Ġ
продолжа ютсяĠ
об щимĠ
меня етсяĠ
за стре
го сте
автомоби ля
ца ми,Ġ
ху а
това ров,Ġ
рекла муĠ
предвыбор нойĠ
оцен каĠ
осужден ныхĠ
нов скийĠ
и ми
завер ша
горе лиĠ
возмож ностейĠ
Лиго вскомĠ
Кузне цо
| СотрудникиĠ
V ol
ту ры.Ġ
связыва ютĠ
расче таĠ
примен енииĠ
питер скихĠ
опера торыĠ
о пу
наро даĠ
клиен тĠ
каки м-тоĠ
женщи ны.Ġ
во вле
Мосгор судĠ
Кри сти
К ОС
Д зержин
15 процентовĠ
'Жи лкомсерви
юри с
фа -
телефон ыĠ
сейча с.Ġ
роди телей,Ġ
предо ставилĠ
ми но
и р
значи тĠ
выбо рах,Ġ
в хо
ба у
Пер вымĠ
Б ря
f i
8 0процентовĠ
17 -
трилли онаĠ
сер жан
об р
каби нетĠ
инвести цииĠ
ги хĠ
У ша
З оло
'Но войĠ
послед нююĠ
помо гутĠ
освобо ждениеĠ
огром ныйĠ
нк -
м чу
ка коеĠ
голов еĠ
ви зĠ
iv e
чис луĠ
приобрет енияĠ
приме ча
педо фи
обы чныхĠ
о теляĠ
Спаса телиĠ
Рабо та
Пу стьĠ
ОС АГ
Лука шенкоĠ
'Д у
ь ез
штрафо вĠ
точ ногоĠ
та льнойĠ
разо ча
обвин ения,Ġ
называ емыеĠ
надзор ногоĠ
кор зин
дости га
С ве
Исто рияĠ
Бу детĠ
сообщ ении,Ġ
собра лĠ
сло жныхĠ
си лаĠ
ра стя
наде юсь,Ġ
милли онов
лагер яĠ
круп нымĠ
ключе выхĠ
зр ения,Ġ
европей скиеĠ
ва т
П раз
Ме й
За явлениеĠ
ь ко
сти леĠ
рекомен ду
располага етĠ
ра ду
откры ласьĠ
льщи киĠ
лиши лсяĠ
зо в
выстав кеĠ
владель цамĠ
веду щиеĠ
Франц уз
e c
совер шениюĠ
сконча лся.Ġ
карьер уĠ
ка я,Ġ
занима тьĠ
ж ор
ж енийĠ
город .Ġ
верну лĠ
ам фетами
Ра зу
По че
Израи льĠ
A irĠ
хра меĠ
раз дра
происшестви иĠ
полицейски х,Ġ
подтвержда етĠ
подоб ноеĠ
имен емĠ
звез дыĠ
Пари жеĠ
Оба мыĠ
( заĠ
фестива леĠ
укра лиĠ
террори стовĠ
специаль нуюĠ
простран стваĠ
лен ,Ġ
культур ныхĠ
дан ных,Ġ
арбитра жногоĠ
Я вли
УФ СКНĠ
ц :Ġ
ри ско
район ныеĠ
политиче скуюĠ
повы шенииĠ
обяза лĠ
метро войĠ
за че
вше есяĠ
ведом ствĠ
Во ди
3 -гоĠ
фо л
то ры,Ġ
рестав ри
ре цеп
предыду щиеĠ
медицин скоеĠ
жиль цыĠ
гово рыĠ
Пу ч
Мило новĠ
Конститу ционногоĠ
R N
тов :Ġ
служеб нойĠ
сво eĠ
рублей ),Ġ
особы хĠ
ны х
ки но,Ġ
за пуститьĠ
ге й
выясни ли,Ġ
ба ле
ав тоĠ
Михаи луĠ
Благо твори
o k
( иĠ
' под
' Москов
щ уĠ
с правля
преступл ений.Ġ
помо глиĠ
писа тельĠ
ни ком,Ġ
исчез нов
из об
зу тĠ
вне слиĠ
Я ко
Рос бал
Национа льнойĠ
Ин ве
степен ьĠ
спа н
се рияĠ
ро вания.Ġ
располо жи
перегово рахĠ
педаго ги
ответствен ности,Ġ
крими нали
контрак тыĠ
исправитель нойĠ
до ми
грес сĠ
вали сь,Ġ
ак цен
Цы ган
'Т ЭКĠ
случа й,Ġ
рова ть,Ġ
ра за,Ġ
каки е-либоĠ
ка кая
жи телямиĠ
доро ги.Ġ
до ме,Ġ
до ва,Ġ
государствен номуĠ
выбира тьĠ
болез ниĠ
актри саĠ
Б об
ol l
сло мĠ
при ходитĠ
позволи тьĠ
перио домĠ
ней ро
напад енийĠ
надзор уĠ
ма льноĠ
компани и-
из ъ
диспет че
Ш от
П П
al lĠ
Tim esĠ
5 6
'Р оди
уточня етĠ
ти '.Ġ
прод ленииĠ
по соб
новогод ниеĠ
мень шин
к м.Ġ
генера лĠ
бро ни
'Санкт-Петербург 'Ġ
'Рус скойĠ
юща ясяĠ
стоян киĠ
сте пени
раз дел
ра -
про рываĠ
поступа ютĠ
наруш енияхĠ
досро чноĠ
Про граммаĠ
Законодатель ноеĠ
Анд желе
Ан -
Алексе юĠ
у шлаĠ
помощ никаĠ
помещ енияхĠ
перен о
обы скаĠ
не ся
лиц амĠ
воспи ты
банк уĠ
алкого льнойĠ
То м
Т ос
Режи ссе
Пер вогоĠ
M a
7 6
управл ения.Ġ
ста ми,Ġ
рова лсяĠ
по м
ог немĠ
милли онов.Ġ
л лиĠ
коммуника цийĠ
зоо пар
депута тамиĠ
воз вестиĠ
види мĠ
верх нейĠ
Россия неĠ
ье в.Ġ
трав мы.Ġ
ствен ностьĠ
предусмотрен ыĠ
предпринима телиĠ
поме ша
подчеркну лиĠ
осла б
люб виĠ
кому -тоĠ
жиз не
ва юĠ
Эрмита жаĠ
Север наяĠ
Е горо
s c
това рĠ
собра лиĠ
разработа нĠ
поня тьĠ
ни я
мо тор
вы раж
Ви ль
ча са,Ġ
су дов,Ġ
ремон тныеĠ
отсут ству
лен нымĠ
корпора цияĠ
ар к
Э бо
o d
J ourn
' ЦентрĠ
филь мыĠ
уси лениеĠ
тив ноĠ
получа лĠ
пога шенияĠ
повто ри
м г
занято стиĠ
заверши ласьĠ
за топ
Ха са
Лебеде вĠ
Кур но
Ин доне
Вз рывĠ
Б ре
C om
'Ма я
ту '.Ġ
социаль нуюĠ
подзем ныхĠ
парков киĠ
ос- Анджеле
автома ти
Рус скогоĠ
Про да
На й
И о
Благо ве
Air lin
22 .
ф ,Ġ
снизи ласьĠ
си лу,Ġ
полу ночиĠ
опублико валаĠ
внезап ноĠ
антимонопо льнойĠ
Фи ль
Мар кĠ
Ма дон
Андре юĠ
8 9Ġ
15 00Ġ
у еха
техни куĠ
сме ш
расследо вани
от рави
обстоятель ствахĠ
мо риа
машин у,Ġ
емы миĠ
аналоги чныеĠ
Ру мы
o g
19 ,
15 .Ġ
рас критико
поясни тельнойĠ
пользова тельĠ
от чита
нен оĠ
клу ба
зави сетьĠ
глу б
С тан
Поли т
9 4Ġ
7 0процентовĠ
фору мĠ
тель ствомĠ
стар шеĠ
пропу скаĠ
пропу ск
пра ва,Ġ
под ы
организо ванаĠ
огнестре льногоĠ
обеспечи ваетĠ
на борĠ
маршру товĠ
коммер ческогоĠ
иско вĠ
за блу
докумен ту,Ġ
го скон
ген о
смо жемĠ
представи тельстваĠ
по ступ
пассажи рамĠ
нынеш нейĠ
жалу ютсяĠ
добы чиĠ
вопро сы.Ġ
вооружен ныеĠ
вой дутĠ
вклю чи
Э хоĠ
Че чен
Пу гаче
До меĠ
. .Ġ
ю жно
теп лаĠ
ствен номуĠ
раз решилĠ
прокоммен тировалиĠ
поиска хĠ
избира телей.Ġ
вы датьĠ
вла стей.Ġ
бы ваетĠ
беспоко и
И зданиеĠ
Intern ation
сот ряс
пу тя
пу ле
предыду щихĠ
поли толо
об щихĠ
игро выхĠ
госпитализирован .Ġ
го вуюĠ
ва шĠ
Ха сан
Со ответствен
Север нуюĠ
Пре ступ
Основ наяĠ
Но вымĠ
Ле томĠ
К рю
twit ter
m an
че к.Ġ
тер .Ġ
сотрудни ков.Ġ
смотря тĠ
ры :Ġ
поло суĠ
ня кĠ
нь шеĠ
нало вĠ
ман сар
команду ющегоĠ
зер ка
журналиста м.Ġ
жизн ь,Ġ
го соб
бе зна
Ходорков скогоĠ
ш ени
финансо вымĠ
род нойĠ
предотвра титьĠ
мужчи ны.Ġ
министра ,Ġ
лич номĠ
здани й.Ġ
жа лаĠ
вы держа
близ лежа
архите кторĠ
актив ностиĠ
Они щенкоĠ
Интер фак
Г ран
экипа жа.Ġ
ст ноĠ
соци ологи
моби льнойĠ
лю буюĠ
команди раĠ
де во
бо мĠ
Г деĠ
i z
0 :
след ственныйĠ
регла ментĠ
проекти ров
понима ть,Ġ
переда ютĠ
пере вод
мужчи неĠ
мо сть
ка да
запланирова нĠ
законо вĠ
зай метсяĠ
дости глоĠ
государ ствуĠ
выя вленныхĠ
ви ни
Ф ,Ġ
С трас
ст е.Ġ
ст -
президиу маĠ
представи лиĠ
предвари тельноĠ
особо еĠ
мо новĠ
мо ду
л э
ки стан
зна ете,Ġ
гор но
Х им
? '.Ġ
'Со л
у троĠ
тре ст'Ġ
тай меĠ
поверх ностиĠ
осмо трĠ
нен нымĠ
му |
лан дииĠ
индек сыĠ
зна ч
ги 'Ġ
вы писа
аль нойĠ
Па мя
Л НРĠ
al l
ци я',Ġ
узна лĠ
ту зи
мероприяти иĠ
добра тьсяĠ
га старбай
во пло
Так же,Ġ
Ро жде
Ма с
ЛГБ Т-
стреля лĠ
сирий скойĠ
принадлежа щихĠ
ма х
комплек сыĠ
ды ',Ġ
гру заĠ
госпитали зировалиĠ
Рос тĠ
Ме дин
I T
5 3
тин скогоĠ
стви тельно,Ġ
ст ногоĠ
си д
с .
производи телиĠ
представи телемĠ
посе тилиĠ
нов скойĠ
ни ки'Ġ
наблюда телейĠ
кла ссĠ
заме тноĠ
го :Ġ
вось ми
британ скойĠ
Ш мид
Го лу
'Ра ди
ю т
циф раĠ
переда чуĠ
откры тыйĠ
незаме дли
кур сеĠ
действи ямĠ
взя ткуĠ
ба ты
аукци онаĠ
Си бир
Ога неся
'Гор электро
цен ныеĠ
теле визо
судеб но-
со циали
режи ссер
ре е,Ġ
путе шествен
прожи вающихĠ
победи лĠ
по лаĠ
особо мĠ
номе ромĠ
мощ ностьюĠ
Т им
М КСĠ
И ТĠ
'Петербург скаяĠ
хоте лаĠ
то ва,Ġ
теля хĠ
ру камиĠ
ра стра
независи мостиĠ
закуп куĠ
закры таĠ
близ кийĠ
Фото репорта
Исаакиев скойĠ
Великобрита нии,Ġ
le ,Ġ
у жесточ
собы тиеĠ
оскор би
мест наяĠ
ле тиеĠ
ку ла
кандида тов,Ġ
йча с,Ġ
вещи ,Ġ
вести сьĠ
барди но-
Н О
a sĠ
C on
эсе ровĠ
уча ствуетĠ
рынк е,Ġ
моби льныеĠ
лайне раĠ
л ковĠ
информацион но-
Карели иĠ
И оси
Д непро
Активи стыĠ
уво ленĠ
ть -
разме щеныĠ
концеп циюĠ
компенси роватьĠ
ком ',Ġ
де бю
гаран тииĠ
вече руĠ
Нью-Йор кеĠ
Литвинен коĠ
-2 'Ġ
от кли
окру га.Ġ
ограни ченоĠ
огра билиĠ
лиц а.Ġ
космо дро
железно дорожнойĠ
газо вогоĠ
выз ваныĠ
С ка
Кузь ми
1 )Ġ
'С ла
'Р ЖД
'Ба вари
шен ногоĠ
сти пен
сообща ли,Ġ
россия намĠ
расследо вание.Ġ
пред ше
осуществ лениеĠ
необходи муюĠ
выпла чиватьĠ
Глав нымĠ
удо сто
стан ции.Ġ
сай товĠ
при былаĠ
преступ никовĠ
прави ламĠ
оппози цияĠ
лиши тьĠ
комна теĠ
дет скуюĠ
в двоеĠ
Ни ге
Ленин скомĠ
( 6
ю зи
экспо на
тро ти
теку щийĠ
т. д
сту ди
развед киĠ
ра нилĠ
прогно замĠ
осуществля етĠ
олимпий скийĠ
на )Ġ
ме шаетĠ
воздуш нойĠ
анали заĠ
Швейца рииĠ
Ин фо
Б рон
эп из
финансо вуюĠ
фальси фика
трене ромĠ
слуша нийĠ
по ко
от нес
обвиня ютсяĠ
мото цик
медицин скуюĠ
затра тĠ
женщи неĠ
вз ро
Пушки нскогоĠ
Навер ное,Ġ
Абра мо
удовлетво рен
уголов номĠ
тяже сти.Ġ
турни реĠ
ро у
протоко лаĠ
ново рожден
ниц ы.Ġ
меда льĠ
иска лиĠ
докла дĠ
делега цииĠ
вопро сеĠ
бло кĠ
адвока тыĠ
С :Ġ
Обще ственнойĠ
Крем леĠ
Дени саĠ
А Р
щи йсяĠ
фото гра
си лы,Ġ
региона льныеĠ
расши рен
м- э
м ба
ли дар
ле м.Ġ
компани ямиĠ
коали цииĠ
же рĠ
дела етсяĠ
бе лыхĠ
б ре,Ġ
американ скаяĠ
Ч леныĠ
Таджикиста наĠ
Г ле
тру б
силь ней
розы ск.Ġ
реабили тацииĠ
пере ход
партне рĠ
организа торĠ
объясни л,Ġ
кризи са,Ġ
консульта цииĠ
гин ,Ġ
бардино- Бал
Э кономи
ФИ ФА
По этому,Ġ
Дан ныеĠ
В ну
R E
'Т у
уч e
террористи ческихĠ
те рыхĠ
сов мести
с прята
ря т,Ġ
молоды мĠ
инфраструкту ры,Ġ
дерев неĠ
При чем,Ġ
Ка ри
Все мĠ
существо ванияĠ
ра ста
поез докĠ
повы ша
оборудо вания,Ġ
кра жиĠ
кон вен
за стря
ев скогоĠ
гото воĠ
Донба ссеĠ
Вы соц
уволь н
стро енияĠ
отказыва ютсяĠ
м сĠ
м ра
консуль стваĠ
источ ника,Ġ
да х,Ġ
возвра щениеĠ
бло к
экономи ки.Ġ
собо лезно
ск ве
по мн
парламен та,Ġ
набереж ной.Ġ
гражда не,Ġ
входя щихĠ
бла н
Т Е
Оп пози
Не ф
Дол го
Д ональ
S ta
финансо во-
у каз
служ бойĠ
ско му,Ġ
ня миĠ
мер .Ġ
ку ля
кан дина
Матери а
Ка бардино-Бал
t ub
2, 2Ġ
ье знаяĠ
спе кто
прожи ваютĠ
потерпе вшийĠ
называ лиĠ
ки й,Ġ
задейство ваныĠ
жи телей.Ġ
ду тсяĠ
вызыва ютĠ
влен номĠ
б люда
аб сур
На за
Кадда фиĠ
ч ьяĠ
телекана луĠ
справи лсяĠ
со действиеĠ
со ва.Ġ
ре структури
произ велĠ
принци пе,Ġ
осен иĠ
обеспечи ватьĠ
закон читьĠ
жи ота
де лу.Ġ
гибе льĠ
высказа лсяĠ
вши мисяĠ
ви ча.Ġ
анон си
актив ностьĠ
Петербург скаяĠ
Мака роваĠ
Любо вьĠ
Бо яр
ще мсяĠ
ци та
у йдетĠ
сред ств
сообще ствоĠ
рин пи
поня тиеĠ
на шимиĠ
каждо еĠ
инвесто рыĠ
за помни
едино гла
доро жеĠ
да вленияĠ
в носитьĠ
Ю р
Р Э
Г радо
Б -
ядер нойĠ
ше стер
чи комĠ
с нымĠ
распреде ли
рас пла
раз у
попыта ласьĠ
показыва етĠ
пеше хо
же в
ж скойĠ
де валь
вынесен оĠ
веден оĠ
Медведе в:Ġ
К реди
Бри та
Бли ж
23 .
убий ствуĠ
так .Ġ
республи ки,Ġ
реаль ныеĠ
присво енĠ
представи тĠ
превы шенииĠ
помещ ения,Ġ
по шлаĠ
м ),Ġ
изби енииĠ
жен ностьĠ
да ми,Ġ
группа ,Ġ
горячи мĠ
внутрен ниеĠ
вле четĠ
ав страли
Я ма
А эро
ч. 1Ġ
служи тьĠ
ни стĠ
ме ста.Ġ
ли стов
з ловĠ
жи лаĠ
Хри стаĠ
К ле
Во строи
'Т и
тури стов.Ġ
ти по
лейтенан тĠ
инженер ныхĠ
ин три
гомо сексу
Сво бо
Русла нĠ
Ле т
Вы борыĠ
Восста нияĠ
'Н ор
принима ютсяĠ
пира ми
нынеш нихĠ
не цензу
ли н,Ġ
ли ?Ġ
лен номĠ
концер теĠ
ко сме
город скоеĠ
К Т
201 2-
ц -
услови ях,Ġ
ски м.Ġ
реги онĠ
рассказыва ютĠ
оцен кам,Ġ
оздоро ви
не форма
Украин скиеĠ
С борнаяĠ
суббо т
следу юще
пожалу й,Ġ
ника м.Ġ
задерж киĠ
друз ьяĠ
дом 'Ġ
добро во
дефици таĠ
дета лиĠ
го скорпора
вакан си
бан ков.Ġ
Официаль ноĠ
Ко мендан
К РТ
Ба ла
4 :
' золо
ье ваĠ
ф ри
ства :Ġ
собствен нуюĠ
подсуди мы
п лей-
зада чуĠ
е пархи
Са ра
Р ек
При бывшиеĠ
ь ераĠ
соседни хĠ
рабо чемĠ
необходи мойĠ
налого выеĠ
наз ванияĠ
му жаĠ
кварти ре,Ġ
за н
вы йдутĠ
вступи тьĠ
вод ,Ġ
Бе логоĠ
'Лен энерго
са нато
рова ны.Ġ
предупре жденияĠ
потерпе лĠ
подоб нойĠ
ни кудаĠ
микро блогеĠ
ли нийĠ
лен коĠ
л |
воен ноеĠ
в лож
Росбал тĠ
Казахста наĠ
Ба ша
M ed
экспер тĠ
уверен ыĠ
сотрудни куĠ
круп нуюĠ
комисси йĠ
за подоз
до мен
Дже ксо
Герма нĠ
2 20Ġ
'Росте ле
учены хĠ
смотр еĠ
слы ш
се п
претенден товĠ
опер ыĠ
обсужда лиĠ
миро твор
миро вомĠ
квадра тныйĠ
завершен оĠ
диало гĠ
голо су
внес енияĠ
би -
Сту ден
Ря домĠ
Оче виде
Основ ныеĠ
13 2Ġ
улице йĠ
соответству ющимĠ
ос виде
объеди ни
образо валасьĠ
о стры
о пор
ком '.Ġ
кол лед
за тяну
ди визи
действу ющиеĠ
вы вез
времен ныйĠ
в водитьĠ
Щер ба
Теа траĠ
Софи йскойĠ
Подмосков ьеĠ
Мин здрав
N iss
'П лощадьĠ
фла гĠ
участи юĠ
трени ров
теп лоĠ
ста ри
респонден товĠ
промышлен ныхĠ
про щеĠ
пре следованиеĠ
об л
и )Ġ
жа ле
вз лет
ак е
авари и,Ġ
У гро
Сред няяĠ
Боло тнойĠ
E n
экологи ческойĠ
четвер томĠ
спа си
случа яĠ
семь и.Ġ
про пуска
при способ
посе титĠ
лен а
имуще ствомĠ
зву читĠ
выполнен ыĠ
аналоги чныхĠ
Ю го-
Север номĠ
По греб
Евросою зĠ
el l
уволь ненииĠ
справи тьсяĠ
региона ,Ġ
работа лоĠ
пресс- секретаряĠ
представля етсяĠ
предста вленаĠ
подъез деĠ
пен аль
останови лиĠ
основа тельĠ
ор ден
на строен
ль к
лич наяĠ
крепо стиĠ
издели йĠ
изви ненияĠ
захва таĠ
до ли
до к,Ġ
возра ста
На сколькоĠ
МВ ФĠ
спортсмен ыĠ
само дель
полити ки,Ġ
по о
плей- оф
объ емовĠ
обществен номĠ
на ждыĠ
на бралĠ
Би рю
Ба с
услови ях.Ġ
стра жиĠ
розни чнойĠ
приеха тьĠ
постоян ногоĠ
ото бра
отдель ноеĠ
ности :Ġ
ник е
меся цыĠ
которы х,Ġ
захва тилиĠ
закон ностьĠ
д e
Ле ва
Днепро петро
Гости ногоĠ
4 1
чи сто
суди мыйĠ
сла бы
рас па
пропа лиĠ
пере смотретьĠ
пад енииĠ
оста вшихсяĠ
информа ционногоĠ
инвесто раĠ
издани е.Ġ
заверши тсяĠ
жилищ но-
Норве гииĠ
Киргизи иĠ
сообщ ениемĠ
разбира тельстваĠ
нефтя нойĠ
находи вшихсяĠ
инфраструкту ры.Ġ
зо м.Ġ
да валиĠ
Не давноĠ
s h
Y orkĠ
200 8
ш тор
университе теĠ
перево дĠ
не редкоĠ
запрещен ныхĠ
друз ь
Шар м-э
Фран цияĠ
Нем цоваĠ
Л С
Демен ть
Гры зло
В неш
Абха зииĠ
or g
'Е стьĠ
трав ми
ста ми.Ġ
ро сто
ль '.Ġ
ли н.Ġ
кни гĠ
из готови
докла деĠ
а ри
О пол
МВ Д
Ка лу
Б ло
шин .Ġ
тон н.Ġ
сторо нойĠ
сол н
продолж енияĠ
об следованиеĠ
млр д
закры тоĠ
дустри аль
госпитализирова ны.Ġ
все м,Ġ
внима ние,Ġ
быстре еĠ
Ды бен
Англи иĠ
эта жныйĠ
порта лаĠ
плохо йĠ
пла тятĠ
отно ся
от пуска
любов ьĠ
ки лле
де в
вклю ченĠ
Не ль
На чи
20 .00Ġ
0, 0
'Петров ский'Ġ
ы еĠ
счита ем,Ġ
сум му,Ġ
сотрудни ча
са муюĠ
проте сто
полу защитникĠ
по летĠ
петербур же
отбы ваниемĠ
остро ве,Ġ
мен я,Ġ
до на
го выеĠ
вне дорож
ба лли
Т отĠ
Ленингра даĠ
Вла дель
Бе ла
P l
я з
четвер тьĠ
хру ще
трени рово
самоле та,Ġ
нало гиĠ
лю стро
заседани йĠ
дете й-
датель ныйĠ
выполня етĠ
бли ж
Премь ерĠ
На ц
| СĠ
укра ден
суд ятĠ
пода ноĠ
на конецĠ
на ве
комплек са.Ġ
гря ду
тех но
предпочита ютĠ
отды хĠ
ника 'Ġ
не задолгоĠ
име лаĠ
за бира
деше вле
ви неĠ
бер гĠ
Ту-15 4Ġ
Мол ча
Ели се
Ак сен
do w
' Северо-Запад
экспер ты,Ġ
усили тьĠ
термина лаĠ
ри нĠ
продук цияĠ
по вери
пар еньĠ
от ложен
наличи яĠ
извест наяĠ
заверши лĠ
дости гаетĠ
дополнитель ныйĠ
а зар
Г ТКĠ
a yĠ
a dĠ
чемпи онаĠ
си тĠ
ро ля
против номĠ
прод ле
прине слиĠ
право выхĠ
площад каĠ
осуществи тьĠ
особо йĠ
мп со
лу р
кар дина
инвали д
депута т.Ġ
Четы реĠ
Ре ги
Петро ста
Авто рĠ
is t
T V
A d
15 8Ġ
ь -
чет ве
тся ',Ġ
ству ющийĠ
способ енĠ
сдела етĠ
посад киĠ
под ходя
пло т
о ранже
непосред ственнойĠ
льк сва
к голь
дольщи ковĠ
С БĠ
Ро сте
И е
M ail
8 0-
' Лу
то й.Ġ
потребо валаĠ
поса дилиĠ
полити кĠ
подозрева ютсяĠ
ны й',Ġ
немец когоĠ
наруш ениямиĠ
использу етĠ
дополнитель ноеĠ
ат ле
Со чи,Ġ
Се чи
Лю би
4 'Ġ
ши на,Ġ
худож никĠ
траге ди
се 'Ġ
ребен комĠ
положитель но,Ġ
оста вшиесяĠ
оперу полномочен
огром ныеĠ
об стрелялиĠ
немец койĠ
законодатель ству,Ġ
жен е
ж утĠ
до смотраĠ
в но
Юли иĠ
Ми ла
Кам чат
Д ра
a rĠ
тра титьĠ
су тьĠ
рассматри ватьсяĠ
от ыĠ
ме лко
заклю чилиĠ
дру зе
дис сер
грузови кĠ
брифин геĠ
Крас номĠ
( илиĠ
француз скойĠ
уров нюĠ
присут ствоватьĠ
озна коми
иностран нойĠ
выпа лĠ
встрети тсяĠ
американ скимĠ
Очевид цыĠ
ЛО НА
К лу
Бо е
Благове щен
| ПолицияĠ
сдел куĠ
пострада лаĠ
перевоз чиковĠ
оператив наяĠ
о м.Ġ
клиен таĠ
й дяĠ
дра го
градо строительствуĠ
соответ ственноĠ
рак етĠ
организо валиĠ
оборо ны,Ġ
не измен
заявля ет,Ġ
заня тийĠ
ера .Ġ
дости чьĠ
до казыва
без возмез
Се йчас,Ġ
ща тьсяĠ
уволь ненияĠ
сте ственно,Ġ
ска мь
ру ющийĠ
пыта ясьĠ
просты хĠ
откры лисьĠ
клубо мĠ
исполнитель ногоĠ
европей скогоĠ
гори збир
Ру ста
q u
24 ,Ġ
ч ки.Ġ
фин скойĠ
уг ле
силови ковĠ
с совĠ
продли лĠ
пота сов
по все
отра вленияĠ
долла руĠ
выбо рамĠ
влен ноеĠ
ва ны.Ġ
аукци онеĠ
Р Е
Петербург 'Ġ
Красно да
челове че
ф .Ġ
услови я,Ġ
то выеĠ
присут ствиеĠ
предусмотрен аĠ
посе локĠ
от дела
определен ныхĠ
нрави тсяĠ
напада ющийĠ
жен о
девело пер
ве ка,Ġ
ап па
ЮНЕСК ОĠ
Че лове
Су дь
Со стояниеĠ
Н етĠ
Toyo taĠ
6 -гоĠ
'Ма н
управля ющийĠ
уби тыĠ
тр л
соба кĠ
посоль ствоĠ
му сор
доказа ть,Ġ
ден коĠ
действи й.Ġ
Северо-Запад номĠ
Ре мон
Андре емĠ
у крепи
раз горе
прошед шихĠ
победи тельĠ
оконча тельноеĠ
нес праведли
мониторин гĠ
ле дĠ
иностран цевĠ
же мчу
до следственнаяĠ
вс e
ба таре
актив ныеĠ
Тур цияĠ
Ирку т
Ан глий
to nĠ
For dĠ
? |
шко лы.Ġ
хва тилоĠ
х э
участ ка,Ġ
универ са
ти -
т ковĠ
сче лĠ
ро жда
предо ставилиĠ
предло гомĠ
по за
певи цаĠ
об работ
носи лиĠ
ли хо
ко вогоĠ
возвра щенииĠ
военнослужащи х,Ġ
бе нĠ
аль пи
i ,Ġ
5 4
( В
' Хо
у полномо
согласо ватьĠ
програм мы.Ġ
програм м
поло т
подоб ныйĠ
недо стовер
кру шенииĠ
ки пят
жен ойĠ
ду мы
домо й,Ġ
газо прово
выда чуĠ
бир жи.Ġ
Челябин скойĠ
Ира нĠ
Задержа нныйĠ
Sp ort
29 0Ġ
25 ,
10 .00Ġ
цион нымиĠ
тради ционнойĠ
сть -
сте ро
побе даĠ
отече ственнойĠ
нов оĠ
ков '.Ġ
кандида тыĠ
и мени
закуп киĠ
Хид дин
Мар кин.Ġ
i eĠ
2 процентов.Ġ
2 процентов,Ġ
фун товĠ
участо к,Ġ
у гар
то чекĠ
сь я
режи ме,Ġ
разуме ется,Ġ
пробле м,Ġ
призыва ютĠ
премьер .Ġ
переда лаĠ
опла теĠ
ожи датьĠ
може т.Ġ
ле вогоĠ
исклю чаетĠ
губернато ра.Ġ
возгора нииĠ
во е
б льĠ
актив нойĠ
Фай зу
7 50Ġ
'Г ра
'Б ы
экономи ческомĠ
ф ле
требо валĠ
скры лись.Ġ
рублей )Ġ
ре зи
произо йтиĠ
преступ ногоĠ
правоохранитель нымиĠ
попу ля
пол часаĠ
очеред номĠ
объя вл
ко стьĠ
ко ве
до ходаĠ
ва вшегоĠ
Фе й
Фак тическиĠ
Прохо ровĠ
'Зени та
ъ ем
футболь нойĠ
стар тĠ
района х.Ġ
от аĠ
освиде тельство
о ны,Ġ
но меруĠ
матча хĠ
игра ютĠ
гово еĠ
би валютнойĠ
У э
То ло
Пя тьĠ
Австрали иĠ
'Фо льксва
уведомл ениеĠ
тор гу
сов ме
сложи ласьĠ
положи тельноĠ
полицей скимĠ
кор те
кну лĠ
и |Ġ
ва -
М юн
Кержа ковĠ
Дан ниĠ
Б ак
тер мо
ребен куĠ
правитель ственныхĠ
ви чуĠ
американ скомĠ
ак товĠ
Пол ностьюĠ
услу гамиĠ
ров '.Ġ
поясни ли,Ġ
повышен ныйĠ
переда ватьĠ
о ско
ми иĠ
м м.Ġ
и сти
заявл ение,Ġ
жа ющихĠ
горожа н.Ġ
близ кихĠ
О ллан
Ль во
шо вĠ
у 'Ġ
остан киĠ
монасты р
ме 'Ġ
колон ныĠ
й скаяĠ
знамени тогоĠ
ж ение.Ġ
вы везлиĠ
Мая кĠ
o w
худож никаĠ
стре лко
содержа тсяĠ
секун ду.Ġ
с писа
ра сте
проекти рованиеĠ
пожа ровĠ
по сторон
консульта н
высо кимĠ
возмож ностьюĠ
Т ы
уди вля
ры ноч
проте стĠ
предвари тельныеĠ
понима ют,Ġ
подтверди тьĠ
ожи данияĠ
нар хи
налого об
набереж наяĠ
максима льнаяĠ
истори и,Ġ
жалоб аĠ
деву шекĠ
га рĠ
ва шиĠ
Х ру
Ка над
i tĠ
Air b
3 процентов.Ġ
се бе,Ġ
попе чи
милиционе рĠ
маршру тыĠ
кольце войĠ
использо ваниюĠ
группо вогоĠ
вы ходи
бе г
Т уч
Росси е
Ке ме
Дж онаĠ
Гу се
Б рей
P ar
Gu ard
'Трансаэро 'Ġ
экспор тĠ
уч енийĠ
у важ
сум куĠ
ства |
рестора нĠ
построен оĠ
подраздел ениеĠ
подо шлиĠ
петербург скаяĠ
о горо
направл енийĠ
колле гияĠ
ка куюĠ
закры тыĠ
задержа ноĠ
за ставитьĠ
д жĠ
Финлянди и,Ġ
Г ин
Американ скийĠ
чинов ников.Ġ
хо з
ухуд ши
те лю,Ġ
существу .Ġ
са :Ġ
предполага емыхĠ
пале стин
офице ровĠ
ня тсяĠ
му ни
иг ры.Ġ
иг ры,Ġ
да |
выде ленныхĠ
благотвори тельнойĠ
Отве чаяĠ
Ар с
( неĠ
установ каĠ
уверен ноĠ
то кси
телефо новĠ
структу реĠ
ок си
мощ ностьĠ
кораб лиĠ
заказ чикаĠ
завер я
деклара цииĠ
гна тьĠ
выяви лаĠ
бы товойĠ
Ки раĠ
Гар риĠ
Во про
с держи
район ,Ġ
пу .Ġ
предупре ждениеĠ
окру гуĠ
о пове
неде лю.Ġ
митро поли
зо ваĠ
женщи ну,Ġ
ди еĠ
гомосексу али
ва ющаяĠ
а жиота
Тур ции,Ġ
К И
Ве детсяĠ
А ссан
W or
у ше
совмест ногоĠ
реги оныĠ
производи тсяĠ
проводи ласьĠ
право вогоĠ
на против,Ġ
из лиш
за крепи
жи лкомсерви
верну ласьĠ
вариан товĠ
Ген прокуратурыĠ
p l
S am
циф ро
устанавли ваютсяĠ
стары еĠ
сла вуĠ
разно образ
работа ть,Ġ
работ никамĠ
пора женияĠ
полуго дииĠ
пар ыĠ
обяза тьĠ
обош лосьĠ
ме даĠ
жела яĠ
жалоб еĠ
да валĠ
выне стиĠ
бесе дыĠ
Само еĠ
Му хам
Гонча ров,Ġ
Ах ма
указа ннойĠ
убе дитьĠ
спроси лĠ
проспек та.Ġ
пара лизо
очевид цыĠ
муниципа льныеĠ
лет няяĠ
конкре тноĠ
государствен наяĠ
воздуш ноеĠ
Зелено гор
'По каĠ
хра мĠ
транспор тнаяĠ
т скуюĠ
пре фек
организо ваноĠ
ну |
квалифика цииĠ
з ванияĠ
ван нымиĠ
ва ющимĠ
бен зинĠ
Са н-
Л ос-Анджеле
'Фонтанка. ру
элемен тыĠ
са х.Ġ
реши ли,Ġ
проф союзаĠ
помо гĠ
извест наĠ
запи сы
дела ть,Ġ
де ба
воору женияĠ
вол наĠ
бизнесмен овĠ
автомоби льныхĠ
Толо кон
Рос обр
При ня
Мара тĠ
Кэ меро
В ьет
шта тномĠ
с ры
пропаган ди
про клад
на сы
лицензи юĠ
лет |
зато ну
ду стрииĠ
воз действияĠ
Фран су
Краснодар скогоĠ
уда ри
тра ,Ġ
посо лĠ
откры тоеĠ
откры тогоĠ
оборудо вани
лож ныеĠ
лод киĠ
л ки,Ġ
культур но-
вы ходятĠ
важ ныеĠ
бу ла
С реди
Пострада вшихĠ
Ма га
Евро пе,Ġ
Госду мы,Ġ
'Ф укуси
ше к,Ġ
территориаль ныхĠ
разру ши
отказа лся.Ġ
находя щегосяĠ
мошенниче стваĠ
имуще ства.Ġ
из ложен
завед енийĠ
журнали стов.Ġ
достав киĠ
д каĠ
а нима
Фран ции.Ġ
НД СĠ
Кон курсĠ
Заха ров,Ġ
ы йĠ
ш коĠ
указыва етĠ
т не
ствен но-
ства ми.Ġ
ри скĠ
п мен
от се
мо ихĠ
ля |
копи иĠ
и ли,Ġ
зри телиĠ
день гамиĠ
буду т.Ġ
Рус скойĠ
Пресс- службаĠ
Га зе
'Ру бин
'Ми стра
ща ,Ġ
ссо рыĠ
при води
предупрежда етĠ
подчеркну лаĠ
петербург скомуĠ
ни ком.Ġ
закры томĠ
годо войĠ
выяви лиĠ
взрыв ныхĠ
Украи нойĠ
Ко лумби
Гос по
H y
. Фонтанка.РуĠ
у ще
структу руĠ
следо ватьĠ
реги онов,Ġ
расши р
пробле мойĠ
опусти лсяĠ
крупней шейĠ
име ющейсяĠ
жи ве
до к
Т рен
Моло де
Минфи наĠ
Ма х
: 00.Ġ
произошедше го.Ġ
ли лĠ
испол нятьĠ
зна юĠ
дни ковĠ
вой скамиĠ
внес лаĠ
ак тер
а сси
Лебеде ваĠ
7 8
'В Т
тра у
соли дар
под ни
обра баты
неправи льноĠ
началь никуĠ
наблюд енияĠ
до кторĠ
ви но
ва вшиеĠ
Чита тельĠ
Со чи
К НРĠ
Де вя
3 4,
1 16Ġ
'Кры ль
'А к
ти пĠ
рей сомĠ
при менитьĠ
попа даютĠ
перево даĠ
направл ении.Ġ
кни ж
к скойĠ
голосо вания.Ġ
ге рĠ
га ',Ġ
взры вовĠ
а ссамбле
Хар ьков
Т ,Ġ
Спор т-Экс
Ж да
Балтий скойĠ
Ат мо
19 0
'Оборо н
эпиз од
ча суĠ
ту |
ссе ль
син те
принци пĠ
оказа лиĠ
об менаĠ
мо дель
коммер ческийĠ
какой -либоĠ
зоо паркаĠ
выте ка
ва лся,Ġ
Запад нойĠ
З ВОĠ
у зе
по йĠ
относи тьсяĠ
обы чномĠ
обез вре
не правомер
не каче
люби тĠ
кв. м.Ġ
заклю ч
железно дорожныхĠ
деятель ность,Ġ
го лки
во м.Ġ
бал тий
автобу сеĠ
Смо льни
Петро вĠ
ОМО НĠ
Наталь иĠ
9 0процентовĠ
4- мĠ
'З е
ф е.Ġ
тузи а
си лойĠ
прор валоĠ
привы к
превыси лаĠ
по дель
перево деĠ
определ ениеĠ
мину вшемĠ
дальней шихĠ
ву зыĠ
восточ нойĠ
ви зор
ве ль
Режиссе рĠ
Об стоятель
sb ur
'Э нер
'Мор скойĠ
ядер ногоĠ
учрежд ения,Ġ
согла сенĠ
слы шатьĠ
сал тин
проек ты,Ġ
призна ниеĠ
президен тскойĠ
пользу етсяĠ
подозрева емо
по сте
от пусти
ма х,Ġ
девуш куĠ
Трам пĠ
Се мь
'Фонтанка. РуĠ
ч. 2Ġ
региона льномĠ
расче товĠ
по стройкиĠ
мари хуа
малень кихĠ
ви три
в сталĠ
У В
Пре ждеĠ
Д ави
'Север наяĠ
шин ,Ġ
сотрудни чатьĠ
соверша лĠ
ниц а
неболь шихĠ
настаи ваетĠ
мл н,Ġ
д нюĠ
вла сти
Кала ш
'Аль- Каи
сче теĠ
праздни ковĠ
позволи лиĠ
ле чи
инвести ционныхĠ
запре щаетĠ
де ви
высо куюĠ
возника ютĠ
Ку б
Кабардино-Бал ка
Ду най
Владими р
Бир же
F l
14 ,Ġ
цен ностиĠ
темпера турыĠ
те :Ġ
ста вятĠ
по казĠ
пере воро
охра наĠ
нен нойĠ
ль ностьĠ
ло еĠ
г да.Ġ
веще стваĠ
архите ктораĠ
аппа рату
автомобили стовĠ
Хол дин
Т рудо
Сто кголь
Са ма
Михай ло
Генера льнойĠ
' Под
уда етсяĠ
пробле махĠ
опьян ения,Ġ
не м,Ġ
й ныеĠ
жела нияĠ
де ровĠ
г нулĠ
воз лага
вме ши
вдо х
б я
Санкт-Петербурга ',Ġ
Ро стури
Евро пе.Ġ
Дагеста наĠ
d eĠ
( 5
эпизо довĠ
экс клюзи
участ ков,Ġ
убор киĠ
трав мамиĠ
сы р
стан цияхĠ
сне сен
рован номĠ
региона льныйĠ
проек тов.Ġ
предприяти й.Ġ
по водĠ
пенсион ногоĠ
но чи.Ġ
но сте
незакон ныеĠ
недав негоĠ
мар ки
изнасило ванииĠ
до выеĠ
девоч куĠ
дво рĠ
д но,Ġ
вто ри
Мар со
Ке й
К ни
Все российскогоĠ
эффектив ностьĠ
че ваĠ
учиты ватьĠ
сдела нĠ
раз ры
откры тойĠ
опера ции,Ġ
обще ствеĠ
места х,Ġ
захва теĠ
ди п
город скомуĠ
Минобр наукиĠ
Бога ты
Ба шки
Атмо сфер
язы кеĠ
ци ю',Ġ
фак товĠ
сно сĠ
про ехатьĠ
политиче скоеĠ
откры лаĠ
от ры
оружи е,Ġ
оппози ции,Ġ
объ емомĠ
нен ныеĠ
купи лиĠ
инспе ктораĠ
и м,Ġ
здоров ью,Ġ
дости глиĠ
д номĠ
Рос авиа
Кон трак
4 процентов.Ġ
1 процентов.Ġ
фор му
тол ч
согласо ваниеĠ
русско язы
ремон тныхĠ
расстоя нииĠ
помога ютĠ
отве тилиĠ
оде ждыĠ
до просĠ
Э ПĠ
Курор тногоĠ
А ссоциа
Pe ter
це поч
хва титĠ
характе ра,Ġ
фе рĠ
ск воз
разгово рыĠ
разви ватьсяĠ
пя тыйĠ
прокуро руĠ
предоставля етĠ
подгото вилиĠ
под станцииĠ
од ы
ни гдеĠ
кос новен
коллек цииĠ
ка б
заканчи ваетсяĠ
в ходи
СК ,Ġ
Ме ро
Бер лу
'На циона
ь теĠ
филиа лĠ
требо ваниюĠ
транспор тноеĠ
сня тияĠ
ре в.Ġ
прохо жи
премьер- министромĠ
предпоч т
погибли .Ġ
пассажир скийĠ
от далиĠ
оборо н
ла п
вой неĠ
воен наяĠ
вкла довĠ
ви лаĠ
Хот я,Ġ
Си луа
З ени
Де вело
21 .
ро й,Ġ
работа ть.Ġ
про пи
политиче скаяĠ
показа телейĠ
пер вымиĠ
оперативно- розы
оператив ныхĠ
зарпла тĠ
за ни
други х.Ġ
выста во
биле таĠ
С не
Обви ня
Да ма
Влади славаĠ
Бон дар
7 процентов.Ġ
0 9
'Во й
ща ютсяĠ
фигу р
увелич енииĠ
россия нинĠ
рабо чаяĠ
пе раĠ
отмети тьĠ
обы сковĠ
объяви лоĠ
на но
метро в
из де
библиоте киĠ
Ю КОС
Татья ныĠ
Берлу ско
Бал ти
'Фонтанке '.Ġ
ция ми,Ġ
ро ско
приступи лĠ
природ ныхĠ
пере у
назна ченыĠ
восстано влениюĠ
визу аль
бес прецеден
архитек турыĠ
u ro
'Те ре
тере .Ġ
те беĠ
сло жнойĠ
проверя етĠ
пре даĠ
па нк-
ки ше
инвести ционнойĠ
диспет чер
ге ли
выда лĠ
в скаяĠ
При озер
удостовер ениеĠ
ства х,Ġ
ста тейĠ
специали стамиĠ
созда ноĠ
ран ениемĠ
рабо те.Ġ
плохо ,Ġ
организа циямиĠ
но вичĠ
много кра
ж скогоĠ
выз ванĠ
Я р
Ри о-
Лу к
Каза ниĠ
ч не
семь ямĠ
порно графи
от ря
оптими сти
ок ноĠ
ма ссаĠ
конкур са,Ġ
клю чениеĠ
ди теĠ
банков скиеĠ
ССС Р,Ġ
Народ ногоĠ
Ле он
Де мокра
X XĠ
A u
28 ,
13 ,Ġ
хва ти
формиро ванииĠ
теле сныхĠ
съез даĠ
скры лисьĠ
проек т.Ġ
потреби тельскихĠ
площа докĠ
отмен ен
ненави стиĠ
каса ютсяĠ
вступи лиĠ
16 1Ġ
угар нымĠ
сексуаль ныхĠ
се рий
провер ки.Ġ
при каза
пло до
музыка льногоĠ
кто в,Ġ
креди тныеĠ
вы ступятĠ
вы велиĠ
возбу ждениеĠ
в первы
бро силĠ
М ень
Каза н
2, 7Ġ
2, 4Ġ
'Го родĠ
шта беĠ
це йĠ
ста рыхĠ
серьез нойĠ
сбы тĠ
реб ятĠ
ре 'Ġ
ран еныĠ
пунк томĠ
пода вля
одоб рен
на тура
ло к,Ġ
до кто
дерев ниĠ
вы е,Ġ
во- первых,Ġ
Итали и,Ġ
Египе тĠ
эсто н
шах теĠ
ш отĠ
уча щихсяĠ
снизи лисьĠ
са у
ро ждествен
резю ми
процессуаль ноеĠ
подрост каĠ
по лĠ
переул кеĠ
пере сталиĠ
не че
ку б
кни гаĠ
звон киĠ
за тяги
жилищ ныхĠ
доста вленаĠ
до жде
выигра тьĠ
Уи лья
Тю мен
Си ль
Од ноĠ
Но чьюĠ
Мат ве
Кон флик
Бара каĠ
Б ек
( О
эм бар
х ос
утвер жденĠ
устанавлива ется.Ġ
соч лиĠ
с пин
ре кеĠ
процентов ',Ġ
прокурату ра,Ġ
продю се
по являютсяĠ
оз ераĠ
ниц а,Ġ
ме ется,Ġ
закры ваетсяĠ
докумен тахĠ
ги ги
По хи
юри стыĠ
ю т',Ġ
чен ноеĠ
ти сьĠ
произошед шееĠ
по ляр
пассажи ро
неде ле.Ġ
закры тиеĠ
бо ну
Спи сокĠ
Об ъя
На шиĠ
Минздрав соц
' вы
ю жнойĠ
челове комĠ
сиде тьĠ
реда кто
пере числя
не благоприя
истори и.Ġ
ги на,Ġ
вклад чи
ав стри
Ан ка
фа ,Ġ
угна лиĠ
строй ',Ġ
сове та.Ġ
си льныеĠ
розы гры
различ нымиĠ
пра ва.Ġ
постанови лĠ
по строй
ность '.Ġ
мато логи
консер ва
использо валĠ
извест нымĠ
зарубе ж
е ).Ġ
Т я
Соответствен но,Ġ
Ар турĠ
6 :
'Т ер
ти хо
ска мей
про рывĠ
подгото вилĠ
за седа
един ственнаяĠ
буду щийĠ
бра таĠ
УФ МСĠ
Моск войĠ
20 ,
( убийство
уров не,Ġ
у ходеĠ
техниче скаяĠ
со наĠ
сни жениюĠ
служи телиĠ
раж дани
проез жуюĠ
отпу скĠ
не возможно,Ġ
и кон
закон чилĠ
Петербурга ',Ġ
Калинин градскойĠ
За пре
Ал лаĠ
'Фонтанки .ру'Ġ
улиц амĠ
узна ть,Ġ
таможен ныхĠ
ску ю,Ġ
рабочи мĠ
пора жениеĠ
под ло
по раĠ
мо муĠ
людь ми,Ġ
ль даĠ
иден тифика
дума тьĠ
ди верси
граждани номĠ
голо войĠ
взгля дĠ
важ ныйĠ
Януко вичĠ
Хи лла
Про фе
Ме ль
Дмитри еваĠ
Де ка
Win dow
18 .00Ġ
'Со вет
урожен цаĠ
т скимĠ
рее страĠ
принци пеĠ
пере велиĠ
па лĠ
опровер га
наруши телейĠ
материа леĠ
лега лизацииĠ
кре м
благотвори тельногоĠ
адре со
Франсу аĠ
Жиринов скийĠ
Валенти неĠ
Бе зопас
'Со лда
'Петровско м'Ġ
я вленияĠ
услу ги,Ġ
специали сты,Ġ
спас енияĠ
прикры ти
постро еныĠ
посред ствомĠ
необходимо стьюĠ
наде етсяĠ
музы куĠ
л ения.Ġ
жа миĠ
дове рияĠ
да м,Ġ
бесс мыс
бе й
О бо
Коре иĠ
Г ЛОНА
Ве дом
Алексе емĠ
'Тепло сетьĠ
'Ме мориа
чер но
чемпи ономĠ
торгово мĠ
серьез ноеĠ
предме томĠ
пере хо
орке стро
ня лĠ
не действитель
коорди наторĠ
комите товĠ
ени й'.Ġ
банков скогоĠ
Reuter s,Ġ
ча сто
уч тен
тре й
спец службĠ
сена торĠ
об работкиĠ
ни чнойĠ
ни же,Ġ
мо ста.Ġ
ко п
вол шеб
Чехи иĠ
Су пер
П ОĠ
Колпин скогоĠ
le .Ġ
6 0процентовĠ
5- мĠ
'Росбал т'Ġ
широ кийĠ
рыбо лов
работа ющиеĠ
проголосо ватьĠ
право облада
подпи сьĠ
пере веденыĠ
непри косновен
ме ду
л енийĠ
кварта ловĠ
и ро
запад ногоĠ
до ставитьĠ
деятель ность.Ġ
да наĠ
да ми.Ġ
га за.Ġ
Го вор
Выборг скийĠ
Арм енииĠ
ig ht
'Пра вогоĠ
юрис дик
юно ше
щен нойĠ
установлен номĠ
улы б
сохран ениюĠ
самоле та.Ġ
рас сы
раз веĠ
премьер уĠ
ма |
ком па
заем щи
домаш нихĠ
до ме.Ġ
де- Жа
Рио- де-Жа
Ка зако
ia lĠ
1, 1Ġ
'Роснеф ти'Ġ
'П рай
'Ка м
чита тьĠ
сче т.Ġ
сосла вшисьĠ
совмест ныхĠ
принадлежа щийĠ
пору чи
но чногоĠ
ни же
моз гаĠ
кана ла,Ġ
е сть
е вой,Ġ
до водыĠ
выступа лиĠ
Чу бай
Фран сĠ
Петропав лов
Майк лĠ
201 3-
хорошо .Ġ
француз скийĠ
те мыĠ
служи лĠ
с |
пре ссо
постано влениемĠ
пору ченоĠ
объек томĠ
обер ну
народ ныеĠ
лич нуюĠ
значи тельныеĠ
дни .Ġ
границ ахĠ
вице- премьераĠ
банкрот стваĠ
Курор тномĠ
10 9Ġ
яв каĠ
электриче стваĠ
ц оĠ
убор куĠ
тюрь меĠ
торговл еĠ
та ),Ġ
т ле
строитель ство,Ġ
исполни лосьĠ
заклю чениюĠ
выпла теĠ
вы бран
ТЭ Ц
Ду мыĠ
Вла де
'Фонтанка.ру 'Фонтанка.РуĠ
уведомл енияĠ
повре ждениеĠ
пере ломĠ
оцени ваетĠ
ограничен нымиĠ
мене нĠ
госкон трак
ба лет
Цен тр
Ста чекĠ
Ива новаĠ
ы ва
това раĠ
территори яхĠ
ст е,Ġ
погибши х.Ġ
победи телейĠ
плат формеĠ
опублико ваныĠ
оло гиĠ
ны м'.Ġ
исследо вания,Ġ
интенси в
игро йĠ
ения )Ġ
высокопоста вленныхĠ
архе ологи
en d
50 .Ġ
1, 9Ġ
сти ческогоĠ
сказа ла,Ġ
пра в.Ġ
поо щ
подня лиĠ
насе ленногоĠ
ки |ВĠ
воору жениеĠ
' этоĠ
центр ыĠ
участ ницĠ
торго в.Ġ
счe тĠ
сто ло
прош лымĠ
общежи ти
на смертьĠ
воен кома
РУ В
5 -йĠ
.com ,Ġ
счита ютсяĠ
спор та.Ġ
специаль ноеĠ
собо й.Ġ
ско е'Ġ
р ва
продукто в,Ġ
пригла силĠ
полиго неĠ
наб лю
инициатив нойĠ
дру гуĠ
винов ныхĠ
ва шейĠ
У бий
Прак тическиĠ
Обстоятель стваĠ
М -201
Бухаре стскойĠ
p ic
St re
пре следованияĠ
получа етсяĠ
подар киĠ
пло ди
нуж дĠ
награ дыĠ
конкре тногоĠ
времен ем,Ġ
во- вторых,Ġ
бюро кра
Чер ны
КУ ГИ
увеличи тсяĠ
т )Ġ
ся га
руб люĠ
россия нинаĠ
призы вĠ
опреде лятьĠ
массо йĠ
е |ВĠ
дея телейĠ
голосо в,Ġ
высказа лисьĠ
выда ноĠ
Ниж немĠ
шта б
учрежд ения.Ġ
тари фĠ
способ ныĠ
соответству ющуюĠ
ск лон
приз валиĠ
показа лаĠ
повышен нойĠ
пи то
крупней шегоĠ
и е
зарегистри рованыĠ
запрещен нойĠ
внесен оĠ
бой цовĠ
аресто мĠ
адвока та,Ġ
Че нĠ
Сред нейĠ
Смольно м,Ġ
По прав
Михаи ломĠ
Мин скеĠ
Гидро мет
e x
э л
чрезвычай ноĠ
цы :Ġ
устран енияĠ
тру да,Ġ
соглас ныĠ
пообеща л,Ġ
персона лĠ
организа ция,Ġ
оператив ныеĠ
окра и
оказыва етĠ
обрати лосьĠ
обра тно
заяв каĠ
з рели
дороги хĠ
га за,Ġ
высо каяĠ
Пу ш
Ны неш
Магни т
Корреспонден тĠ
Ко стро
АЗ СĠ
11 ,Ġ
ща .Ġ
шпи она
услови иĠ
то -тоĠ
су вени
приземли лсяĠ
по ва,Ġ
национа льнуюĠ
ла |
корруп циейĠ
ко |
кар туĠ
ка бин
завер шенииĠ
ди спан
газо проводаĠ
выпла туĠ
ЮКОС аĠ
Домоде до
Га ври
sp b
er ,Ġ
6 8
2 28Ġ
'Че лси
х ма
у кры
трансля цииĠ
теле й',Ġ
ро й.Ġ
раз вод
предвари тельномуĠ
пр .
поло женииĠ
отказа лиĠ
индек са
ги сеп
вы хо
ва ются,Ġ
Х ер
Т .Ġ
e -
' дляĠ
э коло
чинов ники,Ġ
состоя лисьĠ
скаже м,Ġ
обще ства,Ġ
но гиĠ
негатив ноĠ
ка тьĠ
искус ствĠ
за бралĠ
должност нымиĠ
беско не
бе тон
Ве сьĠ
' Россия
ш ения.Ġ
чи стоĠ
хозя инĠ
тро туар
референду мĠ
праздни чныеĠ
покаж утĠ
от хо
неде ли,Ġ
не вер
нара щи
на ва
мо ре.Ġ
ман ныйĠ
ле м,Ġ
космодро маĠ
зада чейĠ
встре чĠ
видео роли
близ киеĠ
автомоби ль.Ġ
Т ПĠ
Ро симуще
Пар тияĠ
Дэ видĠ
Дагеста неĠ
А С
P ro
хоти теĠ
форма теĠ
улуч шитьĠ
улуч ши
столице .Ġ
состоя ниемĠ
прекра щен
организо ванĠ
интер нетĠ
возвра таĠ
Са мымĠ
Пред принима
Валенти нĠ
Tim es.Ġ
P R
3 процентов,Ġ
0 8
фон да.Ġ
ться '.Ġ
то гор
ти кĠ
студен таĠ
ре мен
р ти
пры ж
показыва ет,Ġ
объек ты,Ġ
неизвест ногоĠ
комна тыĠ
заслу гиĠ
д вери
Ю н
Ра ньшеĠ
2, 3Ġ
'Ислам скогоĠ
строй -
секто реĠ
пос лаĠ
показа л,Ġ
пациен товĠ
от правл
национа льныйĠ
комисси ейĠ
журнали сти
депута тов.Ġ
группиров каĠ
банк 'Ġ
Н .
Извест ныйĠ
част номĠ
управля тьĠ
трл нĠ
сто лĠ
сомн енияĠ
ри ейĠ
под счита
освобо жденĠ
ности |
ност ямĠ
ла тви
госпо динаĠ
глав но
беспо кой
авиали ни
У НИ
Очевиде ц:Ġ
Ку ри
центр уĠ
утвер ждениюĠ
субси дииĠ
сред ствоĠ
ру са
роди ласьĠ
реши лоĠ
расши рениеĠ
поступа етĠ
отнош ения.Ġ
клиен тов,Ġ
к р
игра хĠ
вме сти
вед ениюĠ
Иде яĠ
T h
3 5,
1 N
'Строи тельныйĠ
событи й,Ġ
сдела ть,Ġ
при вез
пе нĠ
избави тьсяĠ
докла даĠ
до х
го |
вклю чатьĠ
в клады
в вер
Пушки наĠ
e нныхĠ
фон да,Ġ
фар ма
университе та.Ġ
террористи ческаяĠ
скла дĠ
рису н
реаль ныхĠ
проспек та,Ġ
посети телиĠ
отве тыĠ
ню ан
необходи мыĠ
независи мыхĠ
м с.Ġ
ля тьсяĠ
л та
ков ского,Ġ
ко '.Ġ
д венадца
Санкт-Петербурга '.Ġ
Ли ва
Апракси наĠ
W T
транспор тнымĠ
развяз киĠ
прокурату ра.Ġ
предо стави
особен ностиĠ
оправ да
мемо риа
вы куп
воин скихĠ
бы вшаяĠ
Пред положительно,Ġ
Ирку тскойĠ
Е щeĠ
Е С
Га ли
В сяĠ
15 .00Ġ
'Об ще
у ехалĠ
тей ле
тай маĠ
руководи лĠ
ре ',Ġ
ради у
путе шестви
очевид цы.Ġ
министер ствеĠ
коллек тивĠ
капи тали
индивидуаль ныхĠ
заверши лиĠ
государствен ноеĠ
вознагра ждениеĠ
ви жуĠ
Ли геĠ
В ремяĠ
Peter sbur
ша ри
цело ст
у ступа
то 'Ġ
сть ю,Ġ
ст яза
сдел каĠ
перен а
пала теĠ
от я
оборо ны.Ġ
об следованияĠ
над письюĠ
моби ль
ме даль
лов уĠ
класса .Ġ
здравоохран ениюĠ
де фол
выпол ненииĠ
ТЭ ЦĠ
С обо
Россельхознад зораĠ
Прокуро рĠ
О рен
Е стественно,Ġ
'Р уби
'Мо йĠ
тем па
состави вĠ
регионе .Ġ
посовето валĠ
пожа р.Ġ
охран нойĠ
не коррек
лиц уĠ
лини и,Ġ
кандина ви
жен нымĠ
дохода хĠ
дополнитель нойĠ
дли нойĠ
'Го ло
х ).Ġ
стро ятĠ
роди телямĠ
расче тыĠ
поддерж койĠ
писто лет,Ġ
наркоти ков,Ġ
му :Ġ
концеп цияĠ
зали веĠ
восто р
Лари саĠ
К АĠ
Иль иĠ
' 'Ġ
шин ыĠ
чен нуюĠ
ров койĠ
рабо те,Ġ
пара метрыĠ
о ',Ġ
научно- исследова
запла титĠ
двадца тьĠ
грузо вĠ
вор валисьĠ
Хилла риĠ
Крем ляĠ
Ка сья
Во лко
' Василеостро
экономи ческимĠ
центр .Ġ
фир мен
тиру яĠ
сгоре лĠ
свето фор
пользо ваниеĠ
пи ваĠ
отпу щенĠ
окру га,Ġ
ль скиеĠ
имуще ственныхĠ
ж скомĠ
е е,Ġ
диагно зĠ
Ходорков скийĠ
СП СĠ
И тальян
Le ak
эк спортаĠ
чув ствуетĠ
уничто жениеĠ
тру да.Ġ
ступ ен
страте гииĠ
со ри
различ нойĠ
развити емĠ
ра нĠ
приостанов кеĠ
прие детĠ
под лежитĠ
пило тĠ
отра влениеĠ
обстре лаĠ
наруши лĠ
мо ва.Ġ
кол лег
заня ти
за пуска
гон киĠ
годо в,Ġ
возмож ноеĠ
ар сена
РФ :Ġ
Перво начальноĠ
На з
Аль бер
L in
чинов ник.Ġ
сло ва,Ġ
си л,Ġ
сай тыĠ
прогреме лĠ
призна камиĠ
при хо
пору чениюĠ
пол нымĠ
под обра
ор ди
ла ге
какая -тоĠ
истори ко-
изнасило вани
возрос лоĠ
виде о,Ġ
На шаĠ
Митро фа
6 процентов.Ġ
че ш
случи вшегосяĠ
самоле т,Ġ
различ нымĠ
проз ви
отве ден
оборудо вание,Ġ
из меня
ды еĠ
докумен те.Ġ
диск ри
вы клю
вспомни тьĠ
бы ва
Федо рĠ
К ен
ce d
X X
F I
фана тыĠ
удовлетвор енииĠ
сообщ ениямĠ
сдела ныĠ
реги онов.Ġ
принци пуĠ
при то
погод ныхĠ
оста льноеĠ
оружи емĠ
об на
ново стьĠ
несколь кимĠ
ко лаĠ
избира тельныеĠ
замен уĠ
дорож но-
во шлаĠ
Мурман скойĠ
Министер ствомĠ
Евро пуĠ
Б ро
( 0,
у ш
у й
тов скойĠ
производи тьĠ
пригла ша
пострада л,Ġ
мпсо ни
лливу д
колон наĠ
зна лиĠ
зна лĠ
возник нутьĠ
Михай ловскогоĠ
Грузи и,Ġ
S a
2 40Ġ
х ужеĠ
тенден цияĠ
телефон ныхĠ
сть ю.Ġ
си делĠ
связа тьсяĠ
мест нымиĠ
истори ческиеĠ
заявля ли,Ġ
загоре лсяĠ
гражда нам,Ġ
ги йĠ
вся комĠ
ве щейĠ
Т е,Ġ
ССС Р.Ġ
Bloomber g
'Мо сто
ция м,Ġ
сло ви
расположен ныеĠ
преж де
поз же,Ġ
подсче тамĠ
носи теляĠ
мож но,Ġ
губернатор ,Ġ
г ко
Т О
Кон до
'К ор
учи тьсяĠ
требовани ямиĠ
те миĠ
способ ыĠ
представи лаĠ
побереж ьеĠ
п то
объек теĠ
оборудо вания.Ġ
науч нойĠ
наруш ения,Ġ
надца тиĠ
комплек са,Ġ
за ма
дополнитель нуюĠ
ди мĠ
дан ных.Ġ
газо выхĠ
газе ты,Ġ
влия етĠ
Му зейĠ
Ар сен
А фана
Grou p
'В ер
ствен никиĠ
состоя ни
ру хну
преду смотре
поступи тьĠ
персона льныхĠ
перен оси
определя етсяĠ
об оĠ
ниче скихĠ
ников |
находи вшиесяĠ
ли )Ġ
крупней шийĠ
кам панияĠ
издели яĠ
до вестиĠ
больниц ы.Ġ
адре саĠ
Э ква
Теа трĠ
Государ ственныйĠ
199 0-хĠ
шта б-
ч койĠ
ф ф
се льĠ
прине стиĠ
предель ноĠ
от тен
опас ногоĠ
обру шенияĠ
о став
нотари у
низ койĠ
ми номе
люб ятĠ
контро леĠ
ко ш
в ходеĠ
Совет скойĠ
К осмо
ЗакСа .Ġ
Д зю
трамвай ныхĠ
ствен ное,Ġ
соблюд ениемĠ
проигра лĠ
прие меĠ
зи яĠ
занима ласьĠ
журна леĠ
выз ванаĠ
вы пустилĠ
введен аĠ
ва м,Ġ
Та ври
Сар ко
За город
M as
'Ф и
юриди ческиеĠ
ье рĠ
под поль
настоя щейĠ
на ле
ка ре
ка мер
де й,Ġ
горя чаяĠ
голосо вания,Ġ
газ 'Ġ
С ло
Моск ва'Ġ
Кирил лаĠ
3 3,
3 -йĠ
'Жилкомсерви сĠ
чен нымиĠ
услов ногоĠ
ро каĠ
праздни киĠ
пото каĠ
ли стыĠ
лармо нииĠ
ки но.Ġ
калиб раĠ
гро з
Средне взвешенныйĠ
Пер войĠ
З вез
торго ваяĠ
пунк тов.Ġ
планиру емĠ
обеспе ченииĠ
медицин скийĠ
мани пу
ле ран
внима тель
Ф ро
Рамза нĠ
ПА Р
V is
'Ко не
трав мы,Ġ
стратеги ческимĠ
пригла силиĠ
повы шениюĠ
отказа лись.Ġ
орке стрĠ
оппози ционныхĠ
контро льно-
инвести ционногоĠ
жи л
до шко
депута та,Ġ
газе туĠ
вы шлоĠ
Сер ьез
Кри ши
Интере сно,Ġ
В нуко
Ал жи
'Б ен
эта ж
хоро шейĠ
тради ционныхĠ
стра жей.Ġ
расследо ванииĠ
происходя щееĠ
природо пользо
пра в,Ġ
поня л,Ġ
петербург скоеĠ
остави вĠ
млад шийĠ
ме дале
ло гиĠ
лен наяĠ
комплек сногоĠ
знакомы хĠ
заяви л:Ġ
вл ение,Ġ
Сен нойĠ
Ири ныĠ
За се
Домодедо воĠ
Болга рииĠ
U S
че стерĠ
цве тыĠ
трудо вогоĠ
стре мя
со действияĠ
сби лаĠ
ре шенĠ
рассматри ваютĠ
п се
обвиня емыеĠ
ни чемĠ
мина н
е ),Ġ
добави ла,Ġ
Ц Б,Ġ
Пар тииĠ
Меди киĠ
Глав наяĠ
Ви но
twitter .com
) '.Ġ
стра ницыĠ
специали стаĠ
ско рее,Ġ
раке тныхĠ
осужден ногоĠ
ок ,Ġ
обществен ноеĠ
обо ст
но й',Ġ
которо го,Ġ
завтра ш
вице- президентаĠ
взаимо действиюĠ
бло кад
Фа би
Са мпсони
П ВОĠ
П АОĠ
Бу ря
S un
2 )Ġ
что бĠ
случи лсяĠ
ре кĠ
преодоле тьĠ
потребо ватьĠ
постав ленĠ
посвящен нойĠ
ня ютсяĠ
глав нуюĠ
выде леныĠ
благо получи
бежа лĠ
Ю А
ТВ 'Ġ
Но ва
Мета лло
К от
ционе рĠ
у казомĠ
спо рĠ
специаль нымĠ
соболезно ванияĠ
со постави
сканда лаĠ
ри ску
ра жа
пре вос
клиен тов.Ġ
вра чей,Ġ
Пред ыду
За строй
Де ми
Азербайджа наĠ
' се
ц комĠ
сыгра ютĠ
ско е,Ġ
откры тыĠ
метрополитен а,Ġ
м скомĠ
лаборато рииĠ
креди тамĠ
ка сси
дорож ныеĠ
Цыган кова,Ġ
Ту -
П ле
Гово рят,Ġ
4 процентов,Ġ
2, 6Ġ
'Ради оĠ
'Но выйĠ
'Анжи 'Ġ
ша м
удовлетвори тель
соревновани яхĠ
сообща тьĠ
ре пресси
произош ло.Ġ
полу дняĠ
подчеркну ла,Ġ
по рази
ня хĠ
но сĠ
много функциона
корзин ыĠ
кон цесси
запад ныеĠ
долларов |
вы пустилиĠ
Мили цияĠ
Ма тьĠ
Ал тай
p e
S et
ча с,Ġ
учрежд ений,Ġ
умер лаĠ
ста 'Ġ
слу ха
роля х:Ġ
развед ыва
пропа вшихĠ
приблизи тельноĠ
посе щениеĠ
норма тивныхĠ
нен коĠ
мэ рииĠ
во стокĠ
вер ф
в зо
больниц ы,Ġ
Ю жнаяĠ
Ч ар
По со
Ми лли
Ко со
Инве сто
Ер ма
Д ро
Говор яĠ
А ва
to dayĠ
'Про спектĠ
ь и
ш ру
ча миĠ
сотрудни цаĠ
режи ма,Ġ
пря мыхĠ
прове рилиĠ
присут ствова
ответи л,Ġ
опро шен
наз вани
ле выхĠ
жест киеĠ
действо валĠ
в водитсяĠ
бо и
Сотрудни камиĠ
Росси ей.Ġ
new sru.comĠ
200 7-
2 2-
электро нногоĠ
урегули рованияĠ
у мира
существу ющиеĠ
сум мы,Ġ
су дов.Ġ
стабили зацииĠ
ст ныйĠ
ря тьĠ
религиоз нойĠ
предо стере
од ру
не эффектив
мя саĠ
моли т
ко ше
кле ве
заклю чения.Ġ
ев скийĠ
веден аĠ
Гос нарко
х |ВĠ
сто м,Ġ
спи ска
согласи ласьĠ
связ ь
рыно чнойĠ
празд ну
неде лю,Ġ
мо .Ġ
мат че
да х.Ġ
высо комĠ
блока дыĠ
Фран ци
Сче тнойĠ
ВЦИ ОМ
Б от
p res
50 ,Ġ
40 ,Ġ
198 9Ġ
( этоĠ
'Вы м
'Аэрофло т'Ġ
эфи рĠ
улуч шениеĠ
трансля циюĠ
то м',Ġ
тепло выхĠ
теле коммуника
сы рье
сс ,Ġ
си леĠ
роди телей.Ġ
присут ствовалиĠ
пи кĠ
обраща лисьĠ
ново ст
не т'.Ġ
за мыс
де бо
гна лиĠ
ве ру
в водаĠ
больнице ,Ġ
аварий нойĠ
авари юĠ
авари и.Ġ
Со ко
Нава ль
Круп ней
Ат лан
so -
ш лисьĠ
треть имĠ
свобо днойĠ
ра цииĠ
приобре лаĠ
обнаружи тьĠ
обе седни
не согла
на ря
лоб би
ле ва,Ġ
кра е
запад ныйĠ
горожа н,Ġ
б лоĠ
а наĠ
Ю КО
ВИ Ч
В Е
цион ноĠ
ца хĠ
тирова нĠ
спор тĠ
свобод ныхĠ
произош ло,Ġ
определен ногоĠ
мощ ностиĠ
мо женĠ
лось :Ġ
ку :Ġ
катего рийĠ
ин ыĠ
знамени тыйĠ
е пи
газо войĠ
воспо мина
ассо рти
Фи гу
Ми нима
200 7
2 ',Ġ
четвер ть
убор кеĠ
случа ях,Ġ
проспек томĠ
перво началь
не просто
на сто
на ду
мир ногоĠ
мероприяти й.Ġ
лет нююĠ
и ци
за печат
в ступл
бря |
Т еĠ
Медведе вуĠ
З им
Аршави наĠ
Facebook .Ġ
4 -йĠ
ться 'Ġ
тра .Ġ
суме лиĠ
студен тĠ
проник лиĠ
поряд ка,Ġ
помещ ений,Ġ
получи вшийĠ
нор муĠ
мора то
ль це
ле п
кур сыĠ
коро лев
деше влеĠ
девя ти
даль негоĠ
д зе.Ġ
бизнес ,Ġ
аресто валĠ
Фестива льĠ
шта м
целе войĠ
фондо выеĠ
уточни ли,Ġ
уби тогоĠ
совер шатьĠ
сиг нализа
самми теĠ
пра пор
подпи се
останов кеĠ
настоя щимĠ
нане стиĠ
многоквартир ныхĠ
ку луа
коллега мĠ
када стро
значи тельноеĠ
в ложитьĠ
в велĠ
3 6,
( онĠ
услу ги.Ġ
те меĠ
спец службыĠ
событи й.Ġ
санитарно- эпидемиологи
ров скогоĠ
от стран
опублико ванаĠ
номе ровĠ
миниму м,Ġ
каса ющиесяĠ
избра нияĠ
зем леĠ
диа па
де леги
бе то
атмо сфе
Санкт-Петербург .Ġ
Де воч
А П
m so-
' Ге
ш ке
ш ения,Ġ
улуч шенияĠ
те мно
су дахĠ
р наяĠ
принима тьсяĠ
практи куĠ
прак тикиĠ
неф ть'Ġ
неф ти'Ġ
доро гиеĠ
дерев ьевĠ
газо мĠ
вече ром,Ġ
автобу с,Ġ
Э тимĠ
Северо-Запад нойĠ
Са м
По мощ
Ме стныеĠ
12 5Ġ
'Э та
ш ла
че ствоĠ
укреп лениеĠ
убий ство,Ġ
ти пи
слова .Ġ
рубе жомĠ
рекла маĠ
прока тĠ
показа ли,Ġ
ожидани иĠ
не су
музы каĠ
ль скихĠ
ле телиĠ
круп но
кандида турыĠ
домаш негоĠ
вы кри
анали тикиĠ
УНИ А
Ре волю
Коваль чу
y ou
http: www.
an c
Wiki Leak
G l
я сь,Ġ
ш ь,Ġ
чер ныйĠ
участ ников.Ġ
у маĠ
специали зиру
сор ци
собран ныеĠ
рань ше.Ġ
по вер
отказыва тьсяĠ
оказа наĠ
ма новĠ
каза р
ка ми
да дутĠ
возмож ныĠ
Ю жногоĠ
Э кипа
Заме тим,Ġ
2 22Ġ
экспер т.Ġ
ходатай стваĠ
труд ностиĠ
терак тĠ
ство валоĠ
раз ницаĠ
пя терыхĠ
покры тияĠ
перенос еĠ
освобо жден
обо чи
но к,Ġ
ник ',Ġ
нельз я,Ġ
наркоти киĠ
ге нĠ
впечатл ение,Ġ
в води
бизнес уĠ
Рус иĠ
Ме стоĠ
Атмосфер ноеĠ
А да
24 ,
чу де
ца м.Ġ
творче стваĠ
твит тереĠ
ро вымĠ
ресто ран
револю цииĠ
приостано влен
по стыĠ
плате жиĠ
пись мо,Ġ
о тор
не ц,Ġ
мо ре,Ġ
косми ческихĠ
ен наяĠ
выну жденаĠ
выбо раĠ
во стиĠ
Э лектро
Стро й
Необходи моĠ
Кова левĠ
C or
C .Ġ
40 .Ġ
утро м,Ġ
теа тре
те рииĠ
ст ',Ġ
сокра щенииĠ
реши л,Ġ
правонаруш енияхĠ
поло сеĠ
площа дейĠ
музыкан тĠ
кров лиĠ
за ря
дальней шееĠ
д eтсяĠ
возобно витьĠ
возник лоĠ
боепри пас
Ю риюĠ
Росте х
Р Г
И гра
Воро не
R o
'Д об
ша ф
систе м
привле чениемĠ
постано вленииĠ
пол нитель
погиб ше
период ,Ġ
опьян енияĠ
обще ства.Ġ
насиль ственнойĠ
надца ти
и ко
зака зовĠ
за ставилиĠ
водо й.Ġ
Кав каза
К лю
И горе
12 .Ġ
'Те ле
экономи куĠ
ресур сыĠ
ребенок .Ġ
ре акцииĠ
рабо чуюĠ
прогно зыĠ
приня тыеĠ
предоставля етсяĠ
позво нилиĠ
мат чемĠ
изобра жениемĠ
дорож номуĠ
ди кто
дет са
гна лĠ
ва емыеĠ
ближай шийĠ
а трибу
Че ре
Служ баĠ
Ру бин
Ново еĠ
Квар ти
Ис пыта
В Г
А п
s k
6 процентов,Ġ
' всеĠ
эта п
увелич ениюĠ
раз решенийĠ
профсою з
проек тамĠ
пообеща лаĠ
обяза тельногоĠ
объясня етсяĠ
но ми
клю чиĠ
закупо кĠ
заво да,Ġ
за груз
за ',Ġ
глав ныеĠ
гара жейĠ
въез даĠ
внеш нимĠ
вменя ютĠ
владель цуĠ
Де тиĠ
ГИ КĠ
Всеволож скогоĠ
Mer ced
'Дру гойĠ
ша 'Ġ
тся :Ġ
транс форма
темпера тур
ску ,Ġ
пу ти
попа даетĠ
подписа лаĠ
обвинитель ноеĠ
крас но-
кад ровĠ
зде сь,Ġ
задержа ны.Ġ
женщи н.Ġ
дь теĠ
до говари
вступи лоĠ
визи томĠ
в передĠ
Пострада вшийĠ
Москва -
Интерне т-
И на
Гага ри
Lenta .Ġ
5 9
яв киĠ
четве рыхĠ
ущер б,Ġ
у бра
те ло
служб ,Ġ
произвед енийĠ
предполага ется,Ġ
поч веĠ
переда чаĠ
обви ни
мусо раĠ
милли оныĠ
легко выхĠ
гвар дииĠ
боеприпа совĠ
Та куюĠ
Же ла
'Газета.Ru ',Ġ
ста хĠ
регистра цияĠ
пробле мамиĠ
пробле м.Ġ
поня т
поблагода рилĠ
освобо дилиĠ
команду ющийĠ
интере сноĠ
встре тилиĠ
бир же
О )Ġ
Мен яĠ
H 1N
27 ,
'В АЗ
'Бар село
столич номĠ
ста ре
сни женииĠ
прео дол
опьян ения.Ġ
ну ждыĠ
лени нград
зна ть,Ġ
буты л
а спек
Ре пи
Мара таĠ
В О,Ġ
France-Press e.Ġ
у ка
то м'.Ġ
рова вĠ
реши тĠ
простран ствеĠ
п 'Ġ
оружи е.Ġ
о ставилаĠ
необходи моеĠ
м не,Ġ
крас ныйĠ
концер наĠ
ка ютĠ
ис пуга
и |ВĠ
глав ка,Ġ
выясни лосьĠ
выез деĠ
Примор скомуĠ
Кронштад теĠ
Кора бле
Коман даĠ
Еже год
Веро ятно,Ġ
Би -
Ар мени
1 процентов,Ġ
'С пец
'| НаĠ
ц у.Ġ
туристи ческихĠ
тон ныĠ
проходи лоĠ
препят стви
прекра щениеĠ
подклю чи
о 'Ġ
кру из
испол комаĠ
законодатель нойĠ
журнали стуĠ
до к.Ġ
демо графи
ФН СĠ
Ра нее,Ġ
О .,Ġ
Иг раĠ
ДТ П
Григо рияĠ
Викто рияĠ
Бо ле
S P
RN SĠ
эта жныхĠ
то ваяĠ
собра лосьĠ
смарт фо
с клад
ре |
рас стре
подлежа тĠ
плохо .Ġ
оты гра
обы скĠ
меди камен
ме ти
кризи с,Ġ
зо вутĠ
г |
ба миĠ
а нке
Са мыеĠ
Афана сь
S l
25 -летнийĠ
( П
'Жигу ли'Ġ
характер ,Ġ
учени ковĠ
су ици
реда ктораĠ
разработ каĠ
подчеркну ли,Ġ
пита ния,Ġ
переез даĠ
орга ны,Ġ
определен ыĠ
к лич
дела ть.Ġ
дежур нойĠ
го ском
геро евĠ
вой нуĠ
в ходилиĠ
брать яĠ
У сть-
Пя ти
Нем цо
Американ скиеĠ
Twitter .Ġ
17 ,Ġ
ц койĠ
футбо лĠ
уче теĠ
тин скийĠ
рын кахĠ
разме щенииĠ
подоб наяĠ
подверг сяĠ
по еди
окон чилĠ
м киĠ
и рак
значи тсяĠ
закончи тсяĠ
граждан стваĠ
выбра лĠ
впере диĠ
арти стаĠ
акку ра
Це льĠ
СБ УĠ
Рот ен
ОО Н.Ġ
Кады роваĠ
Ар ен
5 'Ġ
- то,Ġ
ющи е,Ġ
траге дияĠ
с скойĠ
ресур сĠ
потра ченоĠ
пор .Ġ
парти й,Ġ
д р.Ġ
бизнесмен ыĠ
Эль ви
Фин скомĠ
Си ноп
Сво юĠ
По хо
Зем лиĠ
Донец кеĠ
Гос строй
Г К
11 .30Ġ
у ходитьĠ
транспор ту,Ġ
слова миĠ
сер ьезнаяĠ
регла ментаĠ
пунк тов,Ġ
посе щатьĠ
подро стокĠ
пада ютĠ
организа циямĠ
опера ции.Ġ
обяза лиĠ
обы чныеĠ
оборо томĠ
обо га
о просĠ
на кры
еди ницыĠ
деть ми,Ġ
выез даĠ
вмеша тельстваĠ
РФ ',Ġ
Петербур жен
Ленин скийĠ
Ива нов.Ġ
Бело у
Airb usĠ
-2 10
ю мо
цев |
характери зо
свобо дноĠ
садо вод
ре пер
ре акцияĠ
расче тĠ
пробле меĠ
плани ровалĠ
пла тнойĠ
новогод нююĠ
ме рахĠ
лицензи он
ко ну
ко выйĠ
документа ции,Ġ
внеш негоĠ
вид ноĠ
взрывча тыхĠ
боль шийĠ
активи стĠ
С ви
Пулко во-
Не ту
Крем льĠ
s un
ш ь
трамва йĠ
собствен никиĠ
сена тораĠ
свое временноĠ
руководи телюĠ
прогно зиру
про пор
пози цийĠ
подо ж
отреаги ровалĠ
освобо жда
опы таĠ
ни я',Ġ
ни ку,Ġ
не адеква
на рисо
ль- Шей
кос вен
зо ны,Ġ
до жида
дискри мина
выдели лĠ
Финлянди и.Ġ
Согла шениеĠ
РБ К.Ġ
Виш не
on esĠ
X VI
э стра
родствен никамĠ
рее ст
ре тсяĠ
па не
ниц а.Ġ
мен тыĠ
ло ко
ло женĠ
клу быĠ
голосо вани
возме ститьĠ
буде теĠ
агре га
Спорт-Экс прессĠ
О сен
Воро неж
Автомоби льĠ
A ,Ġ
12 .00Ġ
январ ьĠ
ч ь,Ġ
циви лизо
х ?Ġ
формиро ваниюĠ
уби тьĠ
пла нуĠ
охра ны,Ġ
норма мĠ
но й|
написа ноĠ
материа лаĠ
маршру т
лагер ьĠ
колле гаĠ
СЗФ О,Ġ
ПМЭ Ф
З ор
Барсу коваĠ
Niss anĠ
'С вяз
'На ши
я ?Ġ
хокке и
хле б
уда лось,Ġ
тин скомĠ
теле й|
таможен нойĠ
смени лĠ
попы токĠ
оппози ции.Ġ
лед я
ле -
кон во
итальян скогоĠ
зи сĠ
заказчи комĠ
дежур ногоĠ
авто ромĠ
Л об
Ку мари
L if
16 ,Ġ
ста рин
редак ции,Ġ
призы выĠ
при це
пли -
пара шю
определя етĠ
необходи маĠ
наблюда телиĠ
на коне
лица м,Ġ
л .
изучи тьĠ
знакомы еĠ
звез дĠ
заказ чикĠ
е т'.Ġ
дисциплинар нойĠ
да ноĠ
военнослужа щиеĠ
водоснаб женияĠ
вече ром.Ġ
благополу чноĠ
Ф у
Ребен окĠ
Москов скаяĠ
Конфлик тĠ
Ко но
en ta
26 ,
ю щуюсяĠ
форвар дĠ
столкнов енийĠ
со стяза
роу мин
рас сро
псе вдо
предпринима телей,Ġ
перекры лиĠ
нуж но,Ġ
неодно зна
не ма
назна ч
из вести
дисквали фици
виде ос
вер хов
ва ются.Ġ
бы стры
арти стыĠ
аварий ныхĠ
Чу тьĠ
Погиб лиĠ
По люстро
Ни чегоĠ
Не известныеĠ
К то-тоĠ
Га ле
an kĠ
экономи ческиĠ
установ кеĠ
строи тĠ
сс иĠ
следствен но-
следова телейĠ
про сти
присоедини тьсяĠ
привлек лиĠ
откры ваетĠ
осно вы
объя вленыĠ
объек тамĠ
ню дьĠ
незамедли тельноĠ
науч ныйĠ
мусуль ма
ма кро
ль си
лихо рад
кро ве
конструк цияĠ
кон соли
за гран
готови тьсяĠ
выбо ры,Ġ
Роди телиĠ
Про изо
Го дĠ
экспер ты.Ġ
то гда
сохраня етсяĠ
рассмотре лĠ
принципиаль ноĠ
показа ла,Ġ
на цииĠ
метео рологи
лагер еĠ
ку пли-
запа хĠ
еш ь,Ġ
дели тьĠ
движ ениюĠ
велосипе ди
бере говойĠ
арми и,Ġ
Петроград скийĠ
Патриар хĠ
О Ч
Его рĠ
Воло год
c or
D -
7 процентов,Ġ
( С
! !
э ми
ф онаĠ
ст скихĠ
сло ,Ġ
скры тьсяĠ
разъя сн
раз жига
организа тораĠ
любо пыт
льно- посто
лидера миĠ
граждан ствоĠ
выход ныхĠ
вспы хнулĠ
Твит тереĠ
Светла ныĠ
Ка спа
co m
человек ',Ġ
требу яĠ
телефон ,Ġ
съ е
сво яĠ
профессиона льныйĠ
прием нойĠ
презен тацииĠ
пере сталĠ
оста ль
ожо гиĠ
конкур сыĠ
измени тсяĠ
жест коĠ
доступ ныĠ
г ментĠ
вступа етĠ
аэропор та.Ġ
Разу меется,Ġ
Од нойĠ
Л ,Ġ
Вы ступа
Воз душ
'Фонтанка '.Ġ
'Пар на
'Об ъ
'Воз рожд
у ',Ġ
та ря
сани та
при городеĠ
по тря
наде ютсяĠ
крупней шимĠ
искус ства,Ġ
ин терак
им портĠ
за ции,Ġ
друз ья
говори лосьĠ
Нету п
Не известныйĠ
Кер риĠ
И АĠ
А зииĠ
pic .
A .Ġ
6- мĠ
ци стер
ха н
сы номĠ
съез дĠ
ства х.Ġ
собо й,Ġ
симво лĠ
самоле теĠ
ров еньĠ
пробле мамĠ
наде жду,Ġ
мо ста,Ġ
мину туĠ
мар каĠ
истори ческомĠ
исклю ченияĠ
игро ков,Ġ
е жене
госпитали зацииĠ
года ).Ġ
выс шееĠ
вы зовĠ
вой ско
бер ку
Спи керĠ
Провер каĠ
Моск ва,Ġ
КЭРППи ТĠ
Все ,Ġ
a ceĠ
New sru.comĠ
сопроти влениеĠ
прокурату ре,Ġ
про филь
призна ютĠ
при рав
отправля тьĠ
нау к,Ġ
мужчи ну.Ġ
зо м,Ġ
за ку
вымога тельствеĠ
выигра лиĠ
виру саĠ
видео запи
аварий ныеĠ
Ф ар
След ственномĠ
За чемĠ
e b
NEWS ru.comĠ
I IIĠ
'Опера тивноеĠ
' а'Ġ
хоро шаяĠ
указа нныйĠ
тяже лыхĠ
тра ур
те ги
ста м,Ġ
сен са
пресс-конферен ции,Ġ
предписа ниеĠ
попа да
ма скахĠ
ли в
информа гент
вы са
Ч ленĠ
Худо ж
Украин скаяĠ
У щер
О сно
Мар ты
Л ер
8 процентов,Ġ
эк стре
ца 'Ġ
участ ке,Ġ
тру буĠ
точ каĠ
тер пи
призна ноĠ
от реставри
но чнойĠ
недо ступ
наде емся,Ġ
на я',Ġ
на нима
матиче скихĠ
информа ти
во ва
вер ени
У дель
Клич коĠ
Бо го
Анд реĠ
Ан дер
'Гор ьков
утвер дитьĠ
тек стаĠ
пусти тĠ
пуль тĠ
послужи лоĠ
подрядчи комĠ
пода ро
пенсионе ровĠ
патру льно-посто
они .Ġ
озву чилĠ
мужчи н.Ġ
мину вшийĠ
довери еĠ
де 'Ġ
гу р
вы ш
Шереме тье
М она
Ведом ствоĠ
А лиĠ
pic. twitter.com
ющи мисяĠ
ч ьеĠ
устран енииĠ
у влека
трени ровкиĠ
тр ыĠ
ти рованиеĠ
суд на,Ġ
семе й,Ġ
рекла ми
по том,Ġ
пара лимпий
охра ны.Ġ
оте леĠ
музе я,Ġ
молоде жногоĠ
мили цию.Ġ
житель ницыĠ
а спи
Хо зя
И рак
W A
шен нымĠ
учи теляĠ
тин ,Ġ
существо ваниеĠ
стер аĠ
отда ватьĠ
обществен нымĠ
норма тив
ля ',Ġ
коне чномĠ
инте лли
ги мĠ
выбо рамиĠ
вы ',Ġ
авто дорогиĠ
Фут боли
Ленинград скийĠ
Вс eĠ
30 00Ġ
24 -
'Евро вид
тю ре
трe хĠ
темпера ту
строитель ство.Ġ
спи ке
соста ва.Ġ
созда ютĠ
сай те.Ġ
рассмотрен оĠ
потребу етĠ
писа теляĠ
па ло
окрест ностяхĠ
наруш ений.Ġ
моз га,Ġ
ли тровĠ
ла рь
ер вер
ежемеся чноĠ
бо яĠ
Цар на
Робер тĠ
Мэ рĠ
ar l
четвер тиĠ
уверя ют,Ġ
у ехатьĠ
согласо вы
ра да
прода ноĠ
обвиня етĠ
ников ',Ġ
музыка льныхĠ
ль скомĠ
лед иĠ
кер ыĠ
кажды еĠ
действо валиĠ
С обеседни
C l
0 ,5Ġ
чув стви
удоволь ствиемĠ
у ходя
соору женияĠ
при ходаĠ
превыси лоĠ
послед няяĠ
поряд ка.Ġ
пи том
отдел енийĠ
от нюдьĠ
мото цикли
кол ко
игро комĠ
землетряс ениеĠ
закончи лосьĠ
ем '.Ġ
допро саĠ
добави ли,Ġ
выбор еĠ
бор ютсяĠ
Рого зинĠ
Недвижи мость
Майк лаĠ
М ГУĠ
Лу нача
Информа циюĠ
И бра
И ГИ
Агент стваĠ
r uĠ
f f
2, 8Ġ
13 .00Ġ
1 15Ġ
'Золо тойĠ
ювели рныеĠ
штрафо мĠ
хо ре
ф лан
сократи лосьĠ
совет скоеĠ
следстви я.Ġ
приня тыхĠ
предоста вленоĠ
обы кнов
о тельĠ
л ения,Ġ
круп наяĠ
име емĠ
запро сыĠ
де льĠ
граждан скийĠ
выгод ноĠ
вну тр
в дво
анти корруп
Ш ме
Роском надзорĠ
По лон
Мар шру
2 3,
'Ве стиĠ
ф -
улиц у,Ġ
та бле
соц сетиĠ
соглаш енийĠ
сня тĠ
свобод ноеĠ
самостоятель но.Ġ
р '.Ġ
причи ненииĠ
получи лосьĠ
оцени ватьĠ
обеспоко ен
кури роватьĠ
ко выĠ
ке й
ги та
г ераĠ
выстав куĠ
в водитĠ
Шев ченкоĠ
Задержа нĠ
Ев рази
Алеп по
28 -летнийĠ
( 4
'О с
холо ди
фак е
топ- менедже
совет скиеĠ
прошед шийĠ
при вяза
на лĠ
ле в,Ġ
ко й',Ġ
заду мы
ем 'Ġ
грузо вогоĠ
графи яĠ
вы й,Ġ
воз ложен
аф ган
Шарм-э ль-Шей
Александ рин
g eĠ
Sam sun
25 ,Ġ
2 13Ġ
2 '.Ġ
'Б ра
форми роватьĠ
уста ре
у шлоĠ
сете й,Ġ
раз обла
предприниматель скойĠ
похи щениеĠ
по хва
по казыватьĠ
образо м:Ġ
оборо теĠ
ков -
избира тельнаяĠ
бен зи
алкого льĠ
Япо нии,Ġ
Цен треĠ
Кузне цоваĠ
Г ан
y p
d .Ġ
18 ,Ġ
14 .00Ġ
эффектив ноĠ
энер гоĠ
щ енийĠ
хозя евĠ
убий ствĠ
тури н
строя щегосяĠ
се ти'Ġ
преступл ение,Ġ
от ,Ġ
объя сненияĠ
машин у.Ġ
ко вой,Ġ
границе йĠ
близ ки
автор скихĠ
Фонтан ки,Ġ
Н аль
Владе лецĠ
er s
' Кар
щи ков.Ġ
указа ныĠ
стоя лаĠ
пря могоĠ
прогно зуĠ
под защи
п ьян
обы чнойĠ
обсужда тьсяĠ
ны -
носи лĠ
мигран тов,Ġ
ма ми,Ġ
дни ,Ġ
времен ныхĠ
валю таĠ
Наде юсь,Ġ
На лого
До полнитель
6 6
'Н ис
'Балтий скийĠ
'Балт Инфо
то рамĠ
те ли:Ġ
та ло
суще ствуĠ
с менитьĠ
с ли,Ġ
рен е
построен аĠ
отве теĠ
определен ныйĠ
обслужи ватьĠ
конкурен цииĠ
к ля
зна л,Ġ
законопроек та,Ġ
заво да.Ġ
е вичаĠ
веща нияĠ
Тур ции.Ġ
Старо вой
Исла н
Д А
un da
( -
'Оборон серви
ше ваĠ
чен .Ġ
студен тов,Ġ
ста вшийĠ
спорт сменĠ
собствен никĠ
сне га.Ġ
сказа но,Ġ
свиде телемĠ
прокоммен тироватьĠ
продолжа тĠ
прай мери
пара дĠ
обществен наяĠ
обстанов киĠ
ны й'.Ġ
концер тыĠ
движ ениемĠ
глу бин
вообще ,Ġ
а мери
Устано влено,Ġ
К ла
За кон
s w
19 ,Ġ
'Ман честерĠ
эвакуа цияĠ
француз скихĠ
случа и,Ġ
ро га
прокурату ру.Ġ
президен т,Ġ
потеря лаĠ
отнош ения,Ġ
отмен еныĠ
от клады
опти ма
моти ва
миро вымĠ
ма рокĠ
лю ди
ло я
ле ',Ġ
[...]
